the 5942914
, 4805114
. 3944561
of 3106321
and 2748226
to 2670901
in 1927029
a 1706295
is 1391771
that 1128717
for 999979
on 804416
@-@ 746136
with 669012
be 664710
are 645690
The 625057
I 606113
as 584404
this 579168
it 518714
we 508848
have 484661
by 473134
not 470194
which 418965
you 414802
will 413403
&quot; 371516
from 367349
or 361127
at 354412
an 354150
- 350258
has 348695
&apos;s 339559
( 328650
) 325729
European 301547
can 289820
all 276317
our 275899
: 249110
also 248035
was 243306
its 212020
would 204743
but 201394
your 200787
We 200148
more 194077
their 190694
been 188495
one 183113
In 183052
Mr 181970
should 179163
This 173808
It 171049
&apos; 170654
Commission 169400
must 161685
they 148787
President 147836
do 146323
there 145571
other 143078
new 142291
like 142000
very 139996
time 139655
only 138225
about 134898
/ 134715
us 128409
these 127489
so 125774
? 125346
Union 124725
up 122844
who 121269
Parliament 117598
if 116835
Europe 115407
no 113585
people 109376
any 109003
States 108689
out 108121
countries 106873
Member 106551
into 106308
report 105902
such 103637
what 103437
; 99395
Council 99055
EU 98410
need 98398
well 98293
than 97856
my 95367
re@@ 95240
use 94887
were 94442
when 93998
now 92509
important 92497
some 91630
work 89950
make 89945
them 89641
because 89323
first 88968
between 88688
most 88464
s 87178
many 86980
take 85565
his 84824
way 83350
A 83171
un@@ 81578
able 81530
support 80121
! 79580
made 78580
policy 78182
those 77699
years 77179
ing 77067
world 75448
am 75388
information 75373
two 75252
If 74423
just 74178
being 73205
... 73039
over 72552
in@@ 71670
where 70625
had 69582
even 69308
system 68562
he 67893
may 67234
year 66395
right 66259
order 65599
political 65387
market 64822
economic 64759
part 62845
hotel 62456
% 61724
ed 61702
rights 61226
here 60933
possible 60627
development 60207
same 60127
area 59923
through 59584
As 59488
own 59196
o 58990
see 58976
against 58745
place 58649
good 58636
could 58310
therefore 58214
country 58201
how 57911
want 57378
S@@ 56738
within 56730
y 56356
then 56344
es 56236
c@@ 55971
de 55857
after 55559
You 55486
much 55441
does 55267
both 55162
point 55097
public 54930
There 54774
For 54181
used 53980
under 53861
1 53851
2 53476
me 53339
social 52735
i 52636
fact 52499
without 51885
say 51827
international 51721
C@@ 51430
find 51104
e 51031
high 50968
believe 50726
still 50119
number 50012
future 49995
long 49894
p@@ 49777
ation 49686
services 49508
know 49427
already 49344
P@@ 49317
free 48550
last 48350
view 48284
today 48116
end 47842
s@@ 47812
ers 47720
different 47623
That 47602
ate 47416
course 47404
But 47024
think 46992
er 46945
cannot 46714
set 46662
too 46370
great 46364
human 46176
case 46099
Commissioner 46031
financial 46016
before 45892
process 45817
level 45713
available 45706
B@@ 45366
products 44477
debate 44398
proposal 44212
al 43889
issue 43751
T@@ 43736
national 43638
3 43610
data 43385
quality 43282
question 42914
said 42626
e@@ 42580
example 42559
Hotel 42361
situation 42174
dis@@ 42157
means 41796
clear 41718
o@@ 41699
G@@ 41586
ated 41243
A@@ 41195
get 40869
Committee 40759
day 40693
measures 40564
since 40389
particular 40330
service 40187
t 40156
d@@ 40051
However 39979
citizens 39969
agreement 39836
including 39407
during 39340
t@@ 39260
D@@ 39221
common 39154
energy 39108
b@@ 38849
help 38675
based 38622
offers 38464
every 38421
best 38206
M@@ 38183
ensure 38078
taken 37807
give 37678
areas 37652
de@@ 37431
problem 37405
y@@ 37379
H@@ 37338
put 37274
each 37264
en@@ 37226
access 37078
security 37057
small 36937
business 36754
next 36680
far 36399
position 36369
three 36285
m 36284
L@@ 36274
provide 36026
problems 36012
go 35964
cooperation 35687
large 35648
few 35625
Our 35566
further 35465
necessary 35463
4 35433
why 35289
d 35257
E@@ 35233
K@@ 35231
vote 35118
again 35023
change 34939
given 34880
come 34643
city 34600
&#91; 34586
g@@ 34490
F@@ 34449
shall 34402
hope 34241
&#93; 34178
however 34141
N@@ 34046
5 34037
law 34017
room 33956
offer 33918
On 33766
ting 33739
action 33604
United 33269
ted 33181
real 33169
while 33133
All 32985
needs 32903
back 32841
ating 32739
di@@ 32725
v@@ 32662
And 32649
protection 32616
R@@ 32593
al@@ 32542
group 32492
i@@ 32296
O@@ 32220
Community 32160
less 32145
u@@ 32130
m@@ 32122
ts 32072
trade 32045
Mrs 32041
using 31982
better 31963
company 31939
an@@ 31924
rooms 31869
form 31847
W@@ 31813
life 31806
down 31754
To 31679
power 31628
whether 31612
current 31573
With 31558
particularly 31480
always 31449
state 31446
V@@ 31335
Group 31277
What 31276
terms 31178
legal 30980
ro@@ 30920
working 30914
her 30870
making 30798
At 30750
10 30733
They 30506
present 30494
a@@ 30485
issues 30398
House 30303
become 30295
full 30190
ations 30143
k@@ 30050
li@@ 29972
production 29950
result 29928
together 29714
p 29596
sector 29577
con@@ 29532
women 29525
did 29437
f@@ 29401
conditions 29304
certain 29288
role 29248
systems 29189
another 29128
open 29056
government 28998
health 28988
n@@ 28977
main 28916
When 28915
c 28709
These 28643
basis 28559
children 28559
US 28479
respect 28245
second 28234
budget 28199
companies 28165
matter 28158
special 28049
industry 27931
&amp; 27878
around 27729
per 27668
done 27656
crisis 27633
whole 27536
account 27497
ti@@ 27466
decision 27459
located 27427
control 27421
co@@ 27412
especially 27412
ly 27372
&apos;t 27354
rapporteur 27276
specific 27226
global 27202
old 27190
ar@@ 27032
various 27002
regard 26846
line 26790
look 26772
stay 26768
third 26729
create 26677
million 26652
research 26570
term 26559
resolution 26528
h@@ 26504
ra@@ 26485
continue 26458
I@@ 26254
directive 26187
going 26180
programme 26080
growth 26055
region 26022
gentlemen 25984
called 25967
si@@ 25842
site 25833
rules 25825
or@@ 25814
itself 25778
tions 25741
fully 25739
non 25662
ch@@ 25655
ri@@ 25631
le 25609
ask 25550
really 25501
page 25425
something 25388
experience 25353
major 25332
hand 25330
ous 25241
water 25235
least 25198
institutions 25094
er@@ 25061
wish 24902
.@@ 24867
management 24863
Treaty 24853
project 24742
local 24739
single 24735
k 24694
general 24679
ings 24666
ates 24664
Madam 24609
6 24465
at@@ 24415
subject 24316
centre 24225
towards 24205
als 24157
list 24141
increase 24115
on@@ 24106
start 24081
often 24065
forward 24044
environment 24041
j@@ 24002
following 23945
once 23935
ent 23927
Germany 23902
aid 23776
20 23771
le@@ 23754
en 23722
thank 23691
economy 23679
transport 23648
close 23618
welcome 23599
w@@ 23494
z@@ 23490
resources 23475
several 23463
l@@ 23436
days 23398
opportunity 23387
China 23380
l 23355
approach 23291
Members 23221
30 23194
money 23168
things 23158
ad@@ 23070
German 23045
rather 23023
interest 23002
em@@ 22965
im@@ 22874
agree 22850
proposals 22839
framework 22692
amendments 22653
field 22568
behalf 22558
call 22549
individual 22471
name 22432
J@@ 22388
b 22382
se 22317
ladies 22283
State 22234
effective 22185
range 22127
No 22076
adopted 22065
yet 22053
away 22031
product 22029
2009 22004
off 21985
7 21975
policies 21970
progress 21936
am@@ 21826
st@@ 21795
price 21776
food 21766
private 21759
little 21757
taking 21753
der 21752
x 21750
might 21742
&#124; 21729
el@@ 21727
software 21690
modern 21685
solution 21683
legislation 21679
activities 21646
safety 21640
until 21559
family 21521
&apos;@@ 21462
opinion 21454
costs 21423
ar 21397
favour 21390
period 21365
side 21365
allow 21317
quite 21300
having 21286
h 21256
lo@@ 21243
ic 21214
found 21198
So 21138
members 21134
short 21130
among 21122
provided 21112
points 21045
reason 20935
key 20869
him 20846
responsibility 20844
concerned 20826
pre@@ 20803
words 20797
technology 20789
r@@ 20786
value 20737
ant 20728
es@@ 20720
difficult 20680
ally 20664
th@@ 20647
personal 20616
u 20516
strategy 20498
sp@@ 20431
greater 20427
importance 20395
age 20376
n 20325
excellent 20289
others 20283
society 20257
include 20222
8 20162
air 20162
ding 20148
attention 20143
above 20106
red 20077
ors 20063
projects 20055
known 20043
principle 20015
3@@ 19995
play 19973
environmental 19966
let 19960
results 19942
as@@ 19916
po@@ 19889
groups 19868
due 19820
content 19808
customers 19803
simply 19799
building 19793
makes 19774
Con@@ 19740
left 19721
home 19697
application 19629
employment 19614
authorities 19598
text 19593
times 19529
light 19458
He 19445
U@@ 19415
clearly 19343
recent 19341
led 19333
questions 19277
step 19242
el 19176
15 19172
Russia 19161
standards 19143
ds 19109
One 19081
risk 19050
addition 19009
tion 19001
achieve 19000
ac@@ 18983
serious 18913
Re@@ 18906
provides 18856
proposed 18847
ago 18804
responsible 18772
deal 18753
ability 18741
After 18714
cultural 18698
interests 18676
show 18671
re 18628
version 18612
inter@@ 18598
essential 18577
democracy 18543
regulation 18421
be@@ 18364
internal 18318
over@@ 18299
sh@@ 18293
regions 18283
meeting 18261
voted 18249
markets 18245
design 18220
under@@ 18183
C 18178
location 18141
pages 18127
longer 18118
Al@@ 18116
efforts 18079
democratic 18056
freedom 17996
rate 17981
ine 17953
technical 17953
implementation 17942
training 17934
12 17870
address 17864
currently 17851
bring 17848
website 17848
required 17837
kind 17832
past 17803
complete 17791
op@@ 17742
easy 17732
peace 17720
parties 17719
competition 17709
needed 17702
negotiations 17673
related 17672
months 17664
ty 17635
sure 17617
S 17606
involved 17565
man 17557
ex@@ 17545
World 17539
2010 17537
contact 17495
themselves 17472
EUR 17459
enjoy 17458
natural 17427
Internet 17401
ter 17375
positive 17355
2008 17350
force 17273
solutions 17257
user 17252
ap@@ 17212
se@@ 17209
pro@@ 17200
wide 17184
Z@@ 17162
thing 17144
cost 17108
fundamental 17107
developing 17102
comes 17099
D 17064
requirements 17043
land 17038
enough 17033
cases 17017
town 17012
along 16991
Presidency 16990
x@@ 16975
ab@@ 16963
des 16958
house 16956
funds 16953
th 16925
consider 16922
developed 16905
minutes 16891
states 16868
via 16847
T 16842
la 16833
feel 16819
she 16799
changes 16798
directly 16794
50 16790
nature 16783
four 16719
low 16713
regional 16699
young 16691
strong 16664
it@@ 16631
foreign 16625
ary 16589
education 16588
In@@ 16565
extremely 16497
views 16495
is@@ 16491
sea 16486
upon 16475
climate 16449
date 16443
seen 16395
et 16381
ve 16353
workers 16353
person 16340
events 16324
improve 16320
ist 16317
Y@@ 16229
9 16222
never 16213
heart 16211
history 16173
keep 16063
investment 16047
war 16046
thus 15998
effect 15947
true 15924
share 15915
res 15900
qu@@ 15890
les 15885
network 15866
staff 15858
act 15815
tax 15811
beautiful 15797
procedure 15792
prices 15787
century 15775
2@@ 15763
majority 15754
central 15751
appropriate 15712
actually 15710
accept 15697
either 15682
la@@ 15646
though 15637
understand 15603
reform 15584
lead 15577
top 15570
success 15557
te 15549
pay 15543
4@@ 15540
est 15521
held 15463
idea 15462
total 15458
Turkey 15435
mentioned 15425
2007 15421
event 15403
request 15368
International 15362
tra@@ 15361
art 15343
lot 15331
created 15300
ever 15294
care 15280
additional 15261
almost 15229
relations 15225
run 15217
online 15201
context 15198
according 15197
certainly 15193
ise 15168
meet 15154
vi@@ 15143
From 15132
works 15119
os 15104
turn 15103
ans 15102
g 15096
France 15094
soon 15083
2000 15068
live 15058
language 15034
concerns 15027
capital 14999
visit 14994
E 14975
active 14971
please 14968
agreements 14949
space 14925
aware 14915
doing 14915
ses 14908
significant 14908
to@@ 14889
impact 14873
bo@@ 14859
type 14858
bi@@ 14834
programmes 14820
guarantee 14799
living 14766
decisions 14764
committee 14761
mo@@ 14753
existing 14748
ties 14748
five 14742
try 14719
rates 14714
plan 14705
receive 14705
Please 14698
communication 14689
New 14683
parts 14683
um 14644
file 14620
direct 14596
X@@ 14588
everything 14574
Government 14573
military 14545
men 14544
French 14534
ci@@ 14531
ance 14524
takes 14505
road 14449
amount 14432
concerning 14396
25 14375
add 14372
knowledge 14369
ver@@ 14351
included 14320
objectives 14312
guests 14298
reasons 14296
sed 14290
looking 14289
car 14286
jobs 14270
initiative 14266
hard 14229
us@@ 14209
ma@@ 14194
near 14190
writing 14127
24 14118
final 14116
ag@@ 14110
users 14109
remain 14101
early 14086
facilities 14085
et@@ 14080
tive 14076
America 14075
designed 14049
standard 14049
reach 14045
apply 14041
week 14030
across 14004
Lisbon 13984
11 13981
throughout 13957
ment 13954
governments 13950
ways 13946
body 13942
population 13939
community 13913
ded 13901
team 13900
connection 13892
values 13859
agricultural 13837
demand 13831
B 13826
ce 13782
euro 13743
5@@ 13723
concern 13721
fight 13719
member 13713
outside 13710
nothing 13705
objective 13695
party 13689
American 13685
unique 13662
took 13630
gu@@ 13626
sense 13609
integration 13600
moment 13586
By 13581
O 13579
ator 13572
100 13570
program 13558
leading 13542
ke 13536
om@@ 13528
practice 13511
established 13497
benefit 13491
although 13478
media 13476
later 13467
Court 13464
Affairs 13436
How 13430
per@@ 13409
partners 13397
ch 13394
regarding 13389
night 13372
develop 13369
basic 13368
model 13340
indeed 13293
stage 13266
etc 13264
aim 13248
_ 13244
reports 13230
face 13216
car@@ 13206
completely 13204
situated 13195
move 13186
keyword 13184
performance 13162
Let 13148
customer 13144
dialogue 13140
seems 13136
features 13134
tic 13134
00 13114
package 13111
km 13095
nuclear 13048
big 13047
Finally 13026
achieved 13025
music 12992
Office 12981
My 12967
hours 12927
sustainable 12923
prevent 12912
famous 12906
19@@ 12890
focus 12890
culture 12888
built 12885
Mar@@ 12880
hi@@ 12880
sc@@ 12868
consumers 12855
gra@@ 12854
goods 12851
potential 12838
mean 12836
2006 12829
traditional 12816
Since 12770
lack 12766
quickly 12764
18@@ 12731
amendment 12724
principles 12712
ob@@ 12695
0@@ 12691
ons 12685
balance 12683
table 12675
card 12670
entire 12639
station 12627
commitment 12625
half 12614
function 12608
check 12603
includes 12594
bar 12593
Article 12588
par@@ 12576
allows 12573
comp@@ 12553
increased 12551
ec@@ 12546
ent@@ 12546
sing 12539
ity 12537
treatment 12519
ul@@ 12519
+ 12507
agreed 12492
ves 12468
border 12462
levels 12446
received 12445
te@@ 12444
send 12440
recently 12435
ze 12434
perhaps 12422
beach 12420
book 12400
ge 12388
matters 12385
read 12364
professional 12357
ideal 12352
South 12343
bed 12330
contains 12328
que 12328
job 12290
ta@@ 12287
tri@@ 12287
East 12264
self 12259
successful 12246
answer 12244
huge 12244
higher 12238
co 12230
coming 12223
promote 12223
mind 12202
everyone 12200
whose 12193
* 12180
game 12143
applications 12142
carried 12140
An@@ 12130
no@@ 12126
web 12120
restaurant 12112
6@@ 12105
gh@@ 12099
test 12092
board 12078
follow 12076
choice 12075
actions 12073
enable 12073
ol@@ 12071
TV 12069
joint 12069
presented 12063
original 12061
below 12059
return 12059
stop 12035
fi@@ 12023
ur@@ 12014
response 12011
Therefore 11994
simple 11992
material 11989
sub@@ 11980
increasing 11973
billion 11967
beginning 11966
ge@@ 11947
reduce 11945
closed 11934
oil 11921
June 11914
creation 11913
files 11907
und 11886
effects 11873
equipment 11863
aspects 11848
May 11847
funding 11843
possibility 11825
highly 11815
opportunities 11814
enlargement 11810
pressure 11801
ful 11790
exchange 11785
rec@@ 11779
M 11773
Here 11763
image 11743
capacity 11732
sion 11728
ir@@ 11704
ins 11702
civil 11701
X 11691
priority 11684
direction 11668
out@@ 11667
comfortable 11654
external 11633
asked 11632
pi@@ 11624
added 11610
st 11563
pool 11560
su@@ 11556
ou@@ 11553
P 11532
z 11531
note 11519
r 11509
mail 11506
Ar@@ 11488
protect 11474
perfect 11453
18 11444
press 11440
rest 11428
previous 11424
consumer 11411
shown 11411
8@@ 11407
Africa 11404
Co@@ 11404
reached 11398
forms 11373
equipped 11372
speak 11367
supply 11345
remains 11342
shows 11340
thanks 11332
prepared 11322
stability 11317
ents 11307
behind 11300
ten 11297
An 11288
ments 11286
mer@@ 11282
ship 11282
w 11278
Now 11274
setting 11265
so@@ 11250
complex 11245
relevant 11233
� 11231
fair 11210
Bank 11186
7@@ 11161
40 11159
considered 11147
Convention 11145
assistance 11137
supported 11128
series 11112
holiday 11101
ism 11097
il@@ 11092
providing 11092
Of 11091
gi@@ 11085
cause 11076
front 11073
Ro@@ 11068
ders 11062
Spain 11060
industrial 11059
office 11052
rule 11045
friendly 11035
F 11029
do@@ 11025
categories 11024
regulations 11008
2005 11005
movement 11004
ha@@ 10998
ne@@ 10998
Central 10966
computer 10964
decided 10958
regards 10958
14 10957
di 10952
ot@@ 10924
breakfast 10900
choose 10892
$ 10888
ourselves 10885
efficient 10884
Mo@@ 10883
Some 10875
former 10873
creating 10871
relation 10870
Italy 10869
ters 10852
16 10850
ies 10829
latest 10809
man@@ 10801
ms 10797
compromise 10783
discussion 10775
independent 10764
December 10760
style 10747
9@@ 10744
came 10708
commercial 10700
f 10697
® 10688
limited 10677
violence 10670
size 10665
pleased 10659
places 10645
lines 10637
Minister 10620
produced 10601
for@@ 10597
sites 10597
L 10591
ed@@ 10591
com@@ 10585
materials 10581
procedures 10563
contribution 10553
operation 10545
ches 10543
ass@@ 10541
ying 10531
2004 10528
brought 10518
ling 10518
code 10513
double 10506
internet 10504
gives 10499
produce 10499
provisions 10487
Ad@@ 10458
fishing 10442
similar 10424
ces 10422
purpose 10416
September 10415
ence 10410
benefits 10404
ving 10401
ators 10396
cor@@ 10396
sions 10390
labour 10381
Berlin 10363
sound 10361
item 10359
activity 10346
agenda 10346
statement 10344
000 10329
ative 10324
steps 10324
draft 10319
criteria 10305
.com 10302
walk 10302
message 10286
structure 10286
First 10283
travel 10279
ones 10263
leave 10242
instead 10241
transparency 10239
distribution 10238
easily 10237
ic@@ 10236
search 10231
effort 10229
Mediterranean 10204
pe@@ 10204
instruments 10200
G 10197
poverty 10193
document 10185
Republic 10180
mis@@ 10175
British 10174
wi@@ 10170
giving 10165
status 10162
credit 10156
pa@@ 10151
13 10150
English 10149
challenges 10142
Rights 10131
solidarity 10131
IT 10130
res@@ 10130
consequences 10122
property 10118
elections 10107
R 10102
ground 10092
me@@ 10090
UN 10084
ber@@ 10083
medium 10069
safe 10066
Today 10064
reviews 10064
six 10064
2003 10062
sub 10057
equal 10049
ep@@ 10043
gas 10041
source 10034
cross 10027
conflict 10024
details 10022
don 10022
ck 10006
center 10005
January 10002
star 9980
av@@ 9950
legislative 9950
conference 9942
stand 9941
task 9937
express 9934
floor 9930
du@@ 9923
sts 9910
forces 9905
tell 9878
2001 9872
v 9864
damage 9863
March 9856
popular 9847
Pro@@ 9840
ni@@ 9837
terrorism 9819
require 9817
ging 9811
uses 9808
allowed 9805
paid 9796
reality 9793
word 9773
growing 9767
ets 9765
annual 9751
bu@@ 9751
é@@ 9751
ps 9750
finally 9745
nor 9741
October 9737
concept 9730
link 9730
construction 9729
ter@@ 9725
speed 9723
ad 9715
build 9715
study 9711
largest 9701
ia 9697
video 9690
charge 9664
ten@@ 9662
da 9660
colleagues 9654
summer 9648
integrated 9635
reading 9635
,000 9617
Service 9598
establish 9595
Th@@ 9586
est@@ 9560
ver 9550
Furthermore 9542
written 9534
tomorrow 9532
comm@@ 9530
documents 9526
saying 9520
congratulate 9516
submitted 9515
option 9511
crucial 9506
partner 9504
ut@@ 9497
accommodation 9492
avoid 9492
Development 9490
Directive 9488
operating 9488
ure 9482
General 9477
efficiency 9477
draw 9463
applied 9455
bit 9442
implemented 9439
sive 9426
lies 9418
server 9411
0 9399
organisations 9392
started 9392
requires 9380
lives 9375
he@@ 9369
talk 9367
Amendment 9362
payment 9346
ry 9341
interesting 9340
review 9336
ina 9332
rich 9331
elements 9327
leaders 9316
Party 9315
enter 9304
beyond 9302
monitoring 9298
ra 9296
relating 9287
Italian 9281
reduction 9268
voting 9268
goes 9266
Bo@@ 9265
Ma@@ 9251
July 9249
Israel 9248
ck@@ 9248
atmosphere 9246
DE 9236
employees 9230
ren@@ 9227
sent 9221
ready 9217
guest 9211
ru@@ 9210
analysis 9208
tool 9208
accession 9205
zed 9189
dy 9187
processes 9185
war@@ 9181
bar@@ 9175
Di@@ 9172
immediately 9167
class 9164
hotels 9162
types 9156
official 9150
ho@@ 9129
island 9124
practical 9118
mon@@ 9112
Spanish 9099
rise 9099
inc@@ 9091
farmers 9082
North 9080
carry 9076
pl@@ 9075
section 9068
anti 9066
Many 9055
Although 9049
powers 9049
changed 9044
sectors 9041
post 9040
ali@@ 9037
click 9037
instrument 9025
November 9018
2002 9016
variety 9016
den@@ 9000
death 8998
go@@ 8984
minimum 8981
tools 8979
mar@@ 8963
banks 8932
wing 8929
waste 8927
happy 8914
extent 8908
ess 8904
justice 8885
Fund 8866
expect 8866
ality 8864
bus 8856
challenge 8847
comprehensive 8847
persons 8839
reference 8836
da@@ 8834
highest 8823
base 8811
sted 8802
um@@ 8802
mention 8800
ideas 8798
reforms 8792
round 8789
useful 8787
17 8785
son 8785
businesses 8783
historical 8783
Moreover 8782
strategic 8781
begin 8780
poor 8764
secure 8757
National 8756
St@@ 8756
school 8754
Windows 8742
weeks 8739
implement 8734
Even 8732
60 8727
ys 8726
hold 8723
tu@@ 8719
links 8715
€ 8707
despite 8691
Gu@@ 8683
K 8681
vo@@ 8672
adopt 8669
namely 8666
tors 8666
end@@ 8663
En@@ 8661
caused 8658
Western 8652
digital 8652
scale 8650
Indeed 8649
ev@@ 8633
technologies 8625
fo@@ 8622
ing@@ 8621
numerous 8616
ma 8614
sk@@ 8614
raised 8610
lower 8601
Ch@@ 8599
During 8599
cut 8586
borders 8585
Secondly 8584
ably 8582
innovation 8580
wanted 8571
starting 8566
accordance 8563
drive 8562
alone 8556
download 8551
up@@ 8538
scientific 8523
cu@@ 8521
wine 8521
ages 8510
initiatives 8510
doubt 8506
ne 8501
N 8496
ness 8496
month 8482
Chinese 8463
sa@@ 8450
structural 8450
ale 8445
currency 8442
Ireland 8433
fall 8419
probably 8410
mobile 8409
While 8400
min@@ 8398
ology 8398
child 8396
cohesion 8392
Car@@ 8391
historic 8390
daily 8375
Russian 8373
debt 8365
ges 8360
April 8353
mi@@ 8349
became 8338
methods 8338
regime 8332
affected 8330
scope 8325
anything 8318
influence 8312
maximum 8295
representatives 8289
sometimes 8287
absolutely 8280
transfer 8278
80 8276
unemployment 8271
thought 8270
ca 8266
ard 8265
expressed 8265
au@@ 8263
&apos;ll 8259
col@@ 8256
Your 8255
friends 8245
demands 8242
calls 8240
sur@@ 8238
lic@@ 8233
confidence 8227
accepted 8225
trying 8223
ski 8222
Bar@@ 8214
late 8213
worldwide 8212
increasingly 8209
ously 8208
sting 8205
1999 8202
offered 8195
advantage 8194
pass 8193
published 8179
ler 8172
apartment 8171
method 8171
Conference 8163
sales 8162
options 8161
Iraq 8159
illegal 8158
1@@ 8151
19 8147
offering 8147
fine 8145
vital 8140
news 8130
committed 8129
chance 8124
Cor@@ 8119
distance 8118
heard 8108
overall 8108
ens 8087
learn 8086
machine 8085
priorities 8083
maintain 8081
die 8072
interested 8070
critical 8069
intended 8069
ph@@ 8066
innovative 8061
Thank 8060
approved 8052
extra 8052
infrastructure 8052
lost 8039
talking 8026
cks 8021
join 8020
conclusion 8019
il 8011
financing 8008
emissions 8007
village 7998
V 7994
Com@@ 7993
gl@@ 7993
administration 7987
tor 7987
= 7981
head 7981
Nations 7980
languages 7977
zation 7974
relationship 7966
proper 7960
stress 7950
sen@@ 7945
processing 7942
Y 7939
sign 7925
Austria 7921
circumstances 7921
Li@@ 7918
alternative 7914
cities 7913
ensuring 7907
ati@@ 7899
worked 7892
crime 7878
likely 7878
cal 7877
Su@@ 7875
plans 7873
victims 7873
trans@@ 7856
-@@ 7844
del 7841
release 7841
alism 7840
sports 7835
Do 7834
Greece 7834
ak@@ 7830
opening 7827
II 7826
income 7823
competitive 7820
clients 7816
risks 7815
der@@ 7811
tabled 7810
target 7808
fields 7799
effectively 7796
contribute 7789
decide 7784
encourage 7783
got 7746
fast 7743
improved 7725
reduced 7724
Is 7713
agriculture 7703
Lu@@ 7697
Japan 7694
contract 7691
00@@ 7683
budgetary 7676
tics 7675
ines 7671
film 7670
motion 7670
players 7669
Security 7667
ics 7665
restaurants 7665
21 7664
goal 7664
UK 7661
participation 7660
aimed 7651
1.@@ 7650
fish 7634
H 7630
La 7628
cover 7623
morning 7612
airport 7607
Po@@ 7605
India 7601
met 7597
bank 7592
Public 7591
comments 7585
expected 7583
images 7566
says 7566
fellow 7563
lu@@ 7559
mainly 7557
green 7554
Le@@ 7553
whom 7539
park 7537
500 7534
ants 7517
Par@@ 7506
precisely 7488
20@@ 7487
Iran 7481
har@@ 7481
placed 7480
Only 7479
mountain 7471
exist 7466
signed 7462
correct 7460
institutional 7459
planning 7458
acc@@ 7455
assessment 7453
sec@@ 7450
discussed 7446
specifically 7441
laws 7432
sources 7431
partnership 7429
apartments 7426
West 7424
De@@ 7420
strengthen 7417
getting 7415
discuss 7407
ingly 7402
immigration 7390
king 7389
Room 7386
running 7384
discrimination 7382
People 7376
200 7368
supports 7366
stated 7358
enterprises 7354
player 7351
understanding 7351
sti@@ 7350
zing 7348
protected 7344
discussions 7343
22 7335
traffic 7334
games 7331
manner 7327
wrong 7327
cra@@ 7326
defined 7316
families 7316
introduced 7312
Sch@@ 7304
selection 7297
developments 7294
measure 7294
27 7290
á@@ 7287
Agreement 7282
rural 7281
va 7280
mark 7268
More 7257
guidelines 7257
represents 7255
wants 7235
positions 7231
suitable 7228
becoming 7221
serve 7221
sation 7218
powerful 7208
automatically 7203
sufficient 7196
wa@@ 7193
her@@ 7184
box 7183
Middle 7181
nice 7180
else 7176
introduction 7169
Centre 7168
referred 7163
train 7161
session 7158
competitiveness 7157
mat@@ 7157
improving 7154
limit 7151
{ 7151
10@@ 7142
closely 7140
broad 7138
Asia 7136
speaking 7136
ble 7124
yourself 7117
managed 7115
fisheries 7111
administrative 7089
covered 7088
id 7086
quiet 7086
Paris 7078
gen@@ 7076
animals 7075
monetary 7072
police 7070
Lo@@ 7069
thousands 7068
appear 7064
supporting 7061
17@@ 7060
un 7055
loss 7051
exactly 7050
Ex@@ 7048
den 7048
sized 7047
phone 7039
considerable 7038
detailed 7036
coordination 7033
clean 7032
minute 7032
relate 7027
can@@ 7025
GmbH 7022
presidency 7018
fying 7016
linked 7016
visitors 6997
represent 6996
ks 6995
installation 6993
separate 6992
email 6989
electronic 6985
economies 6984
ka 6982
networks 6980
speech 6980
all@@ 6976
stable 6972
ta 6972
0.@@ 6970
ian 6970
parliamentary 6967
purposes 6966
happen 6959
Park 6958
functions 6956
listed 6955
menu 6947
delivery 6945
ie 6944
ran@@ 6938
entry 6929
Economic 6926
provision 6926
Policy 6923
bre@@ 6923
ven@@ 6917
hour 6915
summit 6912
ari@@ 6902
ved 6895
generation 6892
Web 6888
dra@@ 6886
fin@@ 6885
Tra@@ 6884
evening 6880
Why 6868
duty 6868
parking 6862
thinking 6860
facing 6859
earlier 6858
www.@@ 6857
otherwise 6853
bodies 6849
15@@ 6848
AG 6847
feature 6841
plant 6837
} 6837
bad 6832
ture 6831
London 6825
23 6823
IC@@ 6821
app@@ 6811
shopping 6811
cur@@ 6810
sitting 6807
suggest 6798
ES 6797
San 6787
operations 6780
Social 6778
authority 6776
the@@ 6770
plants 6767
Its 6764
swimming 6760
acts 6753
Q@@ 6749
properly 6749
difficulties 6748
Mon@@ 6747
usually 6747
extensive 6745
record 6744
EC 6737
ese 6732
cy 6727
Brussels 6726
organisation 6725
map 6724
IN@@ 6722
é 6721
dealing 6716
remember 6711
seem 6710
garden 6708
ste@@ 6699
collection 6695
threat 6687
comfort 6686
modified 6685
politics 6684
domestic 6681
founded 6681
degree 6677
worth 6675
followed 6672
70 6671
ical 6671
ster 6658
Then 6655
cally 6652
port 6643
trust 6640
path 6639
ish 6633
spirit 6633
entirely 6630
men@@ 6630
ill@@ 6623
ats 6622
consideration 6616
programs 6607
animal 6605
street 6601
ational 6600
students 6600
promoting 6587
Pre@@ 6583
Unfortunately 6573
refer 6571
combat 6566
cre@@ 6566
began 6563
experts 6562
presence 6557
ban 6556
humanitarian 6555
flexibility 6550
sal@@ 6548
February 6544
average 6543
&apos;re 6541
dic@@ 6523
flexible 6522
City 6514
University 6514
medical 6504
establishment 6499
regular 6499
fund 6497
love 6491
Poland 6478
cs 6477
Rec@@ 6471
Ukraine 6462
failure 6462
hear 6452
opened 6452
save 6446
Ri@@ 6443
applies 6440
adoption 6438
white 6436
opposition 6429
PC 6428
AS@@ 6425
implementing 6425
seriously 6423
fore@@ 6418
informed 6414
reducing 6408
paper 6402
played 6400
difference 6391
ther@@ 6391
IS@@ 6384
defence 6384
Be@@ 6383
Kingdom 6380
aims 6377
ber 6368
ast@@ 6367
finance 6366
2.@@ 6361
fiscal 6361
origin 6361
spend 6361
Czech 6358
selected 6356
tourism 6356
stone 6349
appears 6347
practices 6346
syn@@ 6346
criminal 6341
track 6340
terrace 6339
Europeans 6334
components 6334
ana 6333
connected 6330
Not 6327
camera 6325
sis 6323
Switzerland 6321
Ac@@ 6320
Each 6317
90 6316
super@@ 6310
actual 6309
marketing 6307
Firstly 6305
vehicles 6303
fixed 6301
election 6295
aspect 6290
screen 6283
net 6281
born 6278
Or@@ 6277
16@@ 6271
respond 6268
tes 6268
balanced 6266
fl@@ 6260
differences 6257
union 6257
Rooms 6252
attempt 6246
producers 6243
south 6241
Sea 6240
tradition 6234
Because 6227
client 6224
ws 6224
bathroom 6216
AR@@ 6215
Inter@@ 6215
structures 6211
votes 6209
playing 6207
won 6207
myself 6206
consumption 6205
God 6203
Just 6200
Justice 6198
buy 6198
statements 6198
W 6196
metres 6196
ak 6195
spending 6192
exclusive 6190
ER 6189
propose 6188
ures 6183
cul@@ 6179
negative 6178
larger 6177
recognition 6177
concrete 6176
tourist 6171
Barcelona 6168
happened 6168
purchase 6167
Human 6161
meetings 6160
gs 6154
Debian 6152
asylum 6150
ged 6149
dangerous 6142
AN@@ 6139
reasonable 6139
served 6138
easier 6135
genuine 6135
normal 6133
ahead 6129
hands 6129
&gt; 6123
dly 6122
fer@@ 6120
br@@ 6118
ore 6116
ently 6112
ig@@ 6111
agencies 6107
eb@@ 6107
WTO 6103
unacceptable 6099
calling 6096
and@@ 6094
becomes 6087
raise 6087
forget 6086
advanced 6080
ba@@ 6079
fac@@ 6072
estate 6068
evidence 6067
bra@@ 6066
nation 6066
August 6060
introduce 6055
pre 6050
numbers 6047
select 6043
generally 6042
prior 6042
buildings 6041
mission 6040
fear 6036
ner 6031
seek 6027
guarantees 6025
eg@@ 6023
elected 6018
immediate 6015
impossible 6014
According 6012
membership 6011
EN@@ 5998
trading 5998
gave 5994
Amsterdam 5993
unfortunately 5983
tru@@ 5982
instance 5969
sport 5969
associated 5967
campaign 5965
AT@@ 5964
tur@@ 5964
establishing 5962
peaceful 5961
improvement 5955
shi@@ 5939
12@@ 5930
houses 5928
break 5925
condition 5923
Once 5918
ours 5916
Also 5913
tures 5913
USA 5911
berg 5909
cards 5907
ce@@ 5907
walking 5905
High 5903
telephone 5900
gain 5898
fresh 5897
continued 5896
inside 5895
cy@@ 5894
dec@@ 5894
Free 5892
items 5892
carefully 5888
experienced 5882
Democrats 5880
shared 5880
closer 5879
stock 5878
went 5867
im 5866
Per@@ 5863
fied 5859
voice 5859
spent 5857
urgent 5857
Prime 5855
vel@@ 5848
Kosovo 5842
atic 5842
yer 5840
machines 5839
picture 5839
CD 5835
ino 5835
core 5834
detail 5826
ger 5826
War 5825
sides 5825
continues 5824
territory 5823
zone 5823
wor@@ 5822
imp@@ 5819
Regulation 5818
Services 5817
African 5814
era 5812
grounds 5812
IT@@ 5809
strongly 5809
ised 5807
anyone 5806
ve@@ 5804
our@@ 5803
conclusions 5800
inform 5799
desire 5797
figures 5797
des@@ 5796
enormous 5791
ory 5788
Turkish 5786
outcome 5786
truly 5785
perspective 5783
leader 5781
Christian 5779
lin@@ 5778
4.@@ 5777
commitments 5777
assi@@ 5772
ological 5768
told 5767
rightly 5759
stic 5758
changing 5756
met@@ 5756
ro 5754
Palestinian 5752
wishes 5752
ur 5748
religious 5746
fire 5742
models 5742
sha@@ 5742
display 5737
sensitive 5734
bear 5733
convinced 5733
contrary 5731
Irish 5727
tim@@ 5726
Linux 5725
failed 5718
ely 5716
database 5712
weapons 5711
export 5710
ring 5710
announced 5708
obtain 5708
participate 5708
winter 5708
Yet 5704
unto 5696
greatest 5694
typical 5694
5.@@ 5688
hor@@ 5685
weight 5685
candidate 5683
drawn 5682
photo 5677
tasks 5675
element 5673
insurance 5670
wonderful 5669
cli@@ 5661
paragraph 5660
pleasant 5658
allowing 5647
Such 5645
bri@@ 5634
28 5632
300 5629
availability 5628
exercise 5626
ited 5625
26 5624
Euro 5624
remind 5624
Trade 5620
transparent 5619
ant@@ 5618
combination 5618
passed 5618
honourable 5617
forced 5615
Research 5614
described 5613
Swiss 5611
institution 5611
studies 5608
Vi@@ 5607
Nevertheless 5603
manage 5603
optim@@ 5600
Most 5599
equality 5597
payments 5595
controls 5594
factors 5590
unless 5586
CO@@ 5585
achieving 5583
ched 5583
warm 5583
Green 5582
sort 5577
stri@@ 5577
format 5575
Constitution 5571
definition 5570
RE@@ 5568
firm 5568
Booking.com 5567
ambitious 5567
charged 5562
disease 5551
permanent 5549
ft 5546
Guest 5545
exc@@ 5543
beds 5526
himself 5524
obligations 5524
Foreign 5523
medi@@ 5521
advance 5517
intervention 5517
translation 5516
pri@@ 5514
14@@ 5513
Un@@ 5513
Greek 5510
possibilities 5509
tour 5509
expenditure 5504
kitchen 5504
ori@@ 5503
packages 5503
sum@@ 5502
tation 5500
gen 5497
targets 5495
colleague 5493
comment 5492
individuals 5491
cat@@ 5489
1998 5488
Tri@@ 5486
Due 5485
reliable 5480
sets 5479
character 5475
organised 5475
standing 5474
ships 5473
ano 5472
entitled 5465
stra@@ 5465
lan@@ 5464
claims 5463
For@@ 5459
Health 5459
laid 5459
Portugal 5457
governance 5455
door 5454
atory 5453
ple@@ 5453
initial 5452
obviously 5450
ice 5449
unable 5448
ear@@ 5442
race 5442
fun 5441
deep 5440
EC@@ 5439
learning 5439
Board 5437
Ab@@ 5435
GDP 5435
back@@ 5432
Eastern 5428
bs 5428
enables 5426
ade 5425
cl@@ 5425
tly 5424
attractive 5423
fy 5422
.. 5414
3.@@ 5408
district 5406
yesterday 5405
vision 5404
independence 5403
neither 5402
contain 5401
compared 5399
existence 5395
article 5393
middle 5393
multi@@ 5393
flow 5392
granted 5392
orders 5392
season 5392
arian 5391
ite 5390
moving 5387
continuing 5386
work@@ 5384
limits 5381
shop 5373
courses 5369
installed 5369
strengthening 5369
combined 5366
totally 5366
registered 5365
ER@@ 5359
Netherlands 5359
cars 5358
His 5357
str@@ 5354
fe@@ 5353
pointed 5352
promotion 5348
Airport 5346
She 5345
names 5344
tan@@ 5344
expression 5343
skills 5340
U 5337
completed 5335
ths 5334
ens@@ 5331
exhibition 5330
ically 5325
advertising 5323
ach@@ 5322
stands 5322
prevention 5316
corporate 5315
recommendations 5309
marked 5308
aries 5307
merely 5306
35 5304
No@@ 5297
asking 5297
devices 5292
sho@@ 5290
Her@@ 5287
ences 5285
ists 5283
Mor@@ 5278
brand 5278
exp@@ 5278
substantial 5277
ton 5274
mechanism 5272
extended 5271
obvious 5265
black 5259
ron@@ 5257
kept 5256
decades 5249
mor@@ 5249
ann@@ 5248
goals 5247
cking 5241
platform 5239
responsibilities 5239
win 5235
consensus 5231
AC@@ 5230
sto@@ 5228
bringing 5223
Another 5220
counter@@ 5220
court 5220
29 5219
Summit 5218
situations 5217
Dis@@ 5216
ST@@ 5209
seeking 5209
mer 5203
AL@@ 5202
fication 5200
reservation 5200
conclude 5199
ei@@ 5198
binding 5195
eu@@ 5195
attack 5194
architecture 5189
putting 5189
ess@@ 5188
communities 5186
rent 5182
monitor 5177
recovery 5177
ching 5176
tion@@ 5176
tr@@ 5175
print 5173
thereby 5173
science 5171
31 5170
claim 5170
wood 5169
rapid 5166
ya 5162
sale 5156
ES@@ 5151
released 5150
attacks 5149
bur@@ 5148
Every 5146
button 5146
resort 5145
acceptable 5143
loc@@ 5143
mass 5142
shops 5142
Thus 5139
off@@ 5137
consistent 5135
refugees 5135
factor 5124
agency 5119
biggest 5117
storage 5116
write 5115
pictures 5103
tried 5103
ends 5094
capable 5093
television 5093
addressed 5092
ined 5092
York 5091
deliver 5089
arms 5088
Gra@@ 5084
Agency 5083
13@@ 5081
advantages 5074
Bi@@ 5072
Qu@@ 5072
contained 5072
cuisine 5070
discussing 5068
pat@@ 5068
alised 5067
compliance 5067
successfully 5067
Man@@ 5063
To@@ 5062
color 5059
extend 5058
install 5058
sanctions 5058
background 5055
north 5055
advice 5048
operate 5046
signal 5046
tional 5045
memory 5041
causes 5040
maintenance 5040
por@@ 5039
Sh@@ 5033
Business 5029
disp@@ 5029
investments 5027
Those 5026
han@@ 5026
pres@@ 5026
constantly 5017
dimension 5013
ban@@ 5012
chosen 5012
fuel 5009
nations 5006
Cre@@ 5004
elegant 5000
organization 5000
piece 4996
Pi@@ 4993
Ber@@ 4988
vehicle 4988
guaranteed 4984
seven 4982
wards 4979
med 4978
qualified 4977
ning 4971
sol@@ 4971
ancient 4968
spacious 4967
accessible 4961
hand@@ 4960
Romania 4959
bro@@ 4950
Can 4948
ir 4948
testing 4944
mechanisms 4942
So@@ 4937
perfectly 4937
planned 4935
talks 4935
mm 4933
dedicated 4930
keeping 4930
surface 4928
inv@@ 4927
explain 4926
determined 4921
adequate 4917
sup@@ 4917
diversity 4916
meters 4914
Environment 4913
í@@ 4912
dynamic 4909
industries 4907
phase 4905
mann 4902
ement 4900
urge 4896
saw 4893
Sweden 4887
Latin 4886
surrounding 4884
interface 4880
valid 4880
wers 4877
iz@@ 4874
competence 4873
leadership 4873
af@@ 4868
recommend 4868
beaches 4867
mp@@ 4858
Ba@@ 4856
evaluation 4856
delay 4854
railway 4854
cing 4850
host 4850
fu@@ 4849
identity 4848
ising 4847
hot 4846
sun 4846
Are 4843
mutual 4842
resulting 4842
1997 4841
foot 4841
Sp@@ 4839
arrival 4836
category 4836
Management 4835
Click 4831
leads 4831
examples 4829
eds 4828
physical 4826
liber@@ 4823
flo@@ 4821
technological 4821
He@@ 4820
ots 4820
lin 4818
update 4817
contents 4816
45 4813
dealt 4813
someone 4813
ination 4812
consultation 4804
politicians 4803
alisation 4802
approval 4802
Austrian 4797
disposal 4794
conduct 4790
ke@@ 4789
Rules 4787
device 4787
spread 4786
fa@@ 4784
gro@@ 4776
à 4776
treated 4774
unit 4774
IS 4773
affect 4768
gri@@ 4765
multi 4765
tests 4765
tical 4765
representative 4763
brings 4761
burden 4760
relax 4760
aircraft 4759
patients 4759
Du@@ 4756
guide 4755
nearly 4755
manufacturing 4753
om 4753
Federal 4752
Euro@@ 4751
Association 4750
Museum 4748
association 4743
Se@@ 4741
object 4741
edi@@ 4737
ja 4737
ye 4736
sli@@ 4734
older 4733
ral 4733
fla@@ 4732
coast 4731
lose 4731
recognise 4730
ering 4728
primary 4727
tor@@ 4726
Vienna 4724
emphasise 4724
regret 4723
coffee 4719
System 4717
flight 4714
Gi@@ 4711
ger@@ 4711
ath 4708
23@@ 4706
bl@@ 4701
waiting 4699
helpful 4692
willing 4692
rel@@ 4687
ately 4686
beauty 4686
accounts 4684
primarily 4684
remove 4678
previously 4675
engine 4674
story 4673
Jo@@ 4668
drugs 4668
ery 4668
approximately 4667
Minutes 4664
temporary 4663
registration 4660
resolve 4657
highlight 4656
outstanding 4656
pan@@ 4656
rejected 4656
faced 4655
shower 4650
speakers 4650
oral 4649
Ne@@ 4648
trip 4648
cies 4646
window 4646
discover 4645
driving 4643
improvements 4641
letter 4638
participants 4637
liability 4636
river 4632
booking 4631
reply 4630
taxes 4627
Great 4626
ju@@ 4626
urban 4625
represented 4623
cap@@ 4622
mu@@ 4619
turned 4619
nearby 4617
Both 4615
disaster 4613
UN@@ 4612
compatible 4610
ulation 4610
artists 4609
lets 4606
obligation 4606
FR 4603
compensation 4603
spaces 4603
weak@@ 4602
meaning 4601
Si@@ 4599
delegation 4598
significantly 4598
smaller 4597
appeal 4594
gone 4594
attitude 4593
ining 4591
od@@ 4590
Center 4589
ff 4588
Despite 4587
knows 4586
species 4583
RO@@ 4582
ars 4580
reception 4580
amongst 4579
renewable 4575
affairs 4574
dr@@ 4574
conditioning 4573
van 4572
truth 4571
helping 4570
suffering 4566
ub@@ 4566
holidays 4565
emb@@ 4562
OS 4561
Red 4561
ns 4561
smoking 4561
Energy 4557
intention 4556
vol@@ 4554
fraud 4553
prepare 4553
wealth 4553
amp@@ 4552
log@@ 4549
are@@ 4548
qui@@ 4546
duc@@ 4543
comply 4542
Chamber 4541
conc@@ 4541
requested 4540
square 4540
church 4539
combating 4537
els 4537
# 4533
mobility 4529
Sa@@ 4528
looks 4527
von 4527
pen@@ 4526
profit 4525
rail 4525
danger 4523
Ta@@ 4521
title 4521
32 4519
zes 4519
consists 4517
Information 4516
manufacturers 4515
ek 4514
fighting 4513
controlled 4507
EL@@ 4506
mit 4505
che 4504
solve 4502
firstly 4500
emphasis 4497
entered 4497
wind 4492
ko@@ 4488
books 4487
mandate 4487
millions 4487
Any 4486
Britain 4486
Programme 4485
ek@@ 4485
oc@@ 4485
reflect 4484
kinds 4483
form@@ 4480
route 4480
char@@ 4479
pr@@ 4478
serves 4475
substances 4474
constructive 4473
fail 4473
ini 4472
jo@@ 4470
strength 4470
na 4469
diseases 4468
onto 4468
sm@@ 4467
St. 4465
notice 4464
Go@@ 4463
schools 4463
enti@@ 4456
officials 4456
relaxing 4456
steel 4454
Dutch 4453
ker 4452
forest 4451
touch 4451
expectations 4450
peoples 4450
land@@ 4448
cle@@ 4444
cal@@ 4443
glass 4441
versions 4438
Afghanistan 4437
delivered 4437
mountains 4435
directives 4433
pu@@ 4433
involving 4430
protecting 4425
Paper 4424
recognised 4424
down@@ 4420
visible 4418
emp@@ 4417
landscape 4413
exists 4412
Microsoft 4411
Thanks 4411
rising 4407
La@@ 4405
analy@@ 4405
launched 4405
arrangements 4403
ented 4403
&apos;ve 4401
tel@@ 4401
uni@@ 4398
involvement 4397
luxury 4393
acting 4392
drawing 4391
treaty 4391
not@@ 4389
satellite 4389
Pa@@ 4387
Ver@@ 4387
attractions 4386
Other 4385
NATO 4384
rapporteurs 4383
copy 4382
opposed 4382
Restaurant 4380
Instead 4378
Ministers 4378
cru@@ 4378
rely 4377
surrounded 4373
wall 4369
default 4368
ga 4368
Find 4367
IP 4367
extension 4366
president 4364
shape 4364
respective 4361
southern 4361
criticism 4360
ell 4354
opposite 4354
register 4353
liberalisation 4352
Strategy 4351
Market 4350
tre@@ 4348
AD@@ 4345
finding 4345
largely 4342
requests 4341
whatever 4339
Bu@@ 4338
Monetary 4338
naturally 4336
del@@ 4334
dri@@ 4334
ended 4334
felt 4333
Before 4332
multiple 4332
operators 4332
Club 4323
presentation 4320
poli@@ 4319
reaching 4319
Bur@@ 4318
Safety 4318
ward 4318
ize 4317
holding 4314
edge 4312
Mi@@ 4310
debates 4310
Charter 4309
Software 4308
relatively 4308
j 4307
Bar 4305
gre@@ 4302
ai@@ 4301
Ni@@ 4300
pleasure 4300
store 4300
stations 4296
ash@@ 4295
happens 4292
6.@@ 4287
personally 4287
applicable 4286
wait 4281
producing 4279
repeat 4279
bing 4278
happening 4277
figure 4275
equally 4274
gets 4274
expertise 4273
fil@@ 4271
discharge 4270
ell@@ 4268
defend 4267
Au@@ 4266
feeling 4266
mid 4265
regulatory 4260
eight 4256
1996 4255
latter 4254
Private 4249
photos 4247
ff@@ 4242
formed 4239
heavy 4238
Col@@ 4235
error 4235
rep@@ 4233
spec@@ 4231
restrictions 4228
resolved 4224
El@@ 4223
air@@ 4223
inflation 4219
author 4218
lake 4218
utili@@ 4216
contemporary 4215
contributions 4214
ert 4210
amounts 4206
confirmed 4204
length 4204
au 4203
Do@@ 4202
collective 4202
sell 4201
expensive 4200
strategies 4200
mental 4199
prove 4199
gender 4196
ought 4196
harmon@@ 4195
@ 4194
constant 4193
Financial 4192
hostels 4192
Am@@ 4190
Rome 4186
continent 4186
sun@@ 4186
pe 4185
Swedish 4183
opinions 4182
worse 4182
trac@@ 4179
Home 4175
mode 4175
ga@@ 4174
resolutions 4174
appreciate 4173
club 4173
determine 4172
ili@@ 4172
parliaments 4172
texts 4171
Located 4170
whilst 4169
valuable 4168
fies 4163
covers 4160
fruit 4160
increases 4156
MEPs 4155
ast 4155
healthy 4154
dan@@ 4152
wn 4151
kers 4150
bars 4149
ports 4148
proof 4148
explo@@ 4146
ion 4144
2020 4143
eye 4138
pp@@ 4138
quick 4138
ser@@ 4138
bath 4136
ration 4136
conflicts 4133
awareness 4132
fit 4131
recommendation 4129
centres 4123
tro@@ 4123
carbon 4121
elled 4120
define 4117
assure 4116
Ladies 4115
star@@ 4115
Two 4113
massive 4113
pped 4113
za 4113
furnished 4110
Control 4109
requirement 4108
tic@@ 4108
yp@@ 4107
plus 4106
resi@@ 4105
sta@@ 4105
75 4103
websites 4102
Tur@@ 4101
skin 4100
locations 4099
emerging 4096
units 4095
head@@ 4094
25@@ 4093
investors 4093
passengers 4092
blo@@ 4090
radio 4090
contracts 4089
ah@@ 4088
engineering 4088
handling 4088
browser 4087
ming 4086
runs 4085
wed 4083
intend 4082
ist@@ 4079
Cyprus 4078
involve 4077
terrorist 4077
post@@ 4075
welfare 4075
ethnic 4073
migration 4070
helps 4069
subsidies 4067
minority 4065
facilitate 4064
output 4063
sold 4063
sexual 4060
productive 4058
che@@ 4054
exclusively 4051
helped 4051
except 4049
moved 4049
row 4046
privacy 4045
Grand 4044
fill 4044
organizations 4043
DVD 4042
tt@@ 4042
SMEs 4040
cycle 4037
ss@@ 4037
insi@@ 4035
buffet 4033
e.g. 4033
30@@ 4031
effectiveness 4030
ah 4026
Rule 4025
Company 4024
wh@@ 4023
issued 4021
waters 4021
Where 4020
i.e. 4019
Note 4018
corruption 4018
ire 4018
sters 4017
ang 4016
realistic 4016
Last 4013
articles 4013
ou 4012
audio 4010
experiences 4008
Korea 4000
yes 3997
Bulgaria 3996
precise 3995
chain 3993
Arab 3992
gar@@ 3990
proved 3988
reserves 3988
soft 3986
ultimately 3986
Croatia 3984
depends 3983
operational 3982
Given 3981
preparation 3975
sian 3973
wer 3973
Lake 3972
judicial 3972
automatic 3971
fra@@ 3970
imposed 3970
Alliance 3969
obtained 3969
volume 3969
identify 3967
pollution 3967
removed 3967
Gar@@ 3966
recommended 3966
acy 3961
du 3961
communications 3959
gener@@ 3957
meat 3956
discovered 3952
water@@ 3951
PL 3950
ein 3950
elling 3947
charges 3946
Israeli 3945
cas@@ 3941
trafficking 3939
asing 3937
ular 3937
Google 3936
suite 3936
Ho@@ 3935
cutting 3934
facts 3934
Lord 3932
Mc@@ 3930
launch 3926
tain 3925
understood 3924
nom@@ 3923
creates 3922
Bor@@ 3920
customs 3919
Roma 3918
pose 3918
focused 3914
sen 3914
ca@@ 3913
emergency 3910
golf 3910
leaving 3910
eding 3909
OR@@ 3906
grateful 3905
ced 3904
functioning 3903
firms 3902
hon@@ 3900
assist 3898
destination 3898
remaining 3897
coun@@ 3896
counter 3896
electricity 3894
named 3894
creative 3892
™ 3891
spring 3890
bilateral 3889
Check 3888
ID 3885
extreme 3885
Can@@ 3884
seeing 3884
grant 3883
hundreds 3882
confirm 3881
Fi@@ 3879
universal 3879
occasion 3878
glad 3877
cent 3876
clo@@ 3876
viol@@ 3874
declaration 3870
pping 3870
IM@@ 3869
cheap 3869
objects 3869
reserve 3869
Luxembourg 3868
sm 3868
ink 3867
maintained 3867
stance 3866
equ@@ 3863
hin@@ 3859
Op@@ 3857
exceptional 3857
impression 3856
Brazil 3854
Ra@@ 3854
block 3851
Comp@@ 3850
Schengen 3849
committees 3845
eyes 3845
Institute 3844
az@@ 3840
parents 3838
vast 3838
RA@@ 3830
submit 3830
Pact 3828
abroad 3826
statistics 3826
Over 3825
bio@@ 3825
reject 3823
ey 3822
Amendments 3821
minorities 3818
rating 3817
transition 3817
spa 3815
Foundation 3814
conducted 3814
Cal@@ 3813
nor@@ 3810
command 3809
deals 3808
perform 3808
demonstrate 3804
offices 3803
justified 3798
Under 3797
hom@@ 3795
° 3794
divided 3792
credibility 3790
visa 3790
ki@@ 3788
characteristics 3786
we@@ 3786
temperature 3785
assets 3784
demonstrated 3784
98 3783
Enjoy 3781
demanding 3781
cri@@ 3778
bul@@ 3777
ó@@ 3776
Kar@@ 3775
ils 3775
occup@@ 3774
mal@@ 3772
delighted 3771
hit 3771
inf@@ 3771
topic 3771
Villa 3770
immigrants 3770
noted 3770
atives 3768
tives 3768
Art 3767
ley 3767
maintaining 3767
grow 3762
Procedure 3761
7.@@ 3759
somewhat 3759
lay 3758
Applause 3757
ned 3757
eng@@ 3756
ris@@ 3756
leg@@ 3755
Polish 3754
pension 3754
treat 3754
absolute 3753
bor@@ 3753
crimes 3752
answers 3751
faster 3748
vers 3746
friend 3745
Munich 3744
aging 3744
Japanese 3743
concluded 3743
trees 3741
streets 3739
adopting 3737
constitutional 3736
ongoing 3736
Book 3735
Soviet 3735
Take 3733
determination 3732
marks 3732
Use 3729
att@@ 3729
password 3728
tackle 3725
PT 3724
ghts 3724
nu@@ 3723
read@@ 3723
ung@@ 3722
connections 3720
ay 3716
Funds 3713
alist 3711
stronger 3711
actively 3707
deficit 3706
impressive 3705
Question 3704
pul@@ 3704
strict 3704
Breakfast 3702
ared 3699
istic 3699
taste 3699
une 3699
Their 3697
convenient 3696
inn@@ 3693
intellectual 3693
Ko@@ 3691
boat 3691
overcome 3691
involves 3688
taxation 3688
Time 3686
phrase 3685
signs 3684
blood 3682
legitimate 3682
micro@@ 3682
ening 3679
residence 3679
follows 3677
museum 3677
LE@@ 3673
subsidiarity 3672
proud 3671
don@@ 3670
Portuguese 3669
blue 3667
ll@@ 3667
Copenhagen 3666
declared 3666
Perhaps 3665
-- 3662
01 3662
contrast 3661
regularly 3659
ping 3658
ust 3657
watch 3657
eri@@ 3656
respected 3653
feed 3649
cia 3648
dishes 3648
journey 3647
kl@@ 3646
citizen 3645
ine@@ 3645
interpre@@ 3642
finished 3641
indicated 3641
Ser@@ 3638
aff@@ 3637
satisfied 3637
dependent 3636
Bra@@ 3635
charming 3635
globalisation 3635
Mat@@ 3634
tically 3627
zi@@ 3627
Sub@@ 3625
je@@ 3625
ster@@ 3625
1995 3623
bedroom 3622
load 3622
Structural 3621
lat@@ 3619
organized 3619
Wi@@ 3618
Belarus 3617
gr@@ 3616
chemical 3613
roads 3612
tioning 3611
competent 3608
couple 3606
Vice 3604
mit@@ 3604
2011 3603
messages 3603
accompanied 3602
ada 3599
Best 3596
hardware 3596
careful 3594
east 3593
prec@@ 3593
encouraging 3592
doors 3589
White 3588
fle@@ 3588
frequently 3587
inclusion 3587
plenary 3585
MP@@ 3584
drug 3584
meant 3582
Le 3581
iting 3581
contacts 3580
gn@@ 3580
displayed 3579
rapidly 3578
vulnerable 3578
bound 3575
constitution 3575
dates 3575
flat 3574
covering 3573
heritage 3573
rit@@ 3573
eastern 3571
slo@@ 3571
oning 3569
EL 3568
Baltic 3566
squ@@ 3562
Hotels 3561
ok@@ 3560
tested 3558
Nice 3557
id@@ 3557
noise 3556
partly 3555
assume 3553
possibly 3553
ts@@ 3553
familiar 3552
furniture 3552
cont@@ 3551
sole 3549
resistance 3547
Pakistan 3545
exports 3543
Star 3542
scheme 3542
Tor@@ 3540
newly 3540
cold 3539
und@@ 3539
Canada 3538
bas@@ 3538
ET@@ 3537
eh@@ 3537
400 3535
impose 3535
brief 3532
Costa 3531
argument 3531
died 3531
ress 3531
99 3530
banking 3530
colour 3530
showing 3530
widely 3529
comple@@ 3526
lec@@ 3526
Protection 3525
doesn 3525
Har@@ 3524
collaboration 3524
proposing 3524
reported 3524
spoken 3523
Ju@@ 3518
raw 3517
Frankfurt 3516
Te@@ 3514
destruction 3514
Thirdly 3513
definitely 3513
pieces 3513
Station 3512
seat 3512
entertainment 3508
liberal 3508
em 3507
Mal@@ 3506
occasions 3506
ries 3506
earth 3505
decisive 3503
apart 3502
proposes 3500
band 3499
equi@@ 3499
owners 3499
Ste@@ 3498
ba 3498
printing 3498
prefer 3497
je 3494
los 3494
ty@@ 3494
appe@@ 3493
bottom 3493
joined 3493
elsewhere 3492
license 3492
uri@@ 3491
expansion 3490
ills 3490
outdoor 3490
regarded 3489
ances 3486
win@@ 3485
lists 3480
bel@@ 3478
profile 3475
thers 3475
cable 3474
Sal@@ 3473
occur 3473
referendum 3470
Belgium 3469
sky 3466
UR@@ 3464
aci@@ 3464
Hungary 3463
Ha@@ 3461
listen 3461
saving 3461
lasting 3460
correctly 3459
150 3458
excessive 3458
Yes 3456
depending 3456
ased 3455
cuts 3455
examine 3455
settings 3453
acted 3450
pal@@ 3450
quarter 3449
Non 3448
lots 3448
drivers 3447
tou@@ 3446
oured 3445
ment@@ 3444
satisfaction 3442
thy 3442
bom@@ 3441
afternoon 3440
father 3439
Whether 3438
transactions 3437
flu@@ 3436
tobacco 3435
depth 3434
provider 3433
Me@@ 3431
mobili@@ 3431
Ban@@ 3430
leisure 3430
interpretation 3429
prosperity 3429
sa 3429
oriented 3428
woman 3428
passenger 3426
Day 3425
driver 3425
starts 3425
lie 3424
preparing 3424
updated 3424
speaker 3422
tively 3422
configuration 3421
settlement 3421
Nos 3419
chan@@ 3419
presents 3418
fee 3417
Action 3416
Pal@@ 3415
invite 3415
pursue 3415
desired 3414
educational 3412
foundation 3412
ach 3409
uting 3408
tours 3405
MA@@ 3404
1,@@ 3402
politically 3402
weather 3402
sh 3401
ware 3401
ACP 3400
housing 3399
sight 3399
suffer 3398
imm@@ 3397
properties 3396
absence 3395
identified 3395
shares 3395
returned 3394
behaviour 3393
pot@@ 3392
95 3390
replace 3390
expert 3389
northern 3388
west 3388
SP@@ 3387
fre@@ 3387
invest 3387
ered 3386
maritime 3384
puts 3384
Data 3382
spot 3382
remote 3380
ut 3380
dinner 3379
generated 3379
Get 3376
voluntary 3374
documentation 3373
library 3373
Bush 3372
Framework 3372
channels 3371
ending 3371
aling 3370
dining 3368
log 3367
Ru@@ 3365
Mexico 3364
bly 3364
Without 3363
alization 3362
sion@@ 3362
Bel@@ 3359
bedrooms 3359
savings 3357
heating 3355
appointed 3353
looked 3352
moral 3352
walls 3352
visited 3351
techniques 3350
24@@ 3349
cho@@ 3349
award 3348
sch@@ 3348
nevertheless 3347
pra@@ 3347
speci@@ 3347
burg 3345
len@@ 3345
Women 3344
Assembly 3342
employed 3342
Second 3341
considering 3340
metal 3340
33 3338
hu@@ 3338
int 3338
DA@@ 3336
classic 3335
percent 3335
Welcome 3334
freedoms 3334
stabili@@ 3334
sugar 3334
performed 3333
applying 3331
duties 3328
forum 3327
stored 3327
ato 3326
tal@@ 3325
mostly 3321
imports 3319
abuse 3318
ss 3318
ECB 3316
ables 3316
allo@@ 3316
inhabitants 3316
sharing 3316
Cas@@ 3315
Obama 3313
ero@@ 3313
personnel 3310
transportation 3310
cher 3309
cou@@ 3309
plan@@ 3309
containing 3307
2013 3306
substance 3306
aged 3305
component 3305
owner 3305
termin@@ 3303
John 3302
rations 3302
MS 3300
distributed 3299
Chi@@ 3298
ency 3298
Islamic 3297
serving 3297
Desk 3295
sel@@ 3295
sum 3295
copyright 3294
corresponding 3294
Report 3293
exception 3293
suppliers 3293
Will 3292
com 3292
Hungarian 3291
negotiating 3291
trend 3290
adap@@ 3287
harmonisation 3287
falls 3286
proceed 3286
arguments 3285
surroundings 3285
Well 3283
fashion 3283
with@@ 3283
providers 3282
wo@@ 3281
Agriculture 3280
ID@@ 3279
Ap@@ 3278
heat 3278
surely 3278
El 3277
arrive 3277
complicated 3277
courts 3276
intensive 3276
solely 3276
Open 3274
sending 3274
enhance 3273
societies 3273
wonder 3272
IL@@ 3271
milk 3271
Nor@@ 3267
esses 3267
channel 3266
productivity 3266
unity 3266
ye@@ 3265
CO2 3264
ght 3264
publi@@ 3263
western 3263
Americans 3262
gold 3262
ls 3262
val@@ 3262
Shi@@ 3261
ordinary 3261
p.m. 3261
ON@@ 3260
Z 3260
Fe@@ 3259
LA@@ 3258
serv@@ 3258
usual 3256
vit@@ 3256
islands 3255
Square 3254
THE 3254
flights 3254
master 3254
Legal 3252
generate 3252
hol@@ 3252
army 3251
VAT 3249
solid 3249
representation 3246
wines 3244
blog 3243
pla@@ 3242
carrying 3241
replaced 3241
MO@@ 3240
farm 3239
97 3238
plays 3238
weak 3238
cked 3237
division 3237
succeed 3236
² 3236
De 3235
extraordinary 3235
Acc@@ 3234
dge 3234
gement 3234
Following 3233
ticket 3233
Bre@@ 3232
allocated 3232
exciting 3232
formal 3230
Air 3229
Saint 3229
youth 3229
Egypt 3228
manufacturer 3228
das 3227
patent 3225
cian 3224
ential 3224
anti@@ 3223
stream 3223
Ca@@ 3222
cooperate 3221
match 3221
sor@@ 3220
slow 3219
castle 3217
Comm@@ 3216
Northern 3216
depend 3216
satisfactory 3216
sauna 3216
COM 3215
SA@@ 3214
Stability 3213
def@@ 3212
functional 3211
Auditors 3210
drink 3209
appointment 3206
ass 3206
promised 3205
necessarily 3204
Friday 3203
ect 3203
ligh@@ 3203
count 3202
Secretary 3201
spo@@ 3200
War@@ 3198
cash 3198
dict@@ 3198
Barroso 3193
secret 3193
Hu@@ 3191
career 3190
ony 3190
fantastic 3189
main@@ 3189
united 3188
exit 3187
farming 3187
frame 3187
Special 3186
battle 3186
enabled 3186
valley 3186
ath@@ 3185
Por@@ 3181
Within 3178
fol@@ 3178
sou@@ 3178
barriers 3175
Socialist 3173
ki 3173
Thursday 3172
raising 3172
supplies 3172
ern@@ 3171
ny 3171
Sec@@ 3169
appro@@ 3169
ulate 3169
Page 3168
34 3167
dy@@ 3167
greatly 3167
ll 3167
proven 3167
50@@ 3166
gli@@ 3166
preventing 3166
tory 3166
constitute 3165
break@@ 3164
mother 3164
professionals 3163
owned 3162
difficulty 3161
appearance 3160
safeguard 3160
Strasbourg 3159
significance 3159
DI@@ 3157
ara 3157
Transport 3156
eller 3156
fron@@ 3154
lessons 3154
mel@@ 3154
enabling 3153
recorded 3153
awarded 3152
domain 3151
vor@@ 3151
renovated 3149
á 3149
cell@@ 3147
ensures 3147
Street 3145
Description 3143
toward 3141
audi@@ 3139
Prague 3137
forthcoming 3135
fulfil 3135
relaxation 3135
attempts 3134
suggested 3134
addresses 3133
sia 3133
Wor@@ 3131
.... 3130
tered 3130
ko 3129
ishing 3127
facility 3126
hal@@ 3126
legally 3126
thousand 3126
trial 3126
sought 3125
Vo@@ 3122
proceedings 3122
sovereignty 3121
labelling 3119
packaging 3119
introducing 3118
paying 3118
subjects 3118
Palace 3117
96 3116
consent 3116
Q 3115
eli@@ 3115
sustainability 3115
comparison 3113
swe@@ 3113
flows 3111
obliged 3111
Spa 3107
revision 3106
department 3104
theme 3104
concepts 3103
eurozone 3103
prev@@ 3103
supervision 3103
http 3102
updates 3102
forests 3101
Madrid 3098
alized 3098
decade 3097
soci@@ 3096
firmly 3095
hundred 3095
Bri@@ 3093
gan@@ 3093
lined 3092
yst@@ 3092
port@@ 3090
religion 3087
tickets 3087
adults 3086
reg@@ 3086
disasters 3085
lic 3085
posi@@ 3084
ill 3083
slightly 3083
Dr. 3081
balcony 3081
actors 3080
directed 3079
import 3079
suggestions 3078
Serbia 3076
US@@ 3076
ministers 3076
Facilities 3075
48 3074
Design 3073
gers 3073
spoke 3073
stocks 3073
armed 3071
ual 3070
ams 3069
ella 3069
exploitation 3069
con 3068
hall 3068
explore 3067
coordinated 3066
gap 3066
hair 3066
EN 3064
pol@@ 3064
Tip 3063
Pri@@ 3062
accurate 3062
obstacles 3062
artist 3061
bridge 3061
specified 3061
stat@@ 3061
Code 3060
cket 3060
corner 3059
EADS 3058
supposed 3058
ste 3057
suites 3057
Congress 3056
gained 3056
dignity 3054
inated 3052
ser 3052
ti 3052
Commissioners 3051
acceler@@ 3051
ales 3051
routes 3051
fan@@ 3050
emphasi@@ 3047
estimated 3047
exclusion 3046
decorated 3045
undoubtedly 3043
straight 3042
36 3040
Ti@@ 3040
alities 3040
eventually 3040
towns 3040
welcomed 3038
ISO 3036
civili@@ 3036
traditions 3034
arise 3032
visiting 3032
PPE 3031
uted 3031
periods 3030
Or 3029
Putin 3029
beings 3029
diverse 3029
endorse 3029
antly 3028
tourists 3028
receiving 3027
contributed 3026
pers 3024
Like 3023
realise 3023
suffered 3023
adapt 3022
fitness 3022
interior 3022
sively 3021
wn@@ 3021
ame 3020
Val@@ 3019
Bal@@ 3018
disabled 3018
centuries 3017
cast 3016
whereas 3015
supplier 3014
Having 3013
wider 3013
nation@@ 3012
directory 3011
topics 3011
zz@@ 3011
Technology 3010
drop 3009
iness 3009
ordin@@ 3008
resource 3008
Finland 3006
1990 3005
remarks 3004
cer@@ 3002
si 3001
ash 2999
restructuring 2999
yers 2999
violations 2998
parliament 2996
reservations 2994
Atlantic 2993
Old 2993
university 2993
Global 2991
electric 2990
sheet 2986
hardly 2985
refers 2985
shipping 2985
Balkans 2982
Mac@@ 2982
lied 2981
ECU 2980
ben@@ 2980
pun@@ 2980
voc@@ 2978
Enterprise 2977
labor 2977
my@@ 2977
reflected 2976
AL 2975
losses 2974
invited 2971
turning 2971
IMF 2968
believes 2967
clean@@ 2966
permitted 2966
1st 2964
Asian 2964
bes 2964
faith 2964
federal 2964
sem@@ 2964
notes 2963
clause 2962
investigation 2962
winning 2962
hear@@ 2961
nights 2961
virtual 2961
Im@@ 2958
restricted 2958
assess 2957
severe 2957
movements 2956
ica 2955
module 2955
Church 2954
approve 2954
disk 2954
cent@@ 2949
dered 2949
eing 2948
programming 2948
reflects 2948
vacation 2948
Guests 2947
input 2947
Roman 2946
ona 2946
twenty 2945
explained 2944
theory 2944
vis@@ 2943
Agenda 2942
Very 2942
reli@@ 2942
EM@@ 2941
prime 2941
9.@@ 2938
Bro@@ 2938
van@@ 2938
yed 2938
penalty 2937
cosy 2936
everyday 2936
decline 2935
rock 2935
ON 2934
scene 2934
planet 2933
extrac@@ 2932
regardless 2930
ads 2929
strengthened 2928
River 2927
motor 2927
fourth 2926
ue 2926
driven 2925
web@@ 2925
37 2924
label 2923
leaves 2922
selling 2922
entrance 2921
ick 2920
sphere 2919
considerably 2918
recognized 2917
art@@ 2916
fs 2915
patient 2915
calcul@@ 2913
ation@@ 2910
courage 2910
fuels 2909
lounge 2909
attri@@ 2908
enhanced 2907
At@@ 2906
bility 2905
ization 2904
shift 2904
Food 2903
Media 2903
ha 2903
chi@@ 2902
finish 2901
missing 2899
plenty 2899
1994 2898
hearing 2898
Act 2897
ri 2897
windows 2896
worst 2895
stylish 2894
gardens 2893
hab@@ 2891
3D 2890
adly 2890
dness 2890
imagine 2890
64 2888
conventional 2888
filled 2888
mag@@ 2887
q 2887
indicate 2885
roll 2884
tionally 2884
Mer@@ 2882
spectacular 2882
continuous 2881
welcomes 2881
ot 2880
threats 2880
Cap@@ 2878
isation 2875
undertaken 2875
Monday 2873
vessels 2873
bin@@ 2871
excluded 2871
lift 2871
See 2870
philosophy 2870
prospects 2870
therapy 2870
appropriations 2869
sensible 2869
Year 2868
rem@@ 2867
0s 2866
Does 2866
Organisation 2866
acknowledge 2865
Cam@@ 2864
Dra@@ 2864
08 2863
generations 2863
We@@ 2862
cancer 2862
ov@@ 2862
teams 2862
everybody 2861
none 2860
Min@@ 2859
enterprise 2859
wat@@ 2859
dia 2858
fishermen 2858
protocol 2857
acceptance 2856
dollar 2856
irs 2856
profits 2855
dence 2854
artistic 2852
restore 2850
shadow 2850
TH@@ 2849
worthy 2849
ites 2848
65 2847
ado 2847
ol 2846
cc@@ 2843
pillar 2843
Besides 2841
checks 2840
NGOs 2839
departure 2838
description 2838
homes 2838
root 2838
publication 2837
aside 2836
champ@@ 2835
PHP 2834
distor@@ 2834
ase 2833
gh 2833
magnificent 2833
Del@@ 2832
swi@@ 2832
dream 2831
mix 2830
• 2830
killed 2829
physi@@ 2829
promise 2829
š@@ 2829
overview 2828
&apos;m 2827
CAP 2827
reaction 2827
ING 2825
managing 2825
predic@@ 2825
specialist 2825
budgets 2824
ambi@@ 2822
AB@@ 2821
cells 2819
connect 2819
gallery 2817
concentrate 2816
Hor@@ 2814
Mag@@ 2814
rup@@ 2814
ball 2813
targeted 2813
elec@@ 2812
ong 2811
parameters 2810
wear 2810
minister 2809
Georgia 2808
conver@@ 2808
pro 2807
urgently 2807
09 2806
deeply 2804
Regional 2803
addi@@ 2803
handle 2803
CA@@ 2802
Law 2800
dem@@ 2800
tables 2800
bike 2799
Em@@ 2798
listings 2798
sei@@ 2798
sections 2797
universities 2797
ide@@ 2796
mini 2796
ain 2794
modules 2794
SI@@ 2793
renowned 2793
CH@@ 2791
Char@@ 2791
Lin@@ 2791
weekend 2791
errors 2790
IN 2789
fairly 2789
Through 2787
min 2787
lau@@ 2786
rental 2786
wave 2786
proportion 2785
Ombudsman 2784
dance 2784
films 2784
ier 2784
reconstruction 2783
organic 2782
fly 2781
tree 2781
functionality 2780
ranging 2780
roots 2780
zer 2780
freely 2779
Should 2778
colours 2778
Geneva 2777
boost 2775
ked 2775
poll@@ 2775
sufficiently 2775
accident 2773
intends 2773
ap 2772
orial 2772
Gre@@ 2771
Syria 2770
album 2770
lab@@ 2769
territorial 2769
transmission 2769
55 2768
Lan@@ 2767
Santa 2766
ished 2761
sta 2761
pil@@ 2760
spe@@ 2757
internationally 2756
saved 2755
Budgets 2752
diplomatic 2751
England 2749
nine 2749
A5 2748
PO@@ 2748
Site 2748
trends 2748
Air@@ 2747
instructions 2745
remained 2745
remin@@ 2745
una 2745
struggle 2744
Fu@@ 2743
showed 2743
deposit 2742
stry 2741
confirmation 2740
pris@@ 2740
countryside 2739
coherent 2738
destroyed 2738
ards 2737
poses 2737
dig@@ 2736
push 2736
birth 2735
Sunday 2732
Tourism 2732
logical 2731
Lastly 2730
ene 2730
42 2729
dead 2729
subsequent 2728
relates 2726
fleet 2725
posed 2724
val 2724
07 2723
Sol@@ 2723
deb@@ 2723
USB 2721
adapted 2721
Sur@@ 2718
crises 2718
nit@@ 2718
vari@@ 2717
38 2715
doub@@ 2715
Pas@@ 2714
heading 2714
Consequently 2712
xes 2712
Who 2710
arising 2710
highlighted 2710
stru@@ 2710
arch@@ 2709
wrote 2707
clubs 2705
kernel 2705
belief 2704
candidates 2703
essentially 2703
presenting 2703
rein@@ 2701
AM@@ 2700
equivalent 2700
600 2699
neighbouring 2698
Sen@@ 2697
skiing 2696
convergence 2695
Denmark 2694
learned 2693
funded 2692
dering 2691
parti@@ 2691
8.@@ 2690
collected 2690
evol@@ 2689
lo 2689
loo@@ 2689
manager 2689
Consumer 2687
Treaties 2687
miles 2685
phenomenon 2685
Br@@ 2684
ME@@ 2684
Black 2683
Protocol 2683
Culture 2682
fic@@ 2682
las 2681
mistake 2679
hood 2677
pm 2677
quotas 2675
Front 2674
rare 2674
LO@@ 2673
combine 2672
San@@ 2671
belong 2671
Belgian 2670
ease 2670
considers 2669
Constitutional 2668
800 2667
hostel 2667
Express 2665
briefly 2665
regi@@ 2664
relative 2664
temp@@ 2664
person@@ 2661
stages 2660
U.S. 2659
és 2659
forth 2658
upper 2658
football 2657
villages 2657
ecological 2656
Rom@@ 2655
insist 2655
willingness 2655
parallel 2654
pos@@ 2654
wage 2654
appeared 2653
cker 2653
contextual 2653
fees 2653
Bas@@ 2652
Medi@@ 2650
stars 2650
abilities 2649
classes 2649
cultures 2649
joining 2648
layer 2648
by@@ 2647
enn@@ 2647
referring 2647
rou@@ 2647
Ben@@ 2646
Notes 2646
cleaning 2646
ater 2644
consequence 2644
luxurious 2644
engage 2643
ories 2642
Gr@@ 2641
ania 2641
assembly 2641
efficiently 2641
consulting 2640
ini@@ 2640
massage 2640
reliability 2639
widespread 2639
processed 2638
ref@@ 2638
Systems 2637
pure 2636
affects 2635
asser@@ 2635
implications 2635
ession 2633
tend 2633
occurred 2632
195@@ 2631
Education 2631
Online 2631
transferred 2631
cement 2630
female 2630
Plan 2629
engaged 2629
boot 2628
drinks 2628
geographical 2628
ham@@ 2626
arrived 2623
Festival 2620
Net@@ 2620
absor@@ 2620
warning 2620
PDF 2619
rus@@ 2619
sco@@ 2619
clarify 2618
origin@@ 2618
supplied 2618
ai 2617
adds 2613
chair 2613
Executive 2611
Liber@@ 2611
Mu@@ 2611
honour 2611
prosec@@ 2611
thermal 2611
dem 2609
lovely 2609
Fi 2608
bon@@ 2607
guided 2607
succeeded 2606
Wi 2605
missions 2605
Inn 2604
ace 2604
environmentally 2603
seeks 2603
dol@@ 2602
secondly 2601
prisoners 2600
recognize 2600
lands 2598
wal@@ 2598
.00 2597
characters 2597
contrac@@ 2597
Fundamental 2594
achievement 2594
hill 2594
revenue 2594
Hamburg 2592
pressing 2592
inner 2590
causing 2589
highlights 2589
lock 2589
portfolio 2589
Cooperation 2588
sla@@ 2588
SE@@ 2587
computers 2587
accidents 2586
Situated 2585
shed 2585
lived 2584
integrate 2583
non@@ 2582
originally 2582
adverti@@ 2581
celeb@@ 2581
holds 2580
ky 2580
favourable 2579
incentives 2577
Prodi 2576
abo@@ 2576
meaningfully 2576
ride 2576
poorest 2574
lon@@ 2573
uniform 2573
AS 2571
mur@@ 2570
oting 2569
promises 2569
cial 2568
contradic@@ 2568
multilateral 2568
alty 2567
sit 2567
sounds 2567
ome 2566
satisfy 2566
encouraged 2565
lia 2564
operates 2564
lar@@ 2562
tennis 2562
anniversary 2561
fi 2561
sing@@ 2561
ken 2559
director 2558
manufacture 2557
s.@@ 2557
stake 2557
explanation 2556
bers 2555
illustr@@ 2555
yo@@ 2554
regulated 2552
victory 2552
atively 2551
aviation 2551
emplo@@ 2551
unfair 2551
As@@ 2550
enjoyed 2549
hopes 2549
--@@ 2547
fran@@ 2547
governing 2547
ef@@ 2546
49 2545
oo@@ 2545
Smoking 2543
adding 2543
preserve 2543
Real 2542
Island 2541
mining 2541
tage 2540
percentage 2539
virtually 2539
symbol 2538
ere 2537
Card 2535
aring 2535
radical 2535
rop@@ 2535
grown 2534
execution 2533
legitimacy 2533
scientists 2533
incorporated 2531
rich@@ 2530
contextually 2529
grammatically 2528
harmful 2528
euros 2527
tual 2527
für 2526
ratification 2526
resulted 2526
Ara@@ 2525
III 2525
Royal 2525
ack 2525
boo@@ 2525
compulsory 2524
heads 2524
purely 2523
amended 2522
enforcement 2522
entering 2522
Beach 2521
produces 2519
tries 2519
gradually 2518
ici@@ 2518
intensi@@ 2518
spon@@ 2518
dies 2517
executive 2517
negotiation 2517
printed 2517
fer 2514
stor@@ 2512
everywhere 2511
addressing 2510
ang@@ 2510
tedly 2510
mented 2509
ous@@ 2509
Ger@@ 2508
cious 2507
AG@@ 2506
Town 2506
festival 2505
iled 2505
trips 2505
compact 2504
index 2504
43 2503
Director 2503
bearing 2502
damages 2502
Direc@@ 2501
Fri@@ 2501
attached 2501
lam@@ 2501
videos 2501
Trans@@ 2500
asset 2500
reserved 2500
unforgettable 2500
CF@@ 2499
Danish 2499
Indian 2499
chairman 2499
Fl@@ 2497
TR@@ 2496
switch 2496
wellness 2496
SP 2495
fe 2495
ort 2494
zu 2494
User 2492
dispute 2492
individually 2492
Industry 2491
ari 2491
prison 2491
Fisheries 2490
lunch 2490
1992 2489
associations 2489
strictly 2489
anywhere 2488
poly@@ 2488
utmost 2488
alcohol 2487
suit 2487
Gro@@ 2485
Tour 2485
Tre@@ 2485
dated 2483
clim@@ 2481
extending 2481
oned 2481
normally 2480
ther 2480
05 2479
ins@@ 2479
panel 2479
reporting 2478
School 2477
snow 2476
Kyoto 2475
Box 2474
belie@@ 2474
collect 2474
Australia 2472
delicious 2472
makers 2472
IR@@ 2471
dark 2471
ven 2470
King 2469
choices 2469
quote 2469
Venice 2468
ading 2468
expense 2468
ile 2468
travelling 2467
Is@@ 2466
Peter 2466
rap@@ 2466
whereby 2466
Cro@@ 2465
Employment 2465
schemes 2465
dro@@ 2464
eld 2464
ental 2464
ands 2463
graphic 2463
AND 2462
eat 2462
tem@@ 2462
troops 2462
eliminate 2461
ped 2461
41 2458
fans 2458
oni@@ 2458
but@@ 2457
factory 2457
pick 2457
vis 2457
ark@@ 2456
Nov@@ 2455
airports 2455
Muslim 2454
Win@@ 2454
collec@@ 2453
medicines 2453
\ 2452
aches 2451
28@@ 2450
dry 2450
info 2450
spite 2450
surprise 2450
hen@@ 2449
meets 2449
uph@@ 2448
hum@@ 2447
agents 2446
convention 2446
Paul 2445
designs 2445
nar@@ 2445
constitu@@ 2444
sex 2444
Common 2442
servers 2442
inadequate 2441
solar 2440
Among 2438
bit@@ 2438
ov 2438
urgency 2436
yl@@ 2436
Da@@ 2435
inform@@ 2435
proc@@ 2435
Er@@ 2434
observed 2434
ata 2433
faces 2433
Exchange 2432
ened 2432
IA 2430
closure 2430
financed 2430
Christmas 2429
airlines 2429
operated 2429
tea 2429
administ@@ 2428
liable 2427
catch 2426
ly@@ 2425
47 2424
Hel@@ 2424
Intergovernmental 2424
Saturday 2424
Cuba 2423
Earth 2422
constitutes 2422
ail 2420
vers@@ 2420
amed 2418
participating 2418
SO@@ 2417
alongside 2417
codecision 2417
foot@@ 2417
narrow 2417
conciliation 2416
evident 2416
ole 2416
Fo@@ 2415
sign@@ 2415
violation 2415
cell 2414
pes 2414
retain 2414
Fer@@ 2413
begins 2413
debating 2413
neighbours 2413
conf@@ 2412
genuinely 2412
museums 2412
tious 2412
formats 2410
ord 2410
Michael 2409
treatments 2409
wireless 2408
aching 2407
soil 2407
Ul@@ 2405
acquired 2405
plastic 2404
Nor 2403
Vol@@ 2403
Server 2402
ordered 2402
ón 2402
ie@@ 2401
Sk@@ 2400
any@@ 2400
collapse 2400
commun@@ 2399
Family 2398
encies 2398
taining 2398
Federation 2396
tal 2396
vacc@@ 2396
OR 2395
uli@@ 2395
alling 2394
fted 2394
musical 2394
rable 2394
respon@@ 2394
zero 2394
Islands 2393
aus@@ 2392
custom@@ 2392
ex 2392
operator 2392
refer@@ 2392
miss 2391
passing 2391
succ@@ 2391
twice 2391
zo@@ 2391
Ei@@ 2390
edited 2390
mere 2390
Cri@@ 2386
prohi@@ 2385
specialists 2385
200@@ 2384
Civil 2384
ay@@ 2384
producer 2384
aly@@ 2382
restored 2382
cel@@ 2380
marine 2380
openness 2379
Internal 2378
bal@@ 2377
bot@@ 2377
motions 2377
PR@@ 2376
asses 2375
85 2374
wer@@ 2374
Open@@ 2373
Would 2373
cro@@ 2373
economically 2373
Authority 2372
illu@@ 2372
deserves 2371
fewer 2371
moreover 2371
capabilities 2370
mus@@ 2370
script 2370
sovereign 2370
repeated 2369
approaches 2368
timetable 2366
è@@ 2366
graphics 2365
hospitality 2364
reputation 2364
Subject 2363
Valley 2362
kes 2362
plying 2362
Using 2361
engines 2360
expand 2360
Cha@@ 2359
Coun@@ 2359
accounting 2359
surprised 2359
cab@@ 2358
loans 2358
varied 2358
02 2357
desirable 2357
edition 2357
03 2355
PL@@ 2354
condemn 2354
revolution 2354
eless 2353
permit 2353
Good 2352
Next 2352
repeatedly 2352
Deutsche 2351
seconds 2351
chapter 2350
foundations 2350
itable 2350
ble@@ 2349
torate 2349
Customer 2348
considerations 2348
guaranteeing 2348
movie 2346
alists 2345
letters 2345
shot 2345
Forum 2344
relationships 2344
wel@@ 2344
sand 2342
asi@@ 2341
eth@@ 2341
journalists 2341
06 2340
dating 2340
unds 2336
welcoming 2336
teaching 2335
Based 2334
composition 2334
seats 2334
son@@ 2334
underlying 2334
iling 2333
repair 2332
tracks 2332
minim@@ 2330
speeches 2330
Mr. 2329
Music 2329
intentions 2329
organise 2329
romantic 2328
Palestinians 2327
medicine 2327
External 2325
desk 2324
vice 2324
Resort 2323
Slovakia 2323
foremost 2323
46 2322
Golf 2322
campaigns 2322
,@@ 2321
amm@@ 2321
concentration 2320
kilometres 2319
usage 2319
39 2317
commit 2317
Manager 2315
Martin 2315
Pic@@ 2314
studio 2314
NL 2313
attend 2312
Bay 2311
Further 2311
OF 2311
Dec@@ 2310
exemp@@ 2310
olive 2310
presidential 2310
suggests 2310
ane 2309
dest@@ 2309
pensions 2309
floors 2308
fts 2308
inspired 2308
records 2308
rupt 2306
unnecessary 2304
Meeting 2303
scheduled 2303
teachers 2303
regul@@ 2302
mine 2301
songs 2301
vely 2301
amending 2299
tragic 2299
Hi@@ 2298
broader 2298
exact 2298
sible 2298
well@@ 2298
filter 2297
mouse 2296
tragedy 2296
electoral 2295
pace 2295
sophisticated 2295
Sil@@ 2294
ownership 2294
province 2294
Ter@@ 2293
occupation 2293
prize 2293
Casino 2292
Growth 2292
gradu@@ 2291
swit@@ 2291
eded 2290
wild 2290
influ@@ 2289
hiking 2288
arians 2287
compar@@ 2287
song 2287
Sho@@ 2286
blocks 2286
ises 2286
Dublin 2285
exposed 2285
voters 2285
PS 2283
bonus 2283
decre@@ 2283
phones 2283
pression 2283
26@@ 2282
Rem@@ 2282
examined 2282
combines 2280
conferences 2279
intelligent 2279
m2 2279
begun 2278
hypo@@ 2278
manual 2277
condem@@ 2276
stuff 2276
visual 2276
Heads 2275
ani 2275
respects 2275
withdraw 2274
fur@@ 2272
intern@@ 2272
motor@@ 2272
thorough 2272
2012 2271
Bosnia 2270
completion 2269
Ci@@ 2268
toler@@ 2268
Chairman 2267
AT 2266
developers 2265
ran 2265
repe@@ 2265
ED 2264
opens 2264
revi@@ 2264
uring 2264
perpet@@ 2263
losing 2262
ola 2262
Pro 2261
mouth 2261
picturesque 2261
Gal@@ 2260
distur@@ 2260
ultimate 2260
View 2259
cau@@ 2259
communicate 2259
signing 2259
tac@@ 2259
1993 2258
construc@@ 2258
panoramic 2258
remarkable 2258
compete 2257
examination 2257
importantly 2257
amenities 2256
sent@@ 2254
student 2254
Pe@@ 2253
ethical 2253
mb@@ 2253
sights 2253
stick 2253
Hall 2252
Sha@@ 2252
apparent 2252
Nu@@ 2250
Sc@@ 2249
dings 2249
jointly 2249
underground 2249
ord@@ 2248
pretty 2248
dom@@ 2247
eable 2247
feder@@ 2247
shortly 2247
clarity 2245
hence 2245
cm 2244
nec@@ 2243
doubts 2242
struc@@ 2242
aria 2241
prospect 2241
ship@@ 2241
yard 2241
Morocco 2240
sorry 2239
identi@@ 2238
magazine 2238
ED@@ 2237
correc@@ 2237
Sun@@ 2236
cop@@ 2235
oppose 2235
gue 2234
dramatic 2233
expres@@ 2233
initially 2233
hidden 2231
liked 2231
sees 2231
empty 2230
iring 2230
riding 2230
19th 2229
44 2229
Java 2229
horse 2229
sessions 2229
RO 2227
falling 2227
fru@@ 2227
sake 2227
atten@@ 2226
upgrade 2226
Tru@@ 2225
tw@@ 2225
Ku@@ 2223
Tro@@ 2223
girls 2222
amb@@ 2221
observe 2220
stores 2219
suff@@ 2219
hur@@ 2218
hy@@ 2218
incorpor@@ 2218
oms 2218
Regi@@ 2217
forming 2217
dependence 2214
sely 2214
ok 2213
transitional 2213
Van 2211
affecting 2211
grade 2211
Castle 2210
USD 2210
hydro@@ 2210
Pen@@ 2209
activ@@ 2209
Sar@@ 2207
Greens 2206
Terms 2206
sy@@ 2206
TO 2205
speciali@@ 2205
representing 2204
camp 2203
250 2202
exec@@ 2202
ital 2202
brow@@ 2201
custom 2201
deep@@ 2201
logic 2201
direc@@ 2200
disc@@ 2200
informal 2200
ni 2200
objec@@ 2200
Res@@ 2199
complaints 2199
priv@@ 2199
references 2199
Off@@ 2198
checked 2198
Gaza 2196
Rotary 2196
recording 2196
Representative 2195
dep@@ 2195
geo@@ 2195
partial 2194
ader 2193
free@@ 2193
recall 2193
stressed 2193
GB 2192
describe 2192
Wal@@ 2191
dual 2191
Partnership 2190
ette 2190
pilot 2189
smooth 2189
ello 2188
viable 2188
BR@@ 2187
bright 2187
populations 2187
Apart 2186
permission 2186
solved 2185
demo@@ 2184
dor@@ 2183
dynam@@ 2182
Hon@@ 2181
granting 2181
rat@@ 2181
wonder@@ 2181
27@@ 2179
deficits 2179
violent 2179
feet 2178
strike 2178
tran@@ 2178
Network 2177
Vil@@ 2177
advis@@ 2177
Via 2176
Wednesday 2176
Mari@@ 2175
Skype 2175
convenience 2174
Be 2172
Hong 2172
accordingly 2172
boats 2172
uncertainty 2172
Hol@@ 2171
sers 2171
03@@ 2170
ices 2170
afford 2169
revised 2169
shel@@ 2169
constructed 2168
ction 2168
ingredients 2168
minor 2167
pet@@ 2167
apo@@ 2166
lobby 2166
OT@@ 2165
secondary 2165
textile 2165
ached 2163
fri@@ 2163
sch 2163
Storage 2162
prefer@@ 2162
Have 2161
Kong 2161
mas@@ 2161
projec@@ 2161
NI 2160
credible 2160
arily 2159
cam@@ 2159
JavaScript 2158
cot@@ 2158
Project 2157
zen 2157
concert 2156
law@@ 2156
premi@@ 2155
believed 2154
clicking 2154
run@@ 2154
Garden 2153
afraid 2153
greenhouse 2153
las@@ 2153
oth 2153
deadline 2152
meal 2152
A4 2151
Three 2151
gg@@ 2151
vocational 2151
adjustment 2150
destroy 2150
recession 2150
deaths 2149
folder 2149
Player 2148
aqu@@ 2148
broken 2148
governmental 2148
collabor@@ 2147
subsequently 2147
tionary 2147
Gentoo 2146
colors 2146
specialized 2145
tour@@ 2145
alise 2144
coastal 2144
ells 2144
enjoys 2144
debated 2143
judge 2143
mixed 2143
sle@@ 2143
comparable 2142
porting 2142
Mil@@ 2141
taxpayers 2141
declare 2140
boards 2139
instantly 2139
ner@@ 2139
till 2139
Presidents 2137
preferred 2136
sement 2135
viewed 2134
managers 2133
Life 2132
anc@@ 2132
conditioned 2132
honest 2132
Tel@@ 2131
terrible 2131
amazing 2130
IF@@ 2127
Set 2126
acking 2126
negotiated 2126
argue 2125
Ob@@ 2124
navigation 2124
whatsoever 2124
assurance 2123
formation 2123
Single 2122
oldest 2122
ratified 2122
sound@@ 2122
casino 2121
seemed 2120
tin 2120
Games 2118
IC 2118
Pol@@ 2118
communic@@ 2118
clock 2117
acqu@@ 2116
alternatives 2116
fax 2116
jurisdiction 2116
Flash 2115
Quality 2115
avi@@ 2115
frag@@ 2115
ignore 2115
coal 2114
integrity 2113
noon 2113
Together 2112
spectrum 2112
Hostelsclub 2111
Support 2111
investig@@ 2111
surveillance 2111
undertake 2110
Children 2109
delays 2109
deserve 2109
fifth 2109
expenses 2108
posing 2108
bet 2107
ler@@ 2107
promoted 2106
tivity 2106
overlooking 2105
superior 2105
certainty 2103
civilian 2103
maybe 2103
tz 2103
David 2102
alle@@ 2102
dad 2102
ily 2102
keys 2102
transfers 2099
AV@@ 2098
bonds 2098
radi@@ 2098
loading 2097
Left 2096
portal 2096
Don 2095
trained 2095
forgotten 2094
teen 2094
ond 2093
ruling 2093
travel@@ 2093
Dom@@ 2092
Otherwise 2092
aj@@ 2092
alo@@ 2092
devoted 2092
enting 2092
inal 2092
Lam@@ 2091
Maastricht 2091
refused 2091
simultaneously 2090
translated 2090
expanded 2089
lob@@ 2089
Men@@ 2088
Sam@@ 2088
hau@@ 2088
mes 2088
removal 2088
stories 2088
ez 2087
healthcare 2087
pas@@ 2086
basically 2085
renewed 2085
didn 2083
here@@ 2082
Fin@@ 2080
focusing 2080
indicators 2080
nobody 2080
akes 2079
false 2079
villa 2079
04 2078
GNU 2078
SC@@ 2078
answered 2078
certified 2078
kin@@ 2077
mini@@ 2077
ghter 2076
refuse 2076
clu@@ 2074
electrical 2074
preparations 2074
wan@@ 2074
Jean 2073
inspection 2073
ç@@ 2073
expressly 2072
nationals 2072
employers 2071
ich@@ 2071
stunning 2071
territories 2071
CE 2070
optimal 2070
Investment 2069
justify 2069
thanking 2069
700 2068
Ph@@ 2068
bureaucracy 2068
tens 2068
Dan@@ 2067
ails 2067
beneficial 2067
explicitly 2067
listening 2066
Moscow 2064
Section 2064
ized 2064
negotiate 2064
autumn 2063
stu@@ 2063
hole 2062
bought 2061
beer 2060
Jewish 2059
orientation 2059
roof 2059
theatre 2058
propor@@ 2057
reali@@ 2057
audience 2055
suspended 2055
loaded 2054
suited 2054
Han@@ 2053
certification 2053
distinction 2053
frequency 2053
divi@@ 2052
tun@@ 2052
int@@ 2049
Four@@ 2048
calm 2048
mines 2048
rev@@ 2048
Airbus 2047
newsletter 2047
Joint 2046
Speci@@ 2046
indoor 2046
Wil@@ 2045
shore 2045
studied 2045
emerged 2044
wei@@ 2044
beef 2043
event@@ 2043
far@@ 2043
observation 2043
Tr@@ 2042
intervene 2042
relief 2042
paths 2041
geous 2040
ney 2040
transaction 2040
86 2039
worrying 2039
assigned 2038
cope 2038
necessity 2038
researchers 2038
turns 2038
и@@ 2038
dist@@ 2037
mass@@ 2036
admit 2035
ish@@ 2035
native 2035
prevented 2035
allocation 2034
oring 2034
ial 2033
20th 2032
behavior 2032
Europol 2031
bre 2031
gran@@ 2031
wooden 2031
Equ@@ 2030
Finnish 2030
fav@@ 2030
escape 2029
1991 2028
51 2028
principal 2028
publish 2027
č@@ 2027
ero 2026
organiz@@ 2026
Product 2025
manufactured 2025
wise 2025
Award 2024
arrangement 2024
focuses 2024
ceiling 2023
soldiers 2022
height 2021
plates 2021
reflection 2021
SA 2020
Plaza 2019
promising 2019
tar@@ 2019
inter 2018
sizes 2018
Rural 2016
achievements 2016
cles 2016
insufficient 2015
soul 2014
rated 2013
telecommunications 2013
vin@@ 2013
10.@@ 2012
adult 2012
Ministry 2011
adventure 2011
technique 2011
120 2009
Pan@@ 2009
Hour 2008
closing 2008
hr@@ 2008
Lebanon 2007
mod@@ 2006
string 2006
2nd 2005
authors 2005
classical 2005
hot@@ 2005
quali@@ 2005
splendid 2005
Democratic 2004
Over@@ 2003
bigger 2003
fails 2003
mark@@ 2003
postal 2003
TS 2002
unanimously 2002
humanity 2001
alled 2000
Fra@@ 1999
citizenship 1999
CE@@ 1998
Third 1998
dialog 1998
moments 1997
BSE 1996
atta@@ 1996
pools 1996
supplementary 1996
terrorists 1996
undermine 1996
competences 1995
threatened 1995
1989 1994
Uni@@ 1994
demonstrates 1994
sional 1994
chemicals 1992
ena 1992
enjoying 1992
accuracy 1990
viewing 1990
Area 1989
MySQL 1989
array 1989
aus 1989
consum@@ 1989
finds 1989
Fre@@ 1988
bathrooms 1988
continuously 1987
shor@@ 1987
AIDS 1986
cast@@ 1986
freight 1986
installations 1986
mistakes 1986
modify 1986
trouble 1986
bug 1985
characteristic 1985
Burma 1983
measurement 1983
Yugoslavia 1982
ard@@ 1982
coordinate 1982
mm@@ 1982
Pl@@ 1981
fix 1981
Fac@@ 1980
aled 1980
consistently 1980
dimensions 1980
quantity 1980
wages 1980
Cup 1979
judgment 1979
residential 1979
George 1978
inten@@ 1978
Maria 1976
hes 1976
posts 1976
sn@@ 1976
Pla@@ 1975
tonnes 1975
boasts 1974
cle 1974
harm 1974
potentially 1973
Camp@@ 1972
Iranian 1972
Wa@@ 1972
contributing 1972
cool 1972
defining 1972
redund@@ 1971
wars 1971
discount 1970
e.@@ 1970
Govern@@ 1969
sk 1969
ink@@ 1967
rin@@ 1967
timely 1967
tness 1966
SM@@ 1965
delete 1965
hills 1965
tom@@ 1965
Out@@ 1964
Stu@@ 1964
oni 1964
virtu@@ 1964
buying 1963
protest 1963
Department 1962
agrees 1962
fell 1962
meals 1962
quet 1962
tile 1962
Florence 1961
Lithuania 1961
applicant 1961
cancellation 1961
commerce 1961
diversi@@ 1961
earn 1961
notified 1961
stopped 1961
Similarly 1960
ee 1960
pressed 1960
Cat@@ 1959
facilit@@ 1959
gross 1959
rati@@ 1959
spi@@ 1959
variable 1959
withdrawal 1959
Mad@@ 1958
St 1958
ita 1958
affili@@ 1957
mechanical 1957
aming 1956
branch 1956
camp@@ 1956
Pacific 1955
Several 1955
unions 1955
A3@@ 1954
Autom@@ 1953
catalogue 1953
High@@ 1952
blame 1952
survey 1952
Prin@@ 1951
neighbourhood 1951
Kur@@ 1950
Studio 1950
hei@@ 1948
procurement 1948
stration 1948
accum@@ 1946
exce@@ 1946
privileged 1946
.de 1945
dé@@ 1945
evaluate 1945
fir@@ 1945
gal@@ 1945
identification 1945
mandatory 1945
tra 1945
52 1944
belongs 1944
conversion 1944
stones 1944
OL@@ 1943
angle 1943
asts 1943
dent 1943
imported 1942
subsi@@ 1942
virus 1942
conservation 1941
iron 1940
elderly 1939
enter@@ 1939
treaties 1939
arities 1938
papers 1938
Pu@@ 1937
arti@@ 1937
mentation 1937
calendar 1936
sample 1936
authorised 1935
residents 1935
signals 1935
unemployed 1935
blu@@ 1934
stro@@ 1934
thri@@ 1934
bour@@ 1933
fire@@ 1933
react 1933
dat@@ 1932
pursued 1932
Suite 1931
affordable 1931
imposing 1931
breach 1930
indic@@ 1930
lively 1930
patents 1930
experiencing 1929
systematic 1929
charm 1928
eping 1928
ind 1928
qualifications 1928
Taiwan 1927
cancelled 1927
Conc@@ 1926
Die 1926
notably 1926
oked 1926
Rap@@ 1925
Up 1925
tant 1925
vary 1925
sleep 1924
domin@@ 1923
legislat@@ 1923
Washington 1922
arrest 1922
chairs 1922
Holiday 1921
dar@@ 1921
desktop 1921
fascinating 1921
missed 1921
occupied 1920
cip@@ 1919
farms 1919
returns 1919
whenever 1919
bureaucratic 1918
conventions 1918
ester 1918
Power@@ 1917
dation 1917
machinery 1917
som@@ 1917
Alps 1916
Read 1916
arbitrary 1916
Apartments 1915
hel@@ 1915
ama 1914
medieval 1914
emo@@ 1913
innovations 1913
quar@@ 1913
stand@@ 1913
DS@@ 1912
Multi@@ 1912
Make 1911
fair@@ 1911
inser@@ 1911
ratio 1911
ñ@@ 1911
accessories 1910
eled 1910
phot@@ 1910
astic 1909
cookies 1908
placing 1907
reads 1907
Team 1906
Until 1906
duration 1906
arranged 1905
biodiversity 1905
question@@ 1905
Youth 1904
iler 1904
contractual 1903
dity 1903
rig@@ 1903
PA 1902
Bureau 1901
disputes 1901
Socialists 1900
q@@ 1900
tigh@@ 1900
automotive 1899
pain 1896
transit 1896
aro@@ 1895
ases 1894
anda 1893
emphasised 1893
ope 1893
preserved 1893
Deposit 1892
smart 1892
J 1891
consistency 1891
ign 1891
illi@@ 1891
officially 1891
purchased 1891
ron 1891
thir@@ 1891
Mak@@ 1890
deci@@ 1890
layout 1890
portra@@ 1890
baby 1888
thi@@ 1888
Power 1886
publishing 1886
treas@@ 1886
drafting 1885
tis 1885
ums 1885
gence 1884
precision 1884
tains 1884
thly 1884
realize 1882
DA 1881
gel 1880
indicates 1880
plate 1880
rational 1880
wheel 1880
ambition 1879
esc@@ 1879
eter 1879
enthusi@@ 1878
Des@@ 1877
Prize 1877
jeop@@ 1877
moves 1877
plug 1877
throw 1876
Mac 1875
generous 1875
knew 1875
ners 1875
intelligence 1874
authorized 1873
eradic@@ 1873
lights 1873
visits 1873
Palestine 1872
fan 1872
fications 1872
gift 1872
migrants 1872
play@@ 1872
zones 1872
11.@@ 1871
Slovenia 1871
adi@@ 1871
fallen 1871
Parliamentary 1870
advise 1870
mid@@ 1870
tre 1870
winner 1870
vable 1869
.org 1868
Cer@@ 1868
Communist 1868
inci@@ 1868
marquis 1868
trans 1868
crops 1867
interinstitutional 1867
perspectives 1867
initiated 1866
dollars 1865
holder 1865
BO@@ 1864
alike 1863
motorway 1863
premium 1862
regulate 1862
revealed 1861
threshold 1860
crow@@ 1859
ela 1859
essing 1859
purchasing 1859
composed 1858
ate@@ 1857
04@@ 1856
bits 1856
certificate 1856
mile 1856
newspaper 1856
real@@ 1856
The@@ 1855
deli@@ 1855
logistics 1855
persi@@ 1855
substantially 1855
My@@ 1854
equity 1854
pur@@ 1854
Pap@@ 1853
prop@@ 1853
tened 1853
S.@@ 1852
dal 1852
Tit@@ 1851
apparently 1851
broad@@ 1851
finances 1851
Argentina 1850
brands 1850
pel@@ 1850
tioned 1850
Liberal 1849
Olympic 1849
precious 1849
rever@@ 1849
undertakings 1849
Obviously 1848
bay 1848
warming 1847
ac 1846
compla@@ 1846
differenti@@ 1846
erous 1846
regimes 1846
tangible 1846
Far@@ 1845
IB@@ 1845
deliber@@ 1845
bel 1844
catastrop@@ 1844
nur@@ 1843
tough 1843
width 1842
Spe@@ 1841
insul@@ 1841
specially 1841
ala 1840
nic@@ 1840
structured 1840
vali@@ 1840
Elevator 1839
Mas@@ 1839
perf@@ 1839
vo 1839
senior 1838
Download 1837
Met@@ 1837
cir@@ 1837
declarations 1837
Mand@@ 1836
itali@@ 1836
tering 1836
fulfilled 1835
lev@@ 1835
Ka@@ 1834
Robert 1834
academic 1834
ardi@@ 1834
Citizens 1833
nonetheless 1833
replacement 1833
selec@@ 1833
Hamas 1832
Video 1832
retail 1832
Jan@@ 1831
incentive 1831
opt 1831
wherever 1831
1.5 1830
Web@@ 1830
ax@@ 1830
partnerships 1830
tech 1830
Malta 1829
gate 1829
ideally 1829
num@@ 1829
Luggage 1828
convince 1828
drives 1828
globalization 1828
warmly 1828
confident 1827
comprises 1826
omm@@ 1826
1000 1825
Society 1825
attended 1825
demographic 1825
inclusive 1825
hi 1824
quest 1824
raises 1824
dumping 1823
publications 1823
releases 1823
Heating 1822
expanding 1822
ood 1822
PRO@@ 1821
excursions 1821
ier@@ 1821
schedule 1821
slopes 1821
Cologne 1820
forcing 1820
pattern 1820
progressive 1820
Co 1819
Standard 1819
centers 1819
inde@@ 1819
kno@@ 1819
Car 1818
cin@@ 1818
stipul@@ 1818
EA 1817
Iraqi 1817
heavily 1817
ute 1817
transformation 1816
essence 1815
locate 1815
ung 1815
na@@ 1814
onic 1814
organize 1814
stering 1814
suggestion 1814
IG@@ 1813
cameras 1813
gains 1813
dup@@ 1812
enlarged 1812
featuring 1812
worry 1812
Defence 1811
Nonetheless 1811
acquisition 1811
destinations 1811
expressing 1811
findings 1811
sentence 1811
frequent 1810
justi@@ 1810
Plan@@ 1809
eted 1808
lining 1808
bou@@ 1807
fears 1807
mar 1807
dial 1805
enced 1805
wording 1805
68 1804
ack@@ 1804
eff@@ 1804
exten@@ 1804
inary 1804
parks 1804
Mobile 1803
talked 1803
tribute 1803
Bon@@ 1802
interactive 1802
logo 1802
neglec@@ 1802
postp@@ 1802
meantime 1801
sil@@ 1801
spare 1800
transatlantic 1800
wife 1800
Tom@@ 1799
para 1799
specify 1799
2,@@ 1798
Libya 1798
Poker 1798
borne 1798
shortcomings 1798
Budgetary 1797
Ur@@ 1797
emission 1797
dev@@ 1796
outs 1796
LE 1795
archive 1795
travellers 1795
Full 1794
ado@@ 1794
olo@@ 1794
restrict 1794
trav@@ 1794
performing 1793
sibility 1793
EF@@ 1792
Ge@@ 1792
acknowled@@ 1792
pursuant 1792
Out 1791
instruc@@ 1791
SV 1790
cycles 1790
progres@@ 1790
ups 1790
venture 1790
Pra@@ 1789
handed 1789
pair 1789
partic@@ 1789
pays 1789
subscribe 1789
SD@@ 1788
TO@@ 1788
Islam 1787
comb@@ 1787
condemned 1787
exhibitions 1787
intermedi@@ 1787
regrettable 1787
tab@@ 1787
IP@@ 1786
dan 1786
measuring 1786
rain 1786
handled 1785
ancy 1784
happ@@ 1784
Labour 1783
controversial 1783
benef@@ 1782
fun@@ 1782
racism 1780
fresh@@ 1779
lim@@ 1779
arrange 1778
superb 1778
100@@ 1777
estimate 1777
exchanges 1777
gaining 1777
lesson 1777
tower 1777
consequently 1776
creature 1776
scar@@ 1776
2.0 1775
Scotland 1775
ements 1775
fate 1775
organis@@ 1775
poker 1775
prot@@ 1775
CON@@ 1774
Macedonia 1774
assured 1774
occurs 1774
slowly 1774
54 1773
breaking 1773
claimed 1773
pit@@ 1773
tension 1773
SS 1772
mature 1772
photographs 1772
e.g 1770
eth 1770
tier 1770
tiz@@ 1769
ignored 1767
Clearly 1766
Mul@@ 1765
creativity 1765
patterns 1765
split 1765
step@@ 1765
Marina 1764
Zurich 1764
dd@@ 1764
diagno@@ 1764
eve 1764
bank@@ 1763
integral 1763
preliminary 1763
ski@@ 1763
Main 1762
Rel@@ 1762
ques 1762
Ky@@ 1761
Ms 1761
intense 1761
allies 1759
aran@@ 1759
biological 1759
entrepren@@ 1759
journ@@ 1759
lowest 1759
statistical 1759
umin@@ 1759
airline 1758
ckets 1758
72 1757
AM 1757
atri@@ 1757
diving 1757
outset 1757
rejection 1757
sustained 1757
avoided 1756
flying 1755
practically 1755
C5 1754
Nordic 1754
power@@ 1754
announce 1753
ury 1753
cla@@ 1752
codes 1752
sunny 1752
Southern 1751
stimul@@ 1751
victim 1751
xed 1751
crew 1750
unusual 1750
Tu@@ 1749
chose 1749
lig@@ 1749
notion 1749
diver@@ 1748
tropical 1748
autonomy 1747
exhi@@ 1747
heav@@ 1747
Declaration 1746
í 1746
Albania 1745
amend 1745
chen 1745
sculp@@ 1745
ton@@ 1745
vic@@ 1745
UC@@ 1744
bol@@ 1744
caught 1744
metro 1744
vals 1744
Small 1743
awa@@ 1743
blind 1743
drinking 1743
CS 1742
acknowledged 1742
dominant 1742
elle 1742
genetic 1742
ote 1742
reinforce 1742
emerge 1741
plas@@ 1741
silence 1741
ima@@ 1740
Shop 1739
ggling 1739
wa 1739
Poli@@ 1738
fundament@@ 1738
spar@@ 1738
tionality 1738
53 1737
iti@@ 1737
posted 1737
Salzburg 1736
feedback 1736
platforms 1736
ía 1736
inequality 1735
connec@@ 1734
din@@ 1734
publicly 1734
typically 1734
discipline 1733
let@@ 1733
marking 1733
tho@@ 1733
Space 1732
adjust 1732
advoc@@ 1732
clothing 1732
ection 1732
torture 1732
Budapest 1731
busy 1731
quota 1731
wake 1731
dos 1730
ham 1730
passion 1730
160 1729
pharmaceutical 1729
tone 1729
Mark@@ 1728
drafted 1728
simplification 1728
assemb@@ 1726
scri@@ 1726
Ren@@ 1725
Tran@@ 1725
Ther@@ 1724
estimates 1724
simplify 1724
Academy 1723
hoped 1723
mot@@ 1723
sam@@ 1723
chat 1722
differ 1722
fitted 1722
steam 1722
arm 1720
proce@@ 1720
unknown 1720
Bet@@ 1719
Cur@@ 1719
Digital 1719
downloaded 1718
contra@@ 1717
less@@ 1717
ring@@ 1717
tolerance 1717
Kal@@ 1716
observers 1716
program@@ 1716
survival 1716
thetic 1716
56 1715
B5 1715
Consi@@ 1715
controlling 1715
penalties 1715
Meanwhile 1714
imperi@@ 1714
industri@@ 1714
rela@@ 1714
shuttle 1714
whe@@ 1713
EP@@ 1712
Website 1712
failing 1712
HTML 1711
monitored 1711
unlike 1711
verage 1711
bert 1710
defense 1710
dog 1710
Pres@@ 1709
anticip@@ 1709
fare 1709
tips 1709
ett@@ 1708
buses 1707
coverage 1707
explains 1707
profession@@ 1707
Conditions 1706
indirect 1706
ska 1706
Wei@@ 1705
bian 1705
confusion 1705
measured 1705
arts 1704
Mont@@ 1703
bis@@ 1703
rot@@ 1703
EX@@ 1702
chief 1702
headquarters 1702
keen 1702
stein 1702
unfortunate 1701
arity 1700
71 1699
Adobe 1699
West@@ 1699
concent@@ 1699
depri@@ 1699
indication 1699
painting 1699
pot 1699
reiterate 1699
tations 1699
21st 1698
exposure 1698
Zimbabwe 1697
derog@@ 1697
lacking 1697
premises 1697
simpli@@ 1697
argu@@ 1696
hesitate 1696
respectively 1696
&apos;d 1695
Beijing 1694
licence 1694
undertaking 1694
unlikely 1694
exerc@@ 1693
reductions 1693
responses 1693
IV 1692
cancel 1692
need@@ 1692
specifications 1692
Budget 1691
cians 1691
holders 1691
itation 1691
unification 1691
isolated 1690
receives 1690
zu@@ 1690
SE 1689
boxes 1689
insp@@ 1689
keeps 1689
Dor@@ 1688
accepting 1688
centrali@@ 1688
fought 1688
pay@@ 1688
settled 1688
va@@ 1688
cour@@ 1687
surprising 1687
Search 1686
blan@@ 1686
peti@@ 1686
incorporate 1685
ean 1684
buil@@ 1683
converted 1683
defending 1683
eting 1683
fold 1683
pact 1683
separ@@ 1683
segment 1682
thoroughly 1682
Indonesia 1681
Ken@@ 1681
Rob@@ 1681
Sony 1681
Which 1681
pling 1680
Sta@@ 1679
consolidation 1679
exceptions 1679
pursuing 1679
deemed 1678
flag 1678
prestigious 1678
ensured 1677
underline 1677
Organization 1676
Place 1676
infringement 1676
jan 1676
develops 1675
ground@@ 1675
ior 1675
supple@@ 1675
yn@@ 1675
с@@ 1675
AD 1674
Tunisia 1674
belonging 1674
consult 1674
convert 1674
Tar@@ 1673
copies 1673
ples 1673
robust 1673
vig@@ 1673
Al 1671
complexity 1671
disappointed 1671
economics 1671
otel 1671
owing 1671
59 1670
MB 1670
bic 1670
design@@ 1670
eries 1670
mal 1670
Stockholm 1669
acquire 1669
tin@@ 1669
graphy 1668
inst@@ 1668
Sou@@ 1667
confron@@ 1667
democrati@@ 1667
displays 1667
heated 1667
staying 1667
desper@@ 1666
icon 1666
indi@@ 1666
ophi@@ 1666
respecting 1666
compli@@ 1665
smo@@ 1665
Plus 1664
attrac@@ 1664
concerts 1664
oll@@ 1664
ora 1664
pec@@ 1664
credi@@ 1663
ft@@ 1663
ph 1663
tali@@ 1663
Sudan 1662
ailing 1662
66 1661
Ir@@ 1661
Hence 1660
ente 1660
friend@@ 1660
reverse 1660
auto@@ 1659
decent 1659
hing 1659
shareholders 1659
PC@@ 1658
lighting 1658
lovers 1658
Ki@@ 1657
pass@@ 1657
plane 1657
ousness 1656
rol 1656
tackling 1656
mul@@ 1655
stops 1655
Everyone 1654
Thomas 1654
aire 1654
ares 1654
Cir@@ 1653
denti@@ 1653
tia 1653
tle 1653
Fle@@ 1652
fal@@ 1652
interim 1652
milit@@ 1652
shing 1652
artificial 1651
camps 1651
pack@@ 1651
executed 1650
founding 1650
inquiry 1650
sheets 1650
tiv@@ 1650
Charles 1649
MA 1649
adily 1649
bill 1649
lement 1649
micro 1649
nam@@ 1649
strange 1649
Access 1648
ato@@ 1648
governed 1648
jour@@ 1648
noticed 1648
sus 1648
92 1647
Gulf 1647
Port 1647
Ty@@ 1647
backed 1647
cer 1647
hed 1647
ints 1647
leng@@ 1646
Las 1645
implies 1645
monuments 1645
sailing 1645
telling 1645
EMU 1644
Opera 1644
Water 1644
continuation 1644
Tuesday 1643
accepts 1643
actor 1643
badly 1643
cr@@ 1643
ests 1643
tery 1643
architectural 1642
endor@@ 1642
ami 1641
interaction 1641
unt 1641
whi@@ 1641
ros 1640
transp@@ 1640
guard 1639
ouse 1639
Series 1638
Milan 1637
Num@@ 1637
wind@@ 1637
exceed 1636
hospital 1636
12.@@ 1635
auf 1635
11@@ 1634
adju@@ 1634
grants 1634
taxi 1634
Tibet 1633
literature 1633
Select 1632
abor@@ 1632
imag@@ 1632
magic 1632
News 1631
ambitions 1631
translat@@ 1631
Canon 1630
anim@@ 1630
survive 1630
pop@@ 1629
ution 1629
EEC 1628
Personal 1628
elev@@ 1628
gam@@ 1628
stays 1628
describes 1627
designer 1627
fires 1627
kes@@ 1627
profound 1627
dominated 1626
pregn@@ 1626
GN@@ 1625
churches 1625
trains 1625
unstable 1625
AP@@ 1624
Above 1624
Peace 1624
denied 1624
listened 1624
aded 1623
relaxed 1623
thro@@ 1623
Point 1622
backing 1622
compare 1622
dorf 1622
silver 1622
snow@@ 1622
Hy@@ 1621
dres@@ 1621
thesis 1621
tured 1621
lian 1620
maps 1619
adher@@ 1618
clearer 1618
favourite 1618
stem 1618
Science 1617
acquis 1617
characterised 1617
evalu@@ 1617
holes 1616
choosing 1615
circul@@ 1615
harmony 1615
abolition 1614
conjunction 1614
degrees 1614
fiable 1614
mo 1614
vention 1614
Eff@@ 1613
discrimin@@ 1613
Anonymous 1612
Guide 1612
adjusted 1612
grav@@ 1612
san@@ 1612
alliance 1611
coordin@@ 1611
downloading 1610
lica 1610
bat@@ 1609
homo@@ 1609
prohibited 1609
skilled 1609
18th 1608
add@@ 1608
authorisation 1608
chap@@ 1608
rac@@ 1608
tailored 1608
unprecedented 1608
Est@@ 1607
sandy 1607
AC 1606
Kr@@ 1606
Millennium 1606
ison 1606
stret@@ 1606
entries 1605
fting 1605
Master 1604
key@@ 1604
circle 1603
delicate 1603
sporting 1603
tening 1603
red@@ 1602
rene@@ 1602
App@@ 1600
mig@@ 1600
recycling 1600
sw@@ 1600
· 1599
discre@@ 1598
ein@@ 1598
li 1598
activated 1597
automation 1597
capture 1597
challenging 1597
unch 1597
bid 1596
dangers 1596
ong@@ 1596
seekers 1596
doctors 1595
Fif@@ 1594
accommodate 1594
bases 1594
guidance 1594
invitation 1594
minds 1594
aux 1593
coinci@@ 1593
refugee 1593
securities 1593
kan 1591
58 1590
catering 1590
plain 1590
alarm 1589
decor@@ 1588
foods 1588
stant 1588
vac@@ 1588
column 1587
manifest@@ 1587
watching 1587
horizontal 1586
shaped 1586
Mus@@ 1585
Norway 1585
abund@@ 1585
temperatures 1585
workshop 1585
banned 1584
suspi@@ 1584
57 1583
Industrial 1583
cosme@@ 1583
resu@@ 1583
rubber 1583
signature 1583
a.@@ 1582
eda 1582
ired 1582
tells 1582
evi@@ 1581
linguistic 1581
sin 1581
cat 1579
editor 1579
67 1578
diff@@ 1578
invested 1578
Naturally 1577
accountability 1577
deny 1577
eption 1577
reduces 1577
wai@@ 1577
Na@@ 1576
currencies 1576
lish 1576
workshops 1576
Travel 1575
2.5 1574
College 1574
Road 1574
analyses 1574
det@@ 1574
parameter 1574
Go 1573
announcement 1572
assessments 1571
battery 1571
curi@@ 1571
favorite 1571
Wall 1570
constraints 1570
evolution 1570
stood 1570
booked 1569
requiring 1569
roughly 1569
Saudi 1568
brain 1568
fam@@ 1568
Mich@@ 1567
Comple@@ 1566
edit 1566
laser 1566
racing 1566
separately 1566
spots 1566
consulted 1565
departments 1565
murder 1565
proximity 1565
counts 1564
solving 1564
unanimous 1564
DC 1563
Moldova 1563
celebrate 1563
consul@@ 1563
expec@@ 1563
movies 1563
appreciated 1562
ears 1562
surplus 1562
visitor 1562
stakeholders 1561
ó 1561
Apartment 1560
book@@ 1560
conve@@ 1560
damaged 1560
ges@@ 1560
preventive 1560
Mur@@ 1559
ample 1559
authentic 1559
coherence 1559
compo@@ 1559
engineers 1559
fli@@ 1559
gio 1559
oted 1559
thoughts 1558
concentrated 1557
quantities 1557
subsidiary 1557
zy 1557
Ram@@ 1556
assumed 1556
batt@@ 1556
kg 1556
nt 1556
preferences 1556
Rot@@ 1555
abandoned 1555
demonstration 1555
pack 1555
suddenly 1555
Lau@@ 1554
rub@@ 1554
AR 1553
circulation 1553
accused 1552
alogue 1552
branches 1552
inher@@ 1552
servi@@ 1552
weigh@@ 1552
1980 1551
investigate 1551
Additionally 1550
BC 1550
approx 1550
characterized 1550
continually 1549
Blue 1548
congratulations 1548
investing 1548
pru@@ 1548
ê@@ 1548
Puerto 1547
adaptation 1547
albeit 1547
appreciation 1547
derived 1547
socio 1547
turing 1546
environments 1545
reconciliation 1545
Everything 1544
Right 1544
birds 1544
compatibility 1544
eine 1544
sty@@ 1544
twin 1544
Experience 1543
calculated 1543
feels 1543
mi 1543
specialities 1543
Vietnam 1542
bi 1542
railways 1542
aking 1541
attract 1541
sanc@@ 1541
supervisory 1541
explicit 1540
TI@@ 1539
black@@ 1539
diplom@@ 1539
disman@@ 1539
furthermore 1539
cooking 1538
damaging 1538
dictatorship 1538
differently 1538
male 1538
tape 1538
2015 1537
coalition 1537
searching 1537
Sy@@ 1536
beginn@@ 1536
differ@@ 1536
perc@@ 1536
revenues 1536
Choose 1535
James 1535
eo 1535
fault 1535
izing 1535
Cent@@ 1534
enthusiasm 1534
excess 1534
investigations 1534
les@@ 1534
pending 1534
slau@@ 1534
sus@@ 1534
urs 1534
Live 1533
defects 1533
exploit 1533
recei@@ 1533
Gold 1532
cky 1532
enburg 1532
heim 1532
modest 1532
powered 1531
rose 1531
tel 1531
ET 1530
Rather 1530
adequately 1530
knowing 1530
photography 1530
tut@@ 1530
habit@@ 1529
lending 1529
stag@@ 1529
super 1529
eco@@ 1528
secured 1528
conviction 1527
enemy 1527
pione@@ 1527
Docum@@ 1526
contributes 1526
inations 1526
initi@@ 1526
modes 1525
stimulate 1525
associ@@ 1524
demanded 1524
outs@@ 1524
partition 1524
semi 1524
short@@ 1524
Under@@ 1523
harbour 1523
lor@@ 1523
Contact 1522
Ed@@ 1522
Fax 1522
evil 1522
AP 1521
acks 1521
odi@@ 1521
terminal 1521
ulated 1521
Ham@@ 1520
ROM 1520
agent 1520
inspec@@ 1520
realized 1520
clarification 1519
hire 1519
instability 1519
stringent 1519
teacher 1519
bench@@ 1518
laying 1518
3rd 1517
isn 1517
в@@ 1517
Fran@@ 1516
automated 1516
Gener@@ 1515
Lei@@ 1515
ful@@ 1515
intoler@@ 1515
paradise 1515
terror 1515
HO@@ 1514
PSE 1514
deser@@ 1514
lier 1514
struck 1514
Mis@@ 1513
bac@@ 1513
optical 1513
Oper@@ 1512
incomes 1512
justification 1512
radic@@ 1512
decentrali@@ 1511
Sometimes 1510
bag 1510
defen@@ 1510
identical 1510
sincerely 1510
competitors 1509
essed 1509
survi@@ 1509
recip@@ 1508
88 1507
dged 1507
pic@@ 1507
BMW 1506
authorit@@ 1506
scre@@ 1506
ando 1505
backs 1505
divide 1505
exhau@@ 1505
filling 1505
infrastructures 1505
multimedia 1505
obtaining 1505
sequ@@ 1505
themes 1505
Climate 1504
adv@@ 1504
caf@@ 1504
enz@@ 1504
intergovernmental 1504
lean 1504
prominent 1504
scenario 1504
Start 1503
optional 1503
AU@@ 1502
Gen@@ 1502
isolation 1502
upcoming 1502
OM@@ 1501
deleted 1501
sharp 1501
Apple 1499
© 1499
HIV 1498
Mel@@ 1498
Pack@@ 1498
humans 1498
perform@@ 1498
xing 1498
volunte@@ 1497
halt 1496
ket 1496
lea@@ 1496
quot@@ 1496
top@@ 1496
62 1495
Fa@@ 1495
genetically 1495
govern@@ 1495
directions 1494
illing 1494
ö@@ 1494
Bern@@ 1493
admi@@ 1493
alize 1492
doctor 1492
newspapers 1492
SAP 1491
broch@@ 1491
permanently 1491
Fon@@ 1490
ault 1490
fei@@ 1490
ians 1490
marg@@ 1490
erce 1489
etry 1489
grand 1489
hard@@ 1489
Bir@@ 1488
capacities 1488
fifteen 1488
ł@@ 1488
77 1487
enni@@ 1487
ée 1487
History 1486
advocate 1486
breaks 1486
fat@@ 1486
opponents 1486
ouring 1486
vre 1486
93 1485
AN 1485
Add 1485
Program 1485
peri@@ 1485
Currently 1484
Quar@@ 1484
anxi@@ 1484
fundamentally 1484
ico 1484
ideological 1484
interpreted 1484
irre@@ 1484
lt 1484
removing 1484
rul@@ 1484
sul@@ 1484
ultra 1484
Could 1483
Rental 1483
Super@@ 1483
enhan@@ 1483
grand@@ 1483
household 1483
specialised 1483
striking 1483
witness 1483
Str@@ 1482
Los 1481
crossing 1481
lakes 1481
Order 1480
Press 1480
ais 1480
een 1480
motivated 1480
performances 1480
Vel@@ 1479
lessly 1479
practi@@ 1479
vent@@ 1479
Bl@@ 1478
EM 1478
biom@@ 1478
rage 1478
stan 1478
Person@@ 1477
aw@@ 1477
conditional 1477
nis@@ 1477
s. 1477
EU@@ 1476
Regarding 1476
argued 1476
connecting 1476
crystal 1476
deri@@ 1476
ergy 1476
incredible 1476
jo 1476
scann@@ 1476
checking 1475
seaf@@ 1475
89 1474
inevitable 1474
ishes 1474
partially 1474
volcan@@ 1474
Estonia 1473
Sem@@ 1473
Technical 1473
deleg@@ 1473
monthly 1473
net@@ 1473
sad 1473
tot@@ 1473
82 1471
edy 1471
optimum 1471
returning 1471
SC 1470
pan 1470
translations 1470
cheese 1469
fashi@@ 1469
participated 1469
patri@@ 1469
Avi@@ 1468
Edition 1468
embar@@ 1468
gradual 1468
transformed 1468
Lim@@ 1467
impetus 1467
promotes 1467
Muslims 1466
chocolate 1466
moderate 1466
pron@@ 1466
Part 1465
notification 1465
score 1465
Don@@ 1464
ety 1464
gements 1464
ologically 1464
peak 1464
scep@@ 1464
subscri@@ 1464
vent 1464
Training 1463
bone 1463
combining 1463
iny 1463
mirror 1463
taught 1463
LU@@ 1462
bears 1462
dentally 1462
formula 1462
independently 1462
Chechnya 1461
Doha 1461
bak@@ 1461
permits 1461
rid 1461
socially 1461
winners 1461
ab 1460
ican 1460
esti@@ 1459
endeav@@ 1458
forwar@@ 1458
inevitably 1458
Gran 1457
abuses 1457
grave 1457
maxim@@ 1457
strive 1457
Republi@@ 1456
explanations 1456
iPhone 1456
ignor@@ 1456
retirement 1456
set@@ 1456
trig@@ 1456
ú@@ 1456
Modern 1455
Kor@@ 1454
aces 1454
dam@@ 1454
Tim@@ 1453
dges 1453
ext@@ 1453
ori 1453
proliferation 1453
sensor 1453
Aqu@@ 1452
Vir@@ 1452
transfer@@ 1452
vegetables 1452
Cra@@ 1451
XP 1451
passes 1451
avoiding 1450
rescue 1450
xen@@ 1450
Saddam 1449
Thailand 1449
Communication 1448
NO@@ 1448
alising 1448
bo 1448
editing 1448
hosts 1448
openly 1448
dimin@@ 1447
prob@@ 1447
tensions 1447
bird 1446
distribute 1446
hunger 1445
neutral 1445
restoration 1445
Content 1444
LA 1444
announ@@ 1444
bach 1444
colonial 1444
reform@@ 1444
Fil@@ 1443
ail@@ 1443
ct 1443
Che@@ 1442
Process 1442
Working 1442
oria 1442
schol@@ 1442
arrested 1441
cen@@ 1441
ich 1441
reinforced 1441
democracies 1440
harmonised 1439
leather 1439
su 1439
78 1438
Basi@@ 1438
Image 1438
officers 1438
seminars 1438
urity 1438
Show 1437
advances 1437
excellence 1437
outlined 1437
recogni@@ 1437
â@@ 1437
Danube 1436
Pet@@ 1436
pum@@ 1436
vil@@ 1436
Ant@@ 1435
eligible 1435
ems 1435
stal@@ 1435
conci@@ 1434
globally 1434
workforce 1434
ze@@ 1434
Cu@@ 1433
Mail 1433
arm@@ 1433
40@@ 1432
alive 1432
borro@@ 1432
mir@@ 1432
ophobia 1432
prescri@@ 1432
Alpine 1431
CHF 1431
inters 1431
toral 1431
Plat@@ 1430
Work 1430
etric 1430
hazardous 1429
nowadays 1429
Ol@@ 1428
ald 1428
austerity 1428
donors 1428
receipt 1428
sten@@ 1428
Golden 1427
observations 1427
symbolic 1427
League 1426
Ltd 1426
ager 1426
bet@@ 1426
Kon@@ 1425
TA 1425
invo@@ 1425
onia 1425
Ah@@ 1424
critic@@ 1424
desi@@ 1424
employee 1424
indispensable 1424
radiation 1424
rolling 1424
systematically 1424
Hal@@ 1423
Vari@@ 1423
Visit 1423
scenery 1423
translate 1423
extrem@@ 1422
flash 1422
hide 1422
SQL 1421
breathtaking 1421
forums 1421
scienti@@ 1421
separated 1421
setup 1421
activate 1420
complement 1420
delayed 1420
dental 1420
hopefully 1420
pleas@@ 1420
recover 1420
summary 1420
Cold 1419
DO@@ 1419
cheaper 1419
pin 1419
aten 1418
ère 1418
SU@@ 1417
Statute 1417
entities 1417
gathered 1417
hist@@ 1417
login 1417
separation 1417
Client 1416
Cy@@ 1416
Syn@@ 1416
eness 1416
enrich@@ 1416
flowers 1416
ords 1416
wil@@ 1416
imperative 1415
minimal 1415
resolving 1415
spiritual 1415
jack@@ 1414
pet 1414
tain@@ 1414
tool@@ 1414
twelve 1414
audit 1413
kit 1413
modern@@ 1413
novel 1413
Blo@@ 1412
Friendly 1412
ante 1412
blocked 1412
ford 1412
judges 1412
Finance 1411
capability 1411
configure 1411
woo@@ 1411
deeper 1410
interference 1410
realised 1410
revol@@ 1410
Change 1409
ST 1409
adverse 1409
archi@@ 1409
craft 1409
discovery 1409
garage 1409
quarters 1409
repression 1409
Allow 1408
databases 1408
igrant 1408
labels 1408
salt 1408
sty 1408
tight 1408
threatening 1407
ues 1407
unlimited 1407
uns 1407
bathing 1406
capitalism 1406
commission 1406
criterion 1406
emer@@ 1406
golden 1406
trademarks 1406
Catal@@ 1405
Christians 1405
Criminal 1405
conscious 1405
crats 1405
gases 1405
simplified 1405
Cle@@ 1404
cali@@ 1404
orts 1404
HD 1403
Py@@ 1403
a.m. 1403
distribut@@ 1403
envisaged 1403
interview 1403
restra@@ 1403
PD@@ 1402
controller 1402
ques@@ 1402
warranty 1402
о@@ 1402
Boo@@ 1401
amp 1401
ino@@ 1401
integrating 1401
predec@@ 1401
resumed 1401
tories 1401
Cathedral 1400
NEW 1400
Sel@@ 1400
bread 1400
esting 1400
indigenous 1400
ore@@ 1400
stating 1400
jud@@ 1399
mas 1399
63 1398
Inclu@@ 1398
Mau@@ 1398
Tyrol 1398
disagree 1398
restrictive 1398
kids 1397
reviewed 1397
orious 1396
piano 1396
troub@@ 1396
New@@ 1395
Supervisory 1395
consisting 1395
mailing 1395
rigorous 1395
Annual 1394
boundaries 1394
them@@ 1394
ols 1393
wis@@ 1393
EP 1392
Spring 1392
grew 1392
By@@ 1391
criminals 1391
ids 1391
shr@@ 1391
spor@@ 1391
suspension 1391
ailed 1390
par 1390
reciproc@@ 1390
scrutiny 1390
venue 1390
Champ@@ 1389
engagement 1389
fits 1389
ker@@ 1389
ruled 1389
IGC 1388
Stuttgart 1388
ete 1388
hou@@ 1388
indirectly 1388
oper@@ 1388
thumbnail 1388
91 1387
Solidarity 1387
invent@@ 1387
speaks 1387
tial 1387
Vista 1386
centrally 1386
countless 1386
gest@@ 1386
mem@@ 1386
yment 1386
Discover 1385
Rei@@ 1385
cum@@ 1385
entrepreneurs 1385
gy@@ 1385
procedural 1385
safely 1385
tages 1385
toilet 1385
94 1384
feelings 1384
harv@@ 1384
ji 1384
jun@@ 1384
neighbor@@ 1384
roles 1384
titude 1384
CEO 1383
inning 1383
civilians 1382
delivering 1382
ea 1382
ep 1382
gar 1382
glob@@ 1382
kill 1382
ography 1382
touched 1382
celebrated 1381
sacrifi@@ 1381
synchron@@ 1381
thr@@ 1381
Nigeria 1380
Petitions 1380
pointing 1380
Chap@@ 1379
examining 1379
Den@@ 1378
Her 1378
Pat@@ 1378
finest 1378
trails 1378
Region 1377
ras 1377
compromises 1376
eigh@@ 1376
flav@@ 1376
jects 1376
subjected 1376
simil@@ 1375
PM 1374
congratulating 1374
ey@@ 1374
hop 1374
tex@@ 1374
accompli@@ 1373
arises 1373
charter 1373
complic@@ 1373
determin@@ 1373
extends 1372
installing 1372
interventions 1372
pride 1372
Newspapers 1371
Trek 1371
alu@@ 1371
embedded 1371
ign@@ 1371
ren 1371
statute 1370
Gau@@ 1368
Maj@@ 1368
asks 1368
behold 1368
bub@@ 1368
infl@@ 1368
paintings 1368
vicinity 1368
view@@ 1368
access@@ 1367
alls 1367
alties 1367
dre@@ 1367
ego@@ 1367
safeguarding 1367
transmitted 1367
weapon 1367
xi@@ 1367
Alban@@ 1366
GT@@ 1366
chem@@ 1366
generating 1366
limitations 1366
sq@@ 1366
stimulus 1366
sums 1366
supporters 1366
unanimity 1366
Playa 1365
adjustments 1365
ci 1365
elite 1365
Develop@@ 1364
Mark 1364
disastrous 1364
killing 1364
landscapes 1364
Bad 1363
ame@@ 1363
await 1363
dedic@@ 1363
existed 1363
gol@@ 1363
gon 1363
implic@@ 1363
recover@@ 1363
tless 1363
voices 1363
Sun 1362
carrier 1362
lear@@ 1362
tremendous 1362
PP@@ 1361
monopoli@@ 1361
tained 1361
utions 1361
vend@@ 1361
Assi@@ 1360
care@@ 1360
ographic 1360
omp@@ 1360
Det@@ 1359
Empire 1359
OK 1359
abstained 1359
founder 1359
infec@@ 1359
proportionate 1359
stre@@ 1359
ä@@ 1359
Blan@@ 1358
Bol@@ 1358
besides 1358
pillars 1358
sex@@ 1358
shock 1358
cultiv@@ 1357
lla 1357
monopoly 1357
Four 1356
vine 1356
worker 1356
ör@@ 1356
Hans 1355
Jews 1355
bann@@ 1355
influenced 1355
lawyers 1355
presentations 1355
ENT 1354
Professor 1354
Rio 1354
girl 1354
ide 1354
laboratory 1354
ool 1354
sat@@ 1354
74 1353
Not@@ 1353
Written 1353
conveniently 1353
excuse 1353
profitable 1353
roll@@ 1353
Gor@@ 1352
Jerusalem 1352
SI 1352
alle 1352
annually 1352
sensitivity 1352
Chief 1351
Disabled 1351
altern@@ 1351
Beh@@ 1350
Log@@ 1350
admission 1350
ght@@ 1350
resistant 1350
Tal@@ 1349
neo 1349
ticul@@ 1349
conclu@@ 1348
bot 1347
determining 1347
distinguished 1347
exclude 1347
profiles 1347
Hei@@ 1346
Star@@ 1346
bration 1346
cos 1346
plurali@@ 1346
render 1346
trademark 1346
Caribbean 1345
Chancellor 1345
GU@@ 1345
On@@ 1345
entity 1345
eria 1345
gor@@ 1345
hat@@ 1345
polis 1345
writer 1345
Romanian 1344
circuit 1344
defici@@ 1344
innocent 1344
strikes 1344
verse 1344
69 1343
Cel@@ 1343
culinary 1343
guides 1343
California 1342
rad 1342
Line 1341
Location 1341
communist 1341
continental 1341
op 1341
prosp@@ 1341
Bau@@ 1340
calculation 1340
Fair 1339
MP3 1339
foster 1339
81 1338
About 1338
Latvia 1338
earned 1338
iel@@ 1338
rows 1338
utility 1338
61 1337
cher@@ 1337
enhancing 1337
fes@@ 1337
mers 1337
refusal 1337
cils 1336
drop@@ 1336
protests 1336
sofa 1336
Cho@@ 1335
Cross 1335
affir@@ 1335
gear 1335
method@@ 1335
walks 1335
Cop@@ 1334
refined 1334
Reg@@ 1333
grass 1333
73 1332
waves 1332
Anti@@ 1331
Professional 1331
linking 1331
repa@@ 1331
Joseph 1330
abandon 1330
bloo@@ 1330
cooling 1330
Ale@@ 1329
Cast@@ 1329
anded 1329
anders 1329
eta 1329
ji@@ 1329
show@@ 1329
Rou@@ 1328
absurd 1328
districts 1328
hearts 1328
margin 1328
rivers 1328
tariff 1328
umb@@ 1328
assessed 1327
bles 1327
dest 1327
elabor@@ 1327
prejudi@@ 1327
endorsed 1326
lle 1326
mes@@ 1326
yellow 1326
oblig@@ 1325
plac@@ 1325
Dem@@ 1324
after@@ 1324
autonomous 1324
offset 1324
Sport 1323
attempting 1323
reproduction 1323
scra@@ 1323
chances 1322
cion 1322
contin@@ 1322
delegations 1322
dependen@@ 1322
qualities 1322
visas 1322
worried 1322
Radio 1321
corporations 1321
lifestyle 1321
upgra@@ 1321
weekly 1321
Armen@@ 1320
cans 1320
fabric 1320
incident 1320
sincere 1320
supplement 1320
Corporate 1319
ageing 1319
distributors 1319
fif@@ 1319
haven 1319
omed 1319
resorts 1319
terly 1319
Iron@@ 1318
cements 1318
cycling 1318
exploited 1318
gia 1318
sac@@ 1318
zia 1318
gastronom@@ 1317
rupted 1317
consultations 1316
gene@@ 1316
immunity 1316
stitutes 1316
Unless 1315
ema 1315
unilateral 1315
WC 1314
agre@@ 1314
designers 1314
inspiration 1314
16th 1313
Cohesion 1313
authentic@@ 1313
clou@@ 1313
convincing 1313
distant 1313
fertili@@ 1313
advent@@ 1312
author@@ 1312
hectares 1312
lays 1312
subscription 1312
sympathy 1312
younger 1312
Unlike 1311
Val 1311
lens 1311
magnetic 1311
maintains 1311
moder@@ 1311
pull 1311
radio@@ 1311
sin@@ 1311
thin 1311
Much 1310
consolidate 1310
decrease 1310
homepage 1310
judi@@ 1310
rites 1310
surfing 1310
ura 1310
vised 1310
Chile 1309
UNESCO 1309
exploring 1309
joy 1309
lion 1309
politan 1309
prevents 1309
securing 1309
Christ 1308
Nav@@ 1308
Sor@@ 1308
dur@@ 1308
encounter 1308
hosti@@ 1308
inos 1308
Korean 1307
endless 1307
formally 1307
gent 1307
HU 1306
Reserve 1306
SS@@ 1306
Wo@@ 1306
washing 1306
aggressive 1305
carries 1305
cit@@ 1305
compens@@ 1305
day@@ 1305
mounted 1305
tonight 1305
Pack 1304
endeavour 1304
interfaces 1304
mach@@ 1304
ple 1304
OECD 1303
Wh@@ 1303
clin@@ 1303
designated 1303
libraries 1303
mon 1303
vern 1303
workplace 1303
ano@@ 1302
attach 1302
enters 1302
insu@@ 1302
pop 1302
reaffir@@ 1302
symp@@ 1302
76 1301
dreams 1301
mits 1301
Holy 1300
Natural 1300
afterwards 1300
divisions 1300
valu@@ 1300
Helsinki 1298
cinema 1298
finishing 1298
overwhelming 1298
paragraphs 1298
preservation 1298
technically 1298
ules 1298
analyse 1297
detention 1297
gather 1297
epide@@ 1296
obstacle 1296
panels 1296
Blair 1295
graphical 1295
gym 1295
ix 1295
reaches 1295
ssi@@ 1295
Alexander 1294
encomp@@ 1294
gged 1294
mistak@@ 1294
responding 1294
thinks 1294
Dep@@ 1293
ater@@ 1293
limiting 1293
mil@@ 1293
missible 1293
Nature 1292
alt 1292
Singapore 1291
ingen 1291
liquid 1291
vacuum 1291
Congo 1290
Gui@@ 1290
Pon@@ 1290
Sim@@ 1290
demonstrations 1290
provin@@ 1290
yield 1290
е@@ 1290
Administration 1289
Ak@@ 1289
Products 1289
ades 1289
asp@@ 1289
cease 1289
gging 1289
standardis@@ 1289
Child 1288
Publi@@ 1288
consolidated 1287
plugin 1287
GE 1286
anism 1286
clothes 1286
commer@@ 1286
degra@@ 1286
luck 1286
lying 1286
reactions 1286
refra@@ 1286
ruption 1286
carriers 1285
consist 1285
Ari@@ 1284
Whilst 1284
commonly 1284
ergi@@ 1284
tise 1284
Staff 1283
Suites 1283
circum@@ 1283
oh@@ 1283
tip 1283
anger 1282
discretion 1282
fon@@ 1282
0.00 1281
deciding 1281
defeat 1281
ele 1281
filters 1281
punishment 1281
29@@ 1280
5th 1280
Andalu@@ 1280
hof 1280
modernisation 1280
xy 1280
aves 1279
illa 1279
perceived 1279
perception 1279
sweet 1279
wishing 1279
Gay 1278
energies 1278
fai@@ 1278
moderni@@ 1278
regre@@ 1278
somewhere 1278
duction 1277
lls 1277
nin@@ 1277
notic@@ 1277
rative 1277
900 1276
Residence 1276
alig@@ 1276
applic@@ 1276
bags 1276
cris@@ 1276
exacerb@@ 1276
macroeconomic 1276
mort@@ 1276
Come 1275
deployment 1275
detection 1275
fast@@ 1275
sevent@@ 1275
clauses 1274
irrespective 1274
meaningful 1274
poin@@ 1274
02@@ 1273
Cli@@ 1273
Algeria 1272
Analy@@ 1272
Ocean 1272
audiovisual 1272
brother 1272
character@@ 1272
preference 1272
refu@@ 1272
talent 1272
Š@@ 1272
1990s 1271
Allah 1271
OLAF 1271
exhibit@@ 1271
incorrect 1271
scen@@ 1271
AF@@ 1270
ctu@@ 1270
electronics 1270
married 1270
rarely 1270
KDE 1269
confirms 1269
lings 1269
max 1268
ratify 1268
witn@@ 1268
Basel 1267
Bour@@ 1267
Eri@@ 1267
emphasize 1267
ideology 1267
reveal 1267
scenes 1267
thereof 1267
Big 1266
broadly 1266
complaint 1266
dereg@@ 1266
gaming 1266
households 1266
quiries 1266
safer 1266
seminar 1266
stes 1266
unified 1266
cep@@ 1265
condi@@ 1265
fers 1265
proves 1265
ry@@ 1265
skill 1265
Wireless 1264
aster 1264
costly 1264
ede 1264
mp 1264
nat@@ 1264
spell 1264
styles 1264
Against 1263
Neither 1263
Round 1263
alter 1263
democratically 1263
kilometers 1263
logi@@ 1263
Phot@@ 1262
streaming 1262
Simply 1261
gres@@ 1261
group@@ 1261
safeguards 1261
Galileo 1260
Language 1260
Lou@@ 1260
ceram@@ 1260
downtown 1260
dust 1260
dging 1259
ually 1259
IV@@ 1258
fulness 1258
hosting 1258
vous 1258
Cultural 1257
deadlines 1257
glo@@ 1257
imbalances 1257
macro 1257
oder 1257
athle@@ 1256
gel@@ 1256
rum@@ 1256
wire 1256
wisdom 1256
Eu@@ 1255
Kra@@ 1255
Library 1255
guilty 1255
outermost 1255
tig@@ 1255
60@@ 1254
Post@@ 1254
aiming 1254
loan 1254
locally 1254
odation 1254
Head 1253
maj@@ 1253
mol@@ 1253
veness 1253
floo@@ 1252
onal 1252
tz@@ 1252
ín 1252
disabilities 1251
mand@@ 1251
philos@@ 1251
remember@@ 1251
shoes 1251
Gallery 1250
Green@@ 1250
Sig@@ 1250
Warcraft 1250
Wikitravel 1250
immense 1250
mill@@ 1250
sear@@ 1250
commodity 1249
dramatically 1249
revolutionary 1249
spons@@ 1249
GPS 1247
Lat@@ 1247
bed@@ 1247
eco 1247
insight 1247
problematic 1247
ville 1247
Innovation 1246
Privacy 1246
cros@@ 1246
diplomacy 1246
edly 1246
mic 1246
races 1246
ray 1246
reasonably 1246
thirty 1246
Sol 1245
bands 1245
pushed 1245
silent 1245
Between 1244
Key@@ 1244
assessing 1244
struction 1244
Colombia 1243
Islam@@ 1243
Test 1243
impro@@ 1243
Cab@@ 1242
Sum@@ 1242
medicinal 1242
nutri@@ 1242
pushing 1242
veter@@ 1242
Country 1241
breeding 1241
selecting 1241
Partner 1240
SW@@ 1240
bath@@ 1240
collections 1240
conce@@ 1240
engine@@ 1240
helicop@@ 1240
tendency 1240
Hostel 1239
Piazza 1239
Ps 1239
USS 1239
coins 1239
critique 1239
deriv@@ 1239
fragile 1239
teach 1239
validity 1239
DP 1238
Decision 1238
Gir@@ 1238
Je@@ 1238
fic 1238
marriage 1238
tube 1238
Jesus 1237
Regul@@ 1237
contest 1237
tually 1237
87 1236
Anti 1236
Objective 1236
belt 1236
disciplinary 1236
processor 1236
ME 1235
Tem@@ 1235
comprehensible 1235
debts 1235
favor@@ 1235
fulfil@@ 1235
inger 1235
pipeline 1235
wished 1235
EX 1234
delivers 1234
identifying 1234
multip@@ 1234
practic@@ 1234
theoretical 1234
Adriatic 1233
Franc@@ 1233
iner 1233
invites 1233
query 1233
recognises 1233
tet 1233
vigil@@ 1233
Bat@@ 1232
Flo@@ 1232
Net 1232
Vic@@ 1232
html 1232
laimed 1232
praise 1232
Bou@@ 1231
herself 1231
tab 1231
descri@@ 1230
iner@@ 1230
3,@@ 1229
License 1229
appearing 1229
feasible 1229
headed 1229
kit@@ 1229
mile@@ 1229
profession 1229
renewal 1229
а@@ 1229
Casa 1228
XML 1228
clinical 1228
dioxide 1228
indications 1228
tes@@ 1228
tracking 1228
án 1228
Anyone 1227
GP 1227
loved 1227
symbols 1227
Bag@@ 1226
bud@@ 1226
deplo@@ 1226
desc@@ 1226
donor 1226
may@@ 1226
remedy 1226
enforce 1225
fruits 1225
politi@@ 1225
pretext 1225
tiny 1225
witnessed 1225
Bio@@ 1224
Dru@@ 1224
a.m 1224
climbing 1224
erial 1224
glu@@ 1224
protective 1224
Explorer 1223
FOR 1223
accompanying 1223
cattle 1223
forestry 1223
honest@@ 1223
neys 1223
sur 1223
exceptionally 1222
med@@ 1222
multinational 1222
personality 1222
vineyards 1222
attempted 1221
fing 1221
tail@@ 1221
trail 1221
15th 1220
Democracy 1220
FI 1220
Solana 1220
reluc@@ 1220
definitions 1219
gin 1219
hop@@ 1219
limitation 1219
ocean 1219
Ele@@ 1218
fossil 1218
impres@@ 1218
scand@@ 1218
trials 1218
Nero 1217
beat 1217
economists 1217
simul@@ 1217
Bab@@ 1216
eating 1216
wra@@ 1216
awards 1215
ilt 1215
insur@@ 1215
Ashton 1214
CD@@ 1214
pour 1214
ration@@ 1214
Swi@@ 1213
ects 1213
oes 1213
oque 1213
Certi@@ 1212
Neu@@ 1212
ancies 1212
escal@@ 1212
fed 1212
fulfilling 1212
rival 1212
titles 1212
Land@@ 1211
Ukrainian 1211
ambience 1211
dru@@ 1211
Double 1210
GA 1210
prompt 1210
Annex 1209
Nikon 1209
Reform 1209
Tower 1209
arriving 1209
prerequisite 1209
stit@@ 1209
understandable 1209
Cub@@ 1208
Montenegro 1208
Provi@@ 1208
cargo 1208
lifting 1208
Azer@@ 1207
District 1207
Fed 1207
Heritage 1207
SK 1207
Sierra 1207
admitted 1207
incidents 1207
stadt 1207
Ag@@ 1206
comforts 1206
counting 1206
dairy 1206
globe 1206
boarding 1205
flat@@ 1205
Ö@@ 1205
Being 1204
bab@@ 1204
colon@@ 1204
painful 1204
arri@@ 1203
cross@@ 1203
intim@@ 1203
missi@@ 1203
printer 1203
rhetoric 1203
weakness 1203
FOR@@ 1202
IM 1202
Mah@@ 1202
Though 1202
abling 1202
broadcasting 1202
woods 1202
eck 1201
giant 1201
lity 1201
persu@@ 1201
pt 1201
surve@@ 1201
80@@ 1200
Arts 1200
distinguish 1200
retri@@ 1200
yiel@@ 1200
17th 1199
eland 1199
tling 1199
disappear 1198
xel 1198
Dresden 1197
blocking 1197
Ay@@ 1196
Stri@@ 1196
preserving 1196
C. 1195
Siemens 1195
Visi@@ 1195
classification 1195
ective 1195
master@@ 1195
ric 1195
visibility 1195
wanting 1195
ware@@ 1195
advised 1194
booth 1194
emble 1194
modification 1194
mount 1194
án@@ 1194
EB@@ 1193
Firefox 1193
OSCE 1193
Phili@@ 1193
aving 1193
mineral 1193
4th 1192
Ama@@ 1192
Dol@@ 1192
authori@@ 1192
dul@@ 1192
eive 1192
hyper@@ 1192
pressures 1192
reb@@ 1192
rob@@ 1192
Terrace 1191
bus@@ 1191
drew 1191
formul@@ 1191
protectionism 1191
Herzegovina 1190
Top 1190
alpine 1190
cotton 1190
elli 1190
organs 1190
precautionary 1190
tn@@ 1190
verify 1190
Kurdish 1189
amoun@@ 1189
complementary 1189
dogs 1189
new@@ 1189
л@@ 1189
continuity 1188
elegance 1188
prints 1188
psych@@ 1188
rank 1188
settle 1188
spreading 1188
var 1188
foodstuffs 1187
genocide 1187
sends 1187
wering 1187
Arabia 1186
Cher@@ 1186
Haiti 1186
emotional 1186
legacy 1186
lows 1186
83 1185
Kit@@ 1185
UT@@ 1185
earthquake 1185
encourages 1185
introduces 1185
liquidity 1185
musicians 1185
oli@@ 1185
rs 1185
wholehear@@ 1185
84 1184
Again 1184
asting 1184
daughter 1184
execute 1184
matches 1184
sson 1184
S. 1183
arly 1183
certificates 1183
floods 1183
initiate 1183
persecution 1183
Bed 1182
Louis 1182
Relations 1182
distinct 1182
inspections 1182
lou@@ 1182
p.m 1182
warrant 1182
CDs 1181
Cl@@ 1181
activists 1181
credits 1181
textiles 1181
IX 1180
Indi@@ 1180
boy 1180
persuade 1180
pricing 1180
uter 1180
Riviera 1179
brutal 1179
draws 1179
shooting 1179
universe 1179
attitudes 1178
restor@@ 1178
stically 1178
ush 1178
Capital 1177
Fortunately 1177
Freedom 1177
Sloven@@ 1177
crus@@ 1177
ee@@ 1177
ense 1177
shine 1177
stly 1177
vigor@@ 1177
Eli@@ 1176
FA@@ 1176
Max 1176
Political 1176
concessions 1176
cus 1176
hierarch@@ 1176
EIB 1175
advisory 1175
convic@@ 1175
BA 1174
geographi@@ 1174
inequalities 1174
origins 1174
penet@@ 1174
stroll 1174
Clinton 1173
Lag@@ 1173
aggres@@ 1173
cache 1173
ept 1173
inappropriate 1173
oul@@ 1173
ranges 1173
stence 1173
vessel 1173
assign@@ 1172
camping 1172
documented 1172
promp@@ 1172
quantitative 1172
SY@@ 1171
Vit@@ 1171
customized 1171
unt@@ 1171
Nobel 1170
conservative 1170
reimbur@@ 1170
Coast 1169
Up@@ 1169
tons 1169
Rhine 1168
clas@@ 1168
construct 1168
mad 1168
ounced 1168
poorer 1168
stayed 1168
Dry 1167
QU@@ 1167
billions 1167
intent 1167
seaside 1167
A. 1166
carte 1166
concludes 1166
responded 1166
toxic 1166
Likewise 1165
correspon@@ 1165
visu@@ 1165
Michel 1164
PE 1164
eil 1164
ho 1164
theast 1164
transnational 1164
Patten 1163
Play@@ 1163
coordinating 1163
fasc@@ 1163
seas 1163
valued 1163
Bridge 1162
completing 1162
conscience 1162
encing 1162
packed 1162
palace 1162
static 1162
Especially 1161
Les 1161
abstra@@ 1161
bla@@ 1161
ceremony 1161
mixture 1161
resol@@ 1161
rey 1161
sav@@ 1161
tment 1161
Econom@@ 1160
Mart@@ 1160
configured 1160
improves 1160
officer 1160
parado@@ 1160
Articles 1159
council 1159
infrin@@ 1159
orian 1159
protects 1159
ret@@ 1159
sett@@ 1159
stresses 1159
ès 1159
Laundry 1158
cigare@@ 1158
List 1157
PAR@@ 1157
Roman@@ 1157
Wellness 1157
chamber 1157
emergence 1157
newest 1157
peripheral 1157
eliminating 1156
margin@@ 1156
mathemati@@ 1156
variables 1156
Leh@@ 1155
RSS 1155
cook@@ 1155
definite 1155
facilitating 1155
oot 1155
villas 1155
yang 1155
Corporation 1154
Hague 1154
butes 1154
psychological 1154
Black@@ 1153
repercussions 1153
anyway 1152
barrier 1152
conducting 1152
correction 1152
gra 1152
invoice 1152
legendary 1152
mitig@@ 1152
reminded 1152
shell 1152
tournament 1152
350 1151
Slovak 1151
boom 1151
enemies 1151
organising 1151
refriger@@ 1151
tranqu@@ 1151
A.@@ 1150
Pop@@ 1150
Syri@@ 1150
cooperative 1150
etc. 1150
inland 1150
irregularities 1150
warm@@ 1150
1970 1149
Young 1149
pursuit 1149
weaknesses 1149
coura@@ 1148
della 1148
speculation 1148
Ober@@ 1147
Revolution 1147
Ticket 1147
erning 1147
lei@@ 1147
ough 1147
successes 1147
uty 1147
Liberals 1146
Village 1146
disadvantaged 1146
ernity 1146
exam@@ 1146
temporarily 1146
transported 1146
Gri@@ 1145
PH@@ 1145
Sie 1145
formity 1145
insert 1145
CA 1144
Edinburgh 1144
Retur@@ 1144
Whatever 1144
claim@@ 1144
classified 1144
dossier 1144
illness 1144
loy@@ 1144
menus 1144
relevance 1144
tied 1144
turn@@ 1144
Bul@@ 1143
Stat@@ 1143
Sul@@ 1143
dress 1143
grid 1143
layers 1143
oration 1143
restric@@ 1143
rounds 1143
DR@@ 1142
Schulz 1142
chest@@ 1142
ions 1142
lingual 1142
reader 1142
secre@@ 1142
stan@@ 1142
tt 1142
withdrawn 1142
Bug@@ 1141
GMOs 1141
anas 1141
din 1141
displaced 1141
harder 1141
upload 1141
Richard 1140
preparatory 1140
sau@@ 1140
Cypri@@ 1139
Inc 1139
aston@@ 1139
eling 1139
eur 1139
tan 1139
VIP 1138
smooth@@ 1138
SL 1137
cere@@ 1137
dive 1137
threaten 1137
Look 1136
complimentary 1136
confidentiality 1136
exemption 1136
neighb@@ 1136
retariat 1136
sightseeing 1136
ž@@ 1136
Post 1135
broadcast 1135
horses 1135
invasion 1135
samples 1135
topical 1135
Bru@@ 1134
developer 1134
ington 1134
ume 1134
д@@ 1134
chair@@ 1133
maker 1133
musi@@ 1133
organisms 1133
rice 1133
sorts 1133
Depending 1132
Valencia 1132
launching 1132
nings 1132
bugs 1131
deliberately 1131
elimination 1131
essor 1131
onian 1131
rear 1131
seed 1131
attraction 1130
burning 1130
diagnosis 1130
evaluated 1130
licensed 1130
lis 1130
portion 1130
privileges 1130
retained 1130
vising 1130
warran@@ 1130
ALDE 1129
Easy 1129
LCD 1129
enshrined 1129
het 1129
overnight 1129
ALE 1128
Hussein 1128
Sac@@ 1128
bal 1128
crimin@@ 1128
fit@@ 1128
ow@@ 1128
photo@@ 1128
tackled 1128
Def@@ 1127
couples 1127
harmoni@@ 1127
nutrition 1127
patch 1127
shots 1127
Cleaning 1126
Parag@@ 1126
UL@@ 1126
arios 1126
featured 1126
retro@@ 1126
Bulgarian 1125
DS 1125
Russians 1125
bin 1125
chi 1125
listing 1125
thirds 1125
timing 1125
All@@ 1124
Ven@@ 1124
verti@@ 1124
LT 1123
Prop@@ 1123
anticipated 1123
arded 1123
lifelong 1123
lum@@ 1123
transform 1123
Environmental 1122
Nokia 1122
ag 1122
contradiction 1122
devi@@ 1122
inj@@ 1122
pine 1122
refurbished 1122
serial 1122
Mountain 1121
Van@@ 1121
positively 1121
productions 1121
stants 1121
Med@@ 1120
Tou@@ 1120
buyer 1120
convey 1120
ciary 1119
ince 1119
liberalization 1119
mess@@ 1119
suppor@@ 1119
tag 1119
utor 1119
§ 1119
Canary 1118
Looking 1118
Verheugen 1118
accountable 1118
confidential 1118
orous 1118
pragmatic 1118
Catholic 1117
Organ@@ 1117
bold 1117
classi@@ 1117
fined 1117
healing 1117
rhyth@@ 1117
servatives 1116
undering 1116
Germans 1115
Hau@@ 1115
fat 1115
lac@@ 1115
sher 1115
studying 1115
tible 1115
traditionally 1115
Simp@@ 1114
Wikicars 1114
act@@ 1114
detect 1114
expl@@ 1114
interven@@ 1114
keyboard 1114
modifications 1114
objections 1114
alleged 1113
defines 1113
distri@@ 1113
hoo@@ 1113
mption 1113
parliament@@ 1113
recru@@ 1113
acci@@ 1112
advan@@ 1112
arom@@ 1112
counted 1112
liberty 1112
lication 1112
sharp@@ 1112
socialist 1112
volumes 1112
contam@@ 1111
diet 1111
tiers 1111
Nothing 1110
ación 1110
aspirations 1110
banana 1110
psy@@ 1110
readers 1110
tunnel 1110
Account 1109
Photocopying 1109
Times 1109
aks 1109
employ 1109
favor 1109
fically 1109
iger 1109
liness 1109
Recently 1108
comit@@ 1108
metals 1108
pedi@@ 1108
Engineering 1107
highway 1107
navig@@ 1107
standardi@@ 1107
coding 1105
Class 1104
Want 1104
assador 1104
buttons 1104
cock@@ 1104
downloads 1104
pati@@ 1104
shortage 1104
ull 1104
Fal@@ 1103
bli@@ 1103
defe@@ 1103
inviting 1103
.net 1102
Mallorca 1102
ature 1102
doz@@ 1102
educ@@ 1102
ern 1102
meter 1102
mood 1102
accom@@ 1101
batteries 1101
bicycle 1101
brea@@ 1101
commend 1101
fastest 1101
hunting 1101
policymakers 1101
tax@@ 1101
var@@ 1101
Building 1100
atures 1100
deck 1100
disappeared 1100
there@@ 1100
ude 1100
79 1099
Continu@@ 1099
Dar@@ 1099
landing 1099
midst 1099
priori@@ 1099
sequence 1099
vertical 1099
Pau@@ 1098
Supp@@ 1098
bond 1098
dt 1098
momentum 1098
pig@@ 1098
settlements 1098
weal@@ 1098
wholly 1098
commands 1097
fut@@ 1097
high@@ 1097
carri@@ 1096
gambling 1096
hairdryer 1096
1980s 1095
Tampere 1095
accessed 1095
aluminium 1095
baggage 1095
seas@@ 1095
smallest 1095
Dre@@ 1094
affair 1094
cular 1094
extra@@ 1094
kir@@ 1094
orca 1094
wel 1094
URL 1093
ander 1093
gical 1093
moon 1093
purchases 1093
relie@@ 1093
avoid@@ 1092
devastating 1092
ium 1092
jum@@ 1092
rors 1092
sooner 1092
Close 1091
Users 1091
complied 1091
formerly 1091
gathering 1091
jet 1091
ops 1091
ordering 1091
rounded 1091
terraces 1091
trilli@@ 1091
Foot@@ 1090
deterior@@ 1090
jec@@ 1090
resist 1090
tagon@@ 1090
tiveness 1090
Bö@@ 1089
Lis@@ 1089
ckers 1089
lical 1089
matic 1089
stream@@ 1089
capitalist 1088
stituted 1088
admire 1087
alogues 1087
atorium 1087
gage 1087
hybri@@ 1087
instances 1087
prison@@ 1087
recognis@@ 1087
regulating 1087
retention 1087
thou 1087
xels 1087
è 1087
EE@@ 1086
Fischler 1086
comfortably 1086
deployed 1086
gaps 1086
vement 1086
Chan@@ 1085
Exhibition 1085
Zi@@ 1085
artic@@ 1085
sleeping 1085
tieth 1085
ubs 1085
110 1084
Army 1084
Cambo@@ 1084
Samsung 1084
compet@@ 1084
instant 1084
smu@@ 1084
subjec@@ 1084
wholes@@ 1084
Solutions 1083
allevi@@ 1083
ati 1083
cht 1083
hat 1083
smoke 1083
statutory 1083
torial 1083
accessibility 1082
contem@@ 1082
greg@@ 1082
kar@@ 1082
mothers 1082
scripts 1082
she@@ 1082
ux 1082
AK@@ 1081
Dam@@ 1081
Stra@@ 1081
mined 1081
nationalism 1081
spective 1081
strongest 1081
tism 1081
definitive 1080
shorter 1080
vels 1080
wak@@ 1080
wedding 1080
Leipzig 1079
Mountains 1079
accommodations 1079
beside 1079
embargo 1079
haus@@ 1079
len 1079
propaganda 1079
resp@@ 1079
sidents 1079
singer 1079
alli@@ 1078
auto 1078
diesel 1078
directors 1078
educated 1078
envis@@ 1078
experiments 1078
galleries 1078
institute 1078
shame 1078
disadvantage 1077
literally 1077
poss@@ 1077
qualification 1077
quiry 1077
sheep 1077
Back@@ 1076
Globalisation 1076
Kir@@ 1076
Marketing 1076
Pr@@ 1076
Taliban 1076
compiled 1076
earnings 1076
photograph@@ 1076
prevail 1076
CC 1075
CR@@ 1075
Land 1075
Upon 1075
economical 1075
ounce 1075
paint 1075
grams 1074
quoted 1074
requ@@ 1074
ý 1074
GUE 1073
MEP 1073
Neigh@@ 1073
correspond 1073
lap@@ 1073
ouldn 1073
recti@@ 1073
seri@@ 1073
stricter 1073
Airlines 1072
Ori@@ 1072
Pin@@ 1072
accus@@ 1072
eliminated 1072
installer 1072
painted 1072
ression 1072
vibrant 1072
worlds 1072
180 1071
Along 1071
alarming 1071
altitude 1071
categ@@ 1071
class@@ 1071
depic@@ 1071
destruc@@ 1071
essively 1071
frau@@ 1071
hoping 1071
human@@ 1071
licences 1071
livestock 1071
prin@@ 1071
realities 1071
Trump 1070
ambiguous 1070
bon 1070
check@@ 1070
chro@@ 1070
coach 1070
opping 1070
optimized 1070
reti@@ 1070
rewar@@ 1070
six@@ 1070
tariffs 1070
vulnerability 1070
yo 1070
Afghan 1069
ember 1069
financially 1069
hip 1069
lend 1069
Jer@@ 1068
compensate 1068
concep@@ 1068
detriment 1068
lad@@ 1068
predictable 1068
pup@@ 1068
shoulder 1068
zy@@ 1068
Light 1067
NE@@ 1067
Sarkozy 1067
beneficiaries 1067
furnishings 1067
pedestrian 1067
thrown 1067
toys 1067
Marco 1066
absta@@ 1066
applau@@ 1066
assumption 1066
entary 1066
Additional 1065
Oc@@ 1065
Ref 1065
decoration 1065
issuing 1065
tro 1065
Contrac@@ 1064
ESS 1064
Warsaw 1064
container 1064
detected 1064
forever 1064
ld@@ 1064
nbsp 1064
reveals 1064
surfaces 1064
viruses 1064
aero@@ 1063
constituency 1063
ka@@ 1063
Cr@@ 1062
Future 1062
Sav@@ 1062
Some@@ 1062
noble 1062
vou@@ 1062
Kaz@@ 1061
altogether 1061
apped 1061
vel 1061
Sett@@ 1060
Still 1060
Update 1060
dening 1060
enfor@@ 1060
luggage 1060
mut@@ 1060
rence 1060
suici@@ 1060
avian 1059
formulated 1059
frames 1059
ller 1059
racy 1059
transpor@@ 1059
Age 1058
Arti@@ 1058
Guinea 1058
confronted 1058
fitting 1058
licity 1058
road@@ 1058
500@@ 1057
Certainly 1057
Porto 1057
frank@@ 1057
geared 1057
grain 1057
legitim@@ 1057
surgery 1057
Force 1056
Long 1056
Resolution 1056
UR 1056
incurred 1056
oo 1056
suits 1056
sustain 1056
horiz@@ 1055
medic@@ 1055
mitting 1055
pho@@ 1055
tender 1055
varying 1055
Hom@@ 1054
ace@@ 1054
guiding 1054
outline 1054
routine 1054
screening 1054
controll@@ 1053
manoeu@@ 1053
mean@@ 1053
popularity 1053
stell@@ 1053
thful 1053
3.5 1052
Inv@@ 1052
Mot@@ 1052
Santer 1052
aders 1052
aton 1052
bis 1052
naments 1052
Emp@@ 1051
Georgi@@ 1051
barely 1051
gla@@ 1051
sz@@ 1051
Il 1050
figh@@ 1050
ourcing 1050
ranks 1050
tles 1050
turnover 1050
auch 1049
segments 1049
Man 1048
Mol@@ 1048
aboli@@ 1048
dened 1048
establishes 1048
minded 1048
pap@@ 1048
possession 1048
spam 1048
utter 1048
arious 1047
burdens 1047
pension@@ 1047
shut 1047
130 1046
Goals 1046
aults 1046
automobile 1046
crop 1046
ingu@@ 1046
lage 1046
og@@ 1046
parent 1046
replacing 1046
Bus@@ 1045
Dr 1045
Quite 1045
Timor 1045
biotechnology 1045
exquisite 1045
memories 1045
organ 1045
cultivation 1044
tuna 1044
Croatian 1043
beautifully 1043
negoti@@ 1043
tte 1043
Egyptian 1042
lateral 1042
measurements 1042
osity 1042
overseas 1042
FT@@ 1041
capita 1041
haus 1041
long@@ 1041
outer 1041
ressed 1041
ys@@ 1041
1988 1040
HP 1040
armament 1040
collecting 1040
cure 1040
ftsman 1040
fusion 1040
hydrau@@ 1040
lifts 1040
ress@@ 1040
anne@@ 1039
bund@@ 1039
chip 1039
clari@@ 1039
decides 1039
depl@@ 1039
discipl@@ 1039
entation 1039
enza 1039
restriction 1039
unter 1039
vegetable 1039
Free@@ 1038
aer@@ 1038
duly 1038
encryp@@ 1038
gon@@ 1038
nearest 1038
sey 1038
Iceland 1037
VI 1037
accoun@@ 1037
eit 1037
erup@@ 1037
mic@@ 1037
municipal 1037
platz 1037
Anim@@ 1036
Film 1036
Forest 1036
Tech 1036
baths 1036
fis@@ 1036
gau 1036
humane 1036
injury 1036
ling@@ 1036
asy 1035
attacked 1035
dena 1035
forecasts 1035
mounting 1035
Pool 1034
Sak@@ 1034
dropped 1034
ferry 1034
ires 1034
ruins 1034
slide 1034
Incre@@ 1033
appropriately 1033
buffer 1033
defended 1033
ris 1033
sofar 1033
treating 1033
Conven@@ 1032
advocates 1032
criticisms 1032
electro@@ 1032
imagination 1032
journalist 1032
por 1032
voltage 1032
Later 1031
Summer 1031
algorith@@ 1031
broadband 1031
destabili@@ 1031
ferred 1031
hospitals 1031
opera 1031
rel 1031
severely 1031
slight 1031
Institu@@ 1030
aband@@ 1030
failures 1030
fruit@@ 1030
grey 1030
negligence 1030
pity 1030
uncertain 1030
Börse 1029
cabin 1029
clarified 1029
dear 1029
enforced 1029
experiment 1029
recipient 1029
verb@@ 1029
Ide@@ 1028
accompany 1028
arena 1028
aver@@ 1028
exotic 1028
opp@@ 1028
punished 1028
ckness 1027
lay@@ 1027
ppy 1027
week@@ 1027
Call 1026
Gran@@ 1026
anner 1026
materi@@ 1026
ré@@ 1026
sever@@ 1026
Bis@@ 1025
Spirit 1025
collap@@ 1025
goo@@ 1025
passport 1025
signatures 1025
spra@@ 1025
Athens 1024
Diam@@ 1024
Scandin@@ 1024
TE 1024
Tour@@ 1024
breast 1024
cation 1024
deter@@ 1024
lan 1024
random 1024
Côte 1023
Save 1023
accomplished 1023
discriminatory 1023
dying 1023
eck@@ 1023
ghted 1023
legisl@@ 1023
thor@@ 1023
yal 1023
Brok 1022
Elec@@ 1022
Serbian 1022
corner@@ 1022
cut@@ 1022
ffs 1022
nesses 1022
uniqu@@ 1022
precedent 1021
sored 1021
tos 1021
Caucasus 1020
Monti 1020
Six@@ 1020
Venezuela 1020
bey 1020
cost@@ 1020
cover@@ 1020
demonstrating 1020
intimate 1020
loads 1020
ror 1020
techni@@ 1020
tled 1020
End 1019
band@@ 1019
cus@@ 1019
dark@@ 1019
dently 1019
exag@@ 1019
postponed 1019
cathedral 1018
han 1018
infection 1018
remuner@@ 1018
sand@@ 1018
Ethiop@@ 1017
Instruments 1017
Rac@@ 1017
Ret@@ 1017
Technologies 1017
denom@@ 1017
donation 1017
hec@@ 1017
night@@ 1017
vian 1017
Dat@@ 1016
boys 1016
iPod 1016
Jac@@ 1015
Palma 1015
chaos 1015
ecomm@@ 1015
enjoyable 1015
escap@@ 1015
factories 1015
isi@@ 1015
umbrel@@ 1015
к@@ 1015
Deb@@ 1014
Version 1014
ao 1014
chains 1014
confront 1014
distinctive 1014
essive 1014
judged 1014
lacks 1014
remo@@ 1014
tank 1014
Arena 1013
Far 1013
Lul@@ 1013
Sustain@@ 1013
atility 1013
indul@@ 1013
injection 1013
portable 1013
shes 1013
Brun@@ 1012
NOT 1012
ali 1012
festivals 1012
nicht 1012
secular 1012
spiri@@ 1012
ão 1012
Custom@@ 1011
Dolomites 1011
congress 1011
devote 1011
ected 1011
manually 1011
snacks 1011
tailor 1011
Initiative 1010
Questions 1010
Zealand 1010
ax 1010
dei 1010
encountered 1010
13th 1009
Credit 1009
Lux@@ 1009
Medical 1009
autom@@ 1009
erg@@ 1009
excluding 1009
generates 1009
rant 1009
substitute 1009
ulative 1009
vague 1009
2014 1008
Dri@@ 1008
Meas@@ 1008
Sales 1008
closest 1008
einer 1008
ethics 1008
expects 1008
grace 1008
ik 1008
obo@@ 1008
od 1008
privati@@ 1008
ARE 1007
Os@@ 1007
Pur@@ 1007
accommod@@ 1007
block@@ 1007
chart 1007
chers 1007
criticised 1007
illegally 1007
inch 1007
archae@@ 1006
attending 1006
aul@@ 1006
ava 1006
haz@@ 1006
Advanced 1005
Madeira 1005
alleg@@ 1005
commission@@ 1005
cream 1005
fisher@@ 1005
flood 1005
catalog 1004
corresponds 1004
pesticides 1004
recur@@ 1004
rous 1004
successor 1004
teenth 1004
tera 1004
Arctic 1003
alistic 1003
etri@@ 1003
gering 1003
Democra@@ 1002
Sah@@ 1002
Yesterday 1002
just@@ 1002
righ@@ 1002
updating 1002
Hand@@ 1001
Mount 1001
cury 1001
hygiene 1001
inger@@ 1001
locked 1001
mutually 1001
nationality 1001
provi@@ 1001
saf@@ 1001
sided 1001
ularly 1001
Balkan 1000
Competition 1000
FR@@ 1000
Mar 1000
Mit@@ 1000
dryer 1000
ested 1000
incap@@ 1000
occurring 1000
scandal 1000
somehow 1000
zzo 1000
Gift 999
Learning 999
Micro@@ 999
SDL 999
Tel 999
instru@@ 999
rehabilitation 999
reward 999
straight@@ 999
tanks 999
unk@@ 999
EG@@ 998
Lab@@ 998
Sri 998
blow 998
corrid@@ 998
ensu@@ 998
farm@@ 998
intensity 998
acute 997
configu@@ 997
crash 997
dable 997
entails 997
establishments 997
mou@@ 997
queries 997
til@@ 997
verification 997
worthwhile 997
Game 996
IBM 996
auction 996
backup 996
individu@@ 996
oming 996
proofed 996
quick@@ 996
Func@@ 995
Large 995
deterioration 995
liation 995
panorama 995
ć 995
Cin@@ 994
Theatre 994
abolished 994
mail@@ 994
mountain@@ 994
s.com 994
tivities 994
Mir@@ 993
archives 993
coastline 993
contamination 993
dish 993
hosted 993
misleading 993
rises 993
za@@ 993
Israelis 992
bio 992
destroying 992
enses 992
guitar 992
oasis 992
organ@@ 992
promptly 992
protein 992
sixth 992
Ear@@ 991
Jon@@ 991
encoura@@ 991
evo 991
feeding 991
stretch 991
05@@ 990
Bot@@ 990
commodi@@ 990
competing 990
competitions 990
kon@@ 990
olds 990
religi@@ 990
simpler 990
10th 989
Division 989
ament 989
aran 989
designing 989
dient 989
gui@@ 989
mild 989
modular 989
vi 989
wheels 989
ř@@ 989
CS@@ 988
Fir@@ 988
Sin@@ 988
ario 988
chment 988
concer@@ 988
humili@@ 988
rigid 988
ø@@ 988
Universal 987
bulk 987
placement 987
privilege 987
alter@@ 986
cially 986
contribut@@ 986
dev 986
gency 986
grat@@ 986
metro@@ 986
rum 986
Fore@@ 985
Lounge 985
alia 985
anno@@ 985
dar 985
inet 985
mac@@ 985
magazines 985
persistent 985
solo 985
у@@ 985
Any@@ 984
Buyer 984
Gali@@ 984
Mex@@ 984
cas 984
dom 984
ellers 984
mails 984
mming 984
Drive 983
assu@@ 983
dents 983
discou@@ 983
drag 983
esta 983
hil@@ 983
loud 983
represent@@ 983
suspect 983
use@@ 983
CP 982
Directors 982
Wol@@ 982
chronic 982
cols 982
fest 982
transl@@ 982
CO 981
Milosevic 981
Seville 981
ann 981
coupled 981
organizing 981
respec@@ 981
rought 981
teria 981
Pass@@ 980
uries 980
verified 980
C4 979
Darfur 979
architect 979
balancing 979
networking 979
pper 979
surance 979
Captain 978
blin@@ 978
likewise 978
motivation 978
notify 978
rial 978
submitting 978
1,000 977
Chem@@ 977
Has 977
exist@@ 977
iss@@ 977
plot 977
posting 977
seller 977
sy 977
zo 977
LED 976
Ski 976
Tibetan 976
brilliant 976
coating 976
gent@@ 976
ika 976
influences 976
neg@@ 976
olo 976
passion@@ 976
recommends 976
Nazi 975
descriptions 975
laim@@ 975
ranking 975
servatory 975
wand@@ 975
Partic@@ 974
accurately 974
awaiting 974
lihood 974
past@@ 974
phenomena 974
resident 974
urged 974
Mach@@ 973
architects 973
capit@@ 973
combin@@ 973
ied 973
inability 973
tune 973
BM@@ 972
Grou@@ 972
possess 972
understands 972
6th 971
Bus 971
COD 971
Fas@@ 971
Lor@@ 971
arge 971
burn 971
consultants 971
interoper@@ 971
nightlife 971
1986 970
File 970
Sax@@ 970
formali@@ 970
inherent 970
merchan@@ 970
oods 970
profit@@ 970
sibly 970
void 970
D. 969
Help 969
exported 969
inn 969
than@@ 969
tie 969
FC 968
dez 968
distances 968
ego 968
ei 968
fortun@@ 968
unite 968
Brand@@ 967
Currency 967
cool@@ 967
preced@@ 967
proph@@ 967
sons 967
tranquil 967
9001 966
conceived 966
onable 966
recruitment 966
satis@@ 966
thwest 966
ua 966
Auto@@ 965
Rein@@ 965
atom@@ 965
colum@@ 965
enth 965
exempl@@ 965
folk 965
geable 965
resear@@ 965
stainless 965
sudden 965
tian 965
trage@@ 965
V. 964
ain@@ 964
anymore 964
io 964
lling 964
attracted 963
market@@ 963
ourse 963
shaping 963
subsidiaries 963
Bonn 962
Krem@@ 962
Rol@@ 962
screens 962
univers@@ 962
Source 961
birthday 961
corrected 961
exceeded 961
horri@@ 961
lawyer 961
lit@@ 961
lush 961
marble 961
passive 961
sl@@ 961
vor 961
Hab@@ 960
bridges 960
siden@@ 960
BS 959
Buddh@@ 959
Play 959
achiev@@ 959
pets 959
reiter@@ 959
sciences 959
threat@@ 959
Deli@@ 958
MS@@ 958
cham@@ 958
commissioned 958
frozen 958
mankind 958
multitude 958
ption 958
tends 958
ticism 958
vocal 958
Arch@@ 957
heres 957
licensing 957
logy 957
recep@@ 957
ridi@@ 957
varieties 957
episode 956
geom@@ 956
home@@ 956
proto@@ 956
susp@@ 956
thick 956
towels 956
zio 956
ION@@ 955
cane 955
density 955
flower 955
refreshing 955
sage 955
stran@@ 955
å@@ 955
Av@@ 954
Five 954
Railway 954
TM 954
fel@@ 954
submission 954
techn@@ 953
terrain 953
trigger 953
7th 952
Fun@@ 952
Production 952
adjacent 952
deliveries 952
live@@ 952
sensi@@ 952
spark@@ 952
vez 952
wash@@ 952
host@@ 951
rejec@@ 951
Level 950
contro@@ 950
embry@@ 950
exclu@@ 950
lit 950
prof@@ 950
speeds 950
Ry@@ 949
anch@@ 949
critici@@ 949
edo 949
impressed 949
positioned 949
semin@@ 949
Č@@ 949
Imm@@ 948
Intel 948
Jordan 948
Ke@@ 948
SD 948
ander@@ 948
atories 948
esa 948
fici@@ 948
matching 948
tasty 948
testim@@ 948
trau@@ 948
Ass@@ 947
ateau 947
axis 947
critics 947
forbidden 947
therap@@ 947
variations 947
Bah@@ 946
Monte 946
aesthetic 946
celebration 946
conception 946
isen 946
posedly 946
sensors 946
stered 946
BI@@ 945
Fron@@ 945
GR@@ 945
Istanbul 945
contracting 945
expecting 945
Conci@@ 944
Il@@ 944
Mes@@ 944
bottle 944
coup 944
deta@@ 944
exercises 944
fen@@ 944
wearing 944
wins 944
0,@@ 943
LAN 943
Nord 943
ador 943
antique 943
dam 943
diam@@ 943
endo@@ 943
sich 943
£ 943
Back 942
Bill 942
SL@@ 942
Saf@@ 942
bunal 942
commem@@ 942
fere 942
minibar 942
shipment 942
GM 941
KG 941
ghty 941
iced 941
incredibly 941
template 941
tful 941
1987 940
Esp@@ 940
Neph@@ 940
echo@@ 940
motto 940
scrat@@ 940
trace 940
evenings 939
moul@@ 939
otype 939
springs 939
140 938
Canadian 938
Respon@@ 938
estic 938
fier 938
flora 938
inte@@ 938
mani@@ 938
personalized 938
varies 938
0.000 937
Hen@@ 937
Installation 937
Local 937
aked 937
assumes 937
conven@@ 937
hony 937
ik@@ 937
sail@@ 937
shores 937
theater 937
Baroness 936
Malaysia 936
NGL 936
Type 936
aps 936
commit@@ 936
desert 936
ften 936
lav@@ 936
nav@@ 936
reflecting 936
tram 936
utes 936
Almost 935
Hot@@ 935
Kno@@ 935
acou@@ 935
casting 935
eme@@ 935
injured 935
jk 935
nick@@ 935
onn@@ 935
tus 935
SH@@ 934
Sup@@ 934
ave 934
dimensional 934
disc 934
ech@@ 934
kov@@ 934
purchaser 934
robots 934
spot@@ 934
т@@ 934
300@@ 933
DI 933
Enter 933
Super 933
Tuscany 933
eti@@ 933
experimental 933
pa 933
ried 933
system@@ 933
Jacques 932
ange@@ 932
assum@@ 932
backdrop 932
ebody 932
elli@@ 932
genic 932
pain@@ 932
pren@@ 932
screen@@ 932
soli@@ 932
suspec@@ 932
appropri@@ 931
arre@@ 931
avec 931
bes@@ 931
emen 931
indicating 931
labor@@ 931
pump 931
seeds 931
seem@@ 931
06@@ 930
Barack 930
Scientific 930
Thai 930
antibio@@ 930
halls 930
harsh 930
manu@@ 930
nia 930
therapeutic 930
timber 930
twen@@ 930
1945 929
EV@@ 929
Word 929
defect 929
holi@@ 929
iors 929
solarium 929
vie@@ 929
Ford 928
Jan 928
Kat@@ 928
Palacio 928
ames 928
ardian 928
facto 928
phases 928
stam@@ 928
tissue 928
utable 928
и 928
confused 927
gentle 927
incomplete 927
orient@@ 927
storm 927
14th 926
VE 926
predomin@@ 926
1985 925
CL@@ 925
administrator 925
Hitler 924
courtyard 924
emotions 924
ologies 924
porte@@ 924
raph 924
Learn 923
Rock 923
realization 923
recy@@ 923
Clar@@ 922
Customs 922
Holland 922
likes 922
otyp@@ 922
sel 922
substan@@ 922
DR 921
Scottish 921
Tus@@ 921
aven@@ 921
finger 921
lifetime 921
mill 921
.ch 920
Sab@@ 920
cken 920
consec@@ 920
municipality 920
path@@ 920
scop@@ 920
unded 920
ña 920
PER@@ 919
Yugosla@@ 919
appar@@ 919
boutique 919
compan@@ 919
explan@@ 919
foreigners 919
fulfill 919
lers 919
Hin@@ 918
Sports 918
ae 918
good@@ 918
photographer 918
steady 918
G20 917
Taking 917
captured 917
immer@@ 917
tails 917
tent@@ 917
ycle 917
.The 916
Düsseldorf 916
Father 916
Fern@@ 916
cei@@ 916
dare 916
dian 916
eva 916
termination 916
Compan@@ 915
approxim@@ 915
econom@@ 915
multination@@ 915
colo@@ 914
dealer 914
eggs 914
modernis@@ 914
tica 914
trendy 914
С@@ 914
Sant 913
acid 913
aren 913
bikes 913
refund 913
Hou@@ 912
Pot@@ 912
eks 912
matched 912
recreation 912
spati@@ 912
RI 911
atisation 911
basin 911
fabulous 911
stle 911
transi@@ 911
1.2 910
Ein@@ 910
Ga@@ 910
encryption 910
iso@@ 910
php 910
ATION 909
Maybe 909
histor@@ 909
passage 909
ô@@ 909
API 908
Az@@ 908
CAD 908
Main@@ 908
Tan@@ 908
W. 908
gau@@ 908
infected 908
recreational 908
tongue 908
writers 908
doctr@@ 907
ector 907
flour@@ 907
manipulation 907
seasonal 907
Mem@@ 906
dle 906
highligh@@ 906
lot@@ 906
neo@@ 906
simulation 906
Jun@@ 905
Karl 905
populated 905
scan 905
strations 905
ees 904
inau@@ 904
ograph 904
particip@@ 904
sexu@@ 904
studios 904
360 903
Bavaria 903
IL 903
drawings 903
Copyright 902
José 902
Olympus 902
bition 902
dealers 902
diameter 902
disappointing 902
3.0 901
Francisco 901
ae@@ 901
bookings 901
deposits 901
ghout 901
llic 901
nau@@ 901
sit@@ 901
Commerce 900
Electri@@ 900
Prac@@ 900
Sand@@ 900
petition 900
Agri@@ 899
Es@@ 899
Fol@@ 899
charging 899
gle@@ 899
part@@ 899
stati@@ 899
yards 899
м@@ 899
Trav@@ 898
Um@@ 898
cup 898
sten 898
yl 898
echo 897
jazz 897
oli 897
picked 897
prospec@@ 897
Merkel 896
coin 896
ech 896
enever 896
persec@@ 896
qualitative 896
sp 896
vell@@ 896
Exper@@ 895
Smith 895
atics 895
buted 895
diction 895
ete@@ 895
linear 895
Gothic 894
Police 894
Shanghai 894
acres 894
altered 894
fortress 894
occasionally 894
Auth@@ 893
Set@@ 893
forecast 893
fro@@ 893
func@@ 893
gend 893
slave 893
sor 893
strip 893
Kinnock 892
masters 892
nov@@ 892
oun@@ 892
rix 892
tern@@ 892
toll 892
Computer 891
May@@ 891
certain@@ 891
idy@@ 891
investor 891
rali@@ 891
rocks 891
Brazilian 890
GBP 890
Supreme 890
licenses 890
Altern@@ 889
EST 889
Trop@@ 889
Watch 889
business@@ 889
credited 889
filed 889
lah 889
prises 889
promotional 889
teeth 889
Works 888
chal@@ 888
dans 888
expor@@ 888
mixing 888
specification 888
symptoms 888
Der 887
LateRooms.com 887
Queen 887
codi@@ 887
iti 887
porno@@ 887
Prof. 886
consultan@@ 886
generic 886
hang 886
p.@@ 886
pered 886
viewer 886
zoom 886
е 886
enchanting 885
essors 885
pen 885
vegetation 885
Cour@@ 884
Nic@@ 884
Techn@@ 884
conversation 884
fireplace 884
motiv@@ 884
Official 883
Quark 883
Throu@@ 883
este 883
honor 883
incoming 883
inhab@@ 883
invali@@ 883
nets 883
ose 883
rane 883
ure@@ 883
ysi@@ 883
Perf@@ 882
William 882
assor@@ 882
ec 882
unities 882
Eurostat 881
REACH 881
acity 881
ks@@ 881
modi@@ 881
plu@@ 881
risen 881
Cou@@ 880
IR 880
Review 880
UM@@ 880
Verts 880
adop@@ 880
ateg@@ 880
eric 880
Bundes@@ 879
Daniel 879
Exc@@ 879
sity 879
Europa 878
Nowadays 878
Price 878
Wel@@ 878
einen 878
fairs 878
infin@@ 878
rd 878
Ali@@ 877
Tarifa 877
Tokyo 877
earliest 877
fet@@ 877
hell 877
ig 877
simp@@ 877
Vis@@ 876
brigh@@ 876
copper 876
neutrali@@ 876
optimization 876
sic 876
Panasonic 875
documentary 875
prostitution 875
typ@@ 875
Get@@ 874
Metro 874
Starting 874
bound@@ 874
detri@@ 874
dn@@ 874
ference 874
husband 874
participant 874
aya 873
college 873
constra@@ 873
ont 873
ota 873
Cit@@ 872
broke 872
dish@@ 872
gur@@ 872
news@@ 872
teness 872
wood@@ 872
Application 871
Kl@@ 871
anium 871
ank 871
eper 871
eses 871
judg@@ 871
of@@ 871
Available 870
Harbour 870
Renaissance 870
Vinc@@ 870
anonymous 870
dum 870
fabrics 870
orange 870
sements 870
shapes 870
unilater@@ 870
Bav@@ 869
Dur@@ 869
bili@@ 869
consu@@ 869
offensive 869
ologists 869
peace@@ 869
reason@@ 869
atus 868
binary 868
dow 868
py@@ 868
sof@@ 868
Built 867
Excellent 867
Key 867
instruction 867
longest 867
propri@@ 867
rolled 867
Cz@@ 866
Ok@@ 866
cocktail 866
containers 866
rest@@ 866
thread 866
versatile 866
Sound 865
alcoholi@@ 865
colourful 865
lag@@ 865
orph@@ 865
.000 864
1979 864
Reserv@@ 864
chips 864
vation 864
scho@@ 863
supran@@ 863
Boh@@ 862
bour 862
found@@ 862
gian 862
inia 862
itement 862
steep 862
Tam@@ 861
kan@@ 861
nan@@ 861
proprietary 861
tail 861
vir@@ 861
Kam@@ 860
Len@@ 860
Relax 860
jump 860
monastery 860
Century 859
Direct 859
Es 859
Initi@@ 859
Motor@@ 859
Prot@@ 859
enjo@@ 859
mechan@@ 859
profes@@ 859
promenade 859
quo 859
Follow 858
Naz@@ 858
animation 858
Connec@@ 857
ILO 857
Patri@@ 857
Purch@@ 857
Ros@@ 857
Tat@@ 857
fund@@ 857
po 857
verages 857
Mugabe 856
Nuclear 856
Treas@@ 856
agi@@ 856
empire 856
gifts 856
ministr@@ 856
princip@@ 856
Dav@@ 855
Mod@@ 855
ados 855
laundry 855
onds 855
stro 855
tice 855
Around 854
Gate 854
Provence 854
Sound@@ 854
isol@@ 854
peaks 854
round@@ 854
Das 853
cand@@ 853
chen@@ 853
childhood 853
licate 853
HR 852
UK@@ 852
berger 852
slot 852
400@@ 851
Applic@@ 851
Frontex 851
ICE@@ 851
Philipp@@ 851
Prince 851
continu@@ 851
expla@@ 851
seating 851
time@@ 851
Communities 850
Differ@@ 850
Monitoring 850
Past@@ 850
Phil@@ 850
Wat@@ 850
eur@@ 850
one@@ 850
tv 850
Classic 849
icons 849
ion@@ 849
kingdom 849
linen 849
nes 849
ob 849
ultra@@ 849
wet 849
Apache 848
BER@@ 848
consciousness 848
ku@@ 848
ority 848
oth@@ 848
Proc@@ 847
chef 847
ingham 847
occur@@ 847
ront 847
Days 846
Particip@@ 846
airo 846
jury 846
operative 846
servative 846
tiles 846
AV 845
B.@@ 845
Garda 845
Got@@ 845
ith 845
lamp@@ 845
TC 844
age@@ 844
domains 844
europ@@ 844
nel 844
elles 843
surf 843
DV@@ 842
Olymp@@ 842
Studies 842
challeng@@ 842
dium 842
enta 842
gourmet 842
org 842
Freed@@ 841
Santiago 841
conduc@@ 841
magical 841
share@@ 841
Adri@@ 840
Lar@@ 840
Ric@@ 840
appoin@@ 840
fridge 840
hops 840
neigh@@ 840
Below 839
Oslo 839
Premium 839
RS 839
ées 839
Kirk 838
Sky 838
ago@@ 838
delight 838
tec 838
Individu@@ 837
Salz@@ 837
ministeri@@ 837
poration 837
149 836
4,@@ 836
Bla@@ 836
Little 836
Ster@@ 836
Tex@@ 836
streng@@ 836
tili@@ 836
HS 835
abu@@ 835
bec@@ 835
cap 835
recordings 835
CAR@@ 834
Ibiza 834
valleys 834
Test@@ 833
elect 833
normali@@ 833
toi@@ 833
п@@ 833
Machine 832
Naples 832
bil@@ 832
discounts 832
hoc 832
para@@ 832
playground 832
ssen 832
wns 832
ENT@@ 831
cel 831
etch 831
foun@@ 831
pas 831
pository 831
tub 831
Audio 830
DG 830
EGF 830
Geno@@ 830
Ker@@ 830
Lev@@ 830
Vie@@ 830
fauna 830
rez 830
ateway 829
cratic 829
venti@@ 829
wasn 829
1970s 828
Af@@ 828
Kin@@ 828
Stock 828
redi@@ 828
strength@@ 828
Beg@@ 827
amaz@@ 827
brown 827
figu@@ 827
sper@@ 827
tap 827
veget@@ 827
werden 827
acqui@@ 826
asty 826
demo 826
enda 826
stamp@@ 826
н@@ 826
Archi@@ 825
Hop@@ 825
Tradi@@ 825
anding 825
connects 825
door@@ 825
intellec@@ 825
oven 825
ssa 825
Pul@@ 824
ologist 824
5,@@ 823
Antonio 823
HT@@ 823
PRO 823
ane@@ 823
delightful 823
tag@@ 823
Beyond 822
ake 822
chron@@ 822
four@@ 822
gle 822
utely 822
Berlusconi 821
G8 821
copying 821
ost@@ 821
triple 821
ASEAN 820
DNA 820
Steel 820
bets 820
gs@@ 820
mali@@ 820
Ly@@ 819
Managing 819
SIS 819
asy@@ 819
attentive 819
intuitive 819
laptop 819
molec@@ 819
tired 819
trium@@ 819
10,000 818
CM@@ 818
Gender 818
DIN 817
Jacuzzi 817
ambigu@@ 817
ria 817
san 817
temple 817
450 816
els@@ 816
lov@@ 816
Fig@@ 815
pts 815
sacri@@ 815
sugge@@ 815
CNS 814
Date 814
FREE 814
Ful@@ 814
Veneti@@ 814
bei 814
bow 814
ender 814
Fire@@ 813
Ima@@ 813
Invest@@ 813
bow@@ 813
cio 813
fts@@ 813
german 813
signat@@ 813
Alber@@ 812
manipul@@ 812
monit@@ 812
sens@@ 812
Bil@@ 811
Cubase 811
INE 811
Peru 811
copy@@ 811
tones 811
ě@@ 811
з@@ 811
1984 810
Leg@@ 810
Rad@@ 810
aboard 810
dou@@ 810
light@@ 810
powder 810
renovation 810
rus 810
thei@@ 810
Photo 809
agen@@ 809
gregate 809
sat 809
traces 809
12th 808
arium 808
reck@@ 808
Tools 807
forti@@ 807
itiner@@ 807
ret 807
roph@@ 807
Cala 806
Ecofin 806
ever@@ 806
fr@@ 806
kne@@ 806
os@@ 806
sister 806
zi 806
Bed@@ 805
Premier 805
beg@@ 805
feld 805
Andreas 804
Collection 804
Gold@@ 804
RAM 804
Sir 804
cave 804
outlin@@ 804
phi@@ 804
ussy 804
Cav@@ 803
Eurex 803
aph@@ 803
ternal 803
FS 802
SSL 802
Sit@@ 802
forge 802
repres@@ 802
venues 802
vil 802
68@@ 801
GO 801
anne 801
breath 801
consequ@@ 801
lucky 801
ois 801
yacht 801
LAN@@ 800
Near 800
anna 800
ira 800
priced 800
tch 800
tori@@ 800
Bell@@ 799
Championship 799
ehr@@ 799
peninsula 799
strasse 799
Consulting 798
Dim@@ 798
Hill 798
Upper 798
blend 798
notable 798
oping 798
scenic 798
én@@ 798
Aid 797
Aires 797
CIA 797
Kre@@ 797
M. 797
Wald@@ 797
ampli@@ 797
eleg@@ 797
isons 797
nobyl 797
reas@@ 797
tiques 797
wild@@ 797
Goth@@ 796
Limited 796
cosmo@@ 796
gher 796
logos 796
Abu 795
Buenos 795
Frattini 795
MD@@ 795
impor@@ 795
reflec@@ 795
Lanzarote 794
Meg@@ 794
Try 794
rally 794
stup@@ 794
you@@ 794
0.5 793
HD@@ 793
Laeken 793
accu@@ 793
elson 793
oll 793
ored 793
pipe 793
tane@@ 793
Property 792
Shar@@ 792
Sti@@ 792
enth@@ 792
Gam@@ 791
TION 791
gues 791
tration 791
understand@@ 791
atmosp@@ 790
balcon@@ 790
juice 790
ladimir 790
own@@ 790
targe@@ 790
truck 790
ü@@ 790
Ped@@ 789
SMS 789
1960 788
ATA 788
chant 788
Hum@@ 787
Vill@@ 787
Fat@@ 786
comprehen@@ 786
stock@@ 786
tee 786
Archit@@ 785
MM@@ 785
Winter 785
dot@@ 785
mari@@ 785
pit 785
snack 785
worn 785
Lido 784
Speed 784
assy 784
coa 784
frequ@@ 784
ind@@ 784
jer@@ 784
obli@@ 784
terri@@ 784
vens 784
Mary 783
Ron@@ 783
Sahara 783
scape 783
Journal 782
bia 782
kin 782
Basic 781
Commun@@ 781
assur@@ 781
deposi@@ 781
eman@@ 781
fen 781
font 781
protection@@ 781
sym@@ 781
FAQ 780
Pierre 780
thou@@ 780
IO 779
Water@@ 779
bene@@ 779
mary 779
mysq@@ 779
rier 779
lez 778
sie 778
Kol@@ 777
Prices 777
gic 777
kitchenette 777
vot@@ 777
IK@@ 776
enor@@ 776
famili@@ 776
innov@@ 776
liter@@ 776
monument 776
ALL 775
Itali@@ 775
aters 775
distingu@@ 775
foo@@ 775
guest@@ 775
was@@ 775
xx 775
Euros 774
Rus@@ 774
biking 774
ccer 774
embo@@ 774
junior 774
sky@@ 774
still@@ 774
swim 774
taire 774
Poly@@ 773
Reh@@ 773
Self 773
Son@@ 773
Tool 773
conductor 773
consoli@@ 773
offer@@ 773
onder@@ 773
Anna 772
Bak@@ 772
Cube 772
Feli@@ 772
Frei@@ 772
GM@@ 772
asi 772
tif 772
Beauty 771
JP@@ 771
Jackson 771
Love 771
Manu@@ 771
RES@@ 771
cription 771
informations 771
royal 771
Magic 770
TV@@ 770
auer 770
r.@@ 770
Found@@ 769
Kel@@ 769
answer@@ 769
bor 769
cone 769
2.2 768
Belar@@ 768
Clo@@ 768
Import@@ 768
LateRooms 768
Var@@ 768
amo 768
depar@@ 768
expan@@ 768
sar@@ 768
ön@@ 768
Dun@@ 767
ECHO 767
ICE 767
Inst@@ 767
Vene@@ 767
lun@@ 767
peripher@@ 767
plant@@ 767
ulf 767
Dou@@ 766
En 766
Juan 766
Wales 766
architec@@ 766
veri@@ 766
wan 766
196@@ 765
INTER@@ 765
VER@@ 765
YOU 765
mitted 765
Store 764
attack@@ 764
cam 764
jac@@ 764
sind 764
0.0 763
Run@@ 763
Sz@@ 763
arest 763
sos 763
С 763
Mass@@ 762
Pit@@ 762
composer 762
sim@@ 762
ush@@ 762
EURO@@ 761
az 761
confir@@ 761
ecting 761
lingu@@ 761
ped@@ 761
ynn 761
196 760
Oil 760
bas 760
Watson 759
aments 759
arch 759
has@@ 759
lon 759
manufac@@ 759
municip@@ 759
Mess@@ 758
color@@ 758
couldn 758
d.@@ 758
los@@ 758
zur 758
1975 757
Excel 757
Mercedes 757
Stay 757
1978 756
TB 756
gut 756
oppon@@ 756
unk 756
Gy@@ 755
Ji@@ 755
Nev@@ 755
Whit@@ 755
balances 755
ja@@ 755
ject 755
Barnier 754
bollah 754
casts 754
dit 754
lug@@ 754
tural 754
fa 753
fec@@ 753
strategi@@ 753
Emer@@ 752
Gol@@ 752
Outlook 752
Wine 752
eira 752
emin@@ 752
tastefully 752
1967 751
ITY 751
Sher@@ 751
Valu@@ 751
azi@@ 751
kas@@ 751
mir 751
9th 750
Orchestra 750
femin@@ 750
pp 750
solven@@ 750
stres@@ 750
Course 749
Print 749
Prix 749
Tourist 749
beta 749
liqui@@ 749
35@@ 748
Channel 748
OP@@ 748
Swoboda 748
ishment 748
process@@ 748
1.1 747
Nicol@@ 747
logan 747
schi@@ 747
Att@@ 746
Erika 746
Sus@@ 746
Vor@@ 746
cozy 746
cz@@ 746
deal@@ 746
1950 745
Cash 745
child@@ 745
iles 745
iser 745
jung@@ 745
laun@@ 745
totalit@@ 745
upgraded 745
vivi@@ 745
vy 745
Leonardo 744
confi@@ 744
fixes 744
6,@@ 743
AKVIS 743
Blu@@ 743
Bolkestein 743
Cape 743
Moh@@ 743
Sciences 743
fest@@ 743
geni@@ 743
gress 743
hit@@ 743
pole 743
precau@@ 743
rentals 743
senses 743
tige 743
Viol@@ 742
ardis@@ 742
beth 742
..... 741
basi@@ 741
cco 741
gas@@ 741
ken@@ 741
Commer@@ 740
Panel 740
Pil@@ 740
Reader 740
Ris@@ 740
egg 740
IF 739
surpris@@ 739
Active 738
DF 738
NG@@ 738
bra 738
3000 737
EG 737
Exclu@@ 737
ION 737
Major 737
Mercosur 737
PCs 737
buff@@ 737
kat@@ 737
,00 736
Klaus 736
Name 736
UPS 736
eph@@ 736
memorable 736
umes 736
zen@@ 736
Bali 735
Musi@@ 735
Platform 735
drama 735
hub 735
tox@@ 735
Avenue 734
Der@@ 734
Night 734
Prov@@ 734
Soci@@ 734
Starfleet 734
acu@@ 734
ih@@ 734
mare 734
ul 734
Legisl@@ 733
Tob@@ 733
foc@@ 733
tar 733
Adam 732
Baden 732
Cs 732
Focus 732
eval 732
gene 732
impul@@ 732
Independent 731
dead@@ 731
ommission@@ 731
ston 731
ça 731
Banglades@@ 730
Collec@@ 730
ECO@@ 730
PS@@ 730
asion 730
kt@@ 730
zer@@ 730
Algarve 729
Kim 729
Mid@@ 729
Tor 729
cha@@ 729
oxy@@ 729
prac@@ 729
Maison 728
café 728
dless 728
essi@@ 728
Alpha 727
CC@@ 727
Every@@ 727
Sky@@ 727
Us 727
allo 727
anton 727
atis@@ 727
consi@@ 727
overwhel@@ 727
36@@ 726
Fire 726
Granada 726
appreci@@ 726
excur@@ 726
straße 726
visi@@ 726
BIL@@ 725
Design@@ 725
Laman@@ 725
berry 725
displa@@ 725
ear 725
low@@ 725
simultane@@ 725
Kab@@ 724
Manhattan 724
Victoria 724
aca 724
alog@@ 724
ento 724
esse 724
issu@@ 724
Cham@@ 723
S.A. 723
Tab@@ 723
gy 723
inu@@ 723
professor 723
Typ@@ 722
informative 722
DH@@ 721
Produc@@ 721
posite 721
Consul@@ 720
J. 720
Low 720
MAR@@ 720
Tol@@ 720
exter@@ 720
levard 720
vern@@ 720
DL@@ 719
Deep 719
Integr@@ 719
elf 719
gee 719
preci@@ 719
rics 719
scanner 719
station@@ 719
symboli@@ 719
Partners 718
ción 718
etta 718
ova 718
wap 718
Amb@@ 717
Rav@@ 717
demon@@ 717
ported 717
unter@@ 717
wick@@ 717
Vision 716
bass 716
nex 716
span 716
dirty 715
zip 715
Christ@@ 714
FTP 714
Hear@@ 714
contex@@ 714
literary 714
tter 714
ï@@ 714
000@@ 713
And@@ 713
Australian 713
Deutschland 713
Editor 713
Milit@@ 713
aga 713
ans@@ 713
decor 713
electron@@ 713
Broad@@ 712
MAN@@ 712
agne 712
hero@@ 712
pled 712
tum@@ 712
ér@@ 712
Frank 711
Solar 711
prim@@ 711
Top@@ 710
chy 710
cryp@@ 710
eu 710
i.e 710
oxi@@ 710
Cotonou 709
Lic@@ 709
astronom@@ 709
FO@@ 708
Ten 708
Wolfgang 708
fairer 708
CH 707
Intel@@ 707
twi@@ 707
Agre@@ 706
Oli@@ 706
Points 706
actu@@ 706
ebook 706
flexi@@ 706
hair@@ 706
plause 706
endo 705
iz 705
1976 704
Bluetooth 704
ateur 704
gni@@ 704
ras@@ 704
yle 704
zon 704
Hz 703
enlar@@ 703
mili@@ 703
nik 703
provo@@ 703
recipi@@ 703
Classi@@ 702
Fur@@ 702
Lama 702
Marbella 702
Officer 702
Patent 702
Red@@ 702
TEN@@ 702
Tom 702
ember@@ 702
endums 702
handy 702
ook 702
Johannesburg 701
SM 701
energe@@ 701
lie@@ 701
zzle 701
2.1 700
BE 700
amen@@ 700
mond 700
rt 700
1982 699
Base 699
Ce@@ 699
Fel@@ 699
Km 699
WHO 699
athon 699
efs 699
utive 699
Son 698
theat@@ 698
Americ@@ 697
Associ@@ 697
aker 697
fea@@ 697
genes 697
iners 697
stairs 697
vente 697
Camp 696
Fab@@ 696
sto 696
Ast@@ 695
Bay@@ 695
Disk 695
ML 695
Men 695
Pir@@ 695
Sau@@ 695
bies 695
rays 695
IA@@ 694
Mozilla 694
Oracle 694
Terminal 694
effec@@ 694
ree 694
staff@@ 694
wich 694
Lanka 693
Money 693
Poettering 693
Temple 693
YORK 693
fabri@@ 693
green@@ 693
hits 693
omas 693
prov@@ 693
vie 693
FF@@ 692
amin 692
asse 692
esthouse 692
Norwe@@ 691
Visual 691
bron@@ 691
cz 691
extremis@@ 691
gely 691
Soft 690
TP 690
Trans 690
dose 690
lation 690
stric@@ 690
Frank@@ 689
Head@@ 689
Keep 689
Spy@@ 689
ld 689
mati@@ 689
ross 689
Economy 688
Hav@@ 688
Juli@@ 688
Parking 688
TE@@ 688
nach 688
nen 688
70@@ 687
BL@@ 687
Bremen 687
alla 687
conflic@@ 687
ometer 687
urban@@ 687
Ü@@ 687
Activ@@ 686
BAS@@ 686
Café 686
Franz 686
Six 686
dus 686
gan 686
mysteri@@ 686
undi 686
Boli@@ 685
arrogan@@ 685
shirt 685
Apart@@ 684
Bei@@ 684
Christi@@ 684
Extre@@ 684
Lun@@ 684
adidas 684
advanta@@ 684
olls 684
Brenn@@ 683
Euratom 683
Fine 683
Mun@@ 683
zum 683
Awards 682
Radi@@ 682
Som@@ 682
internation@@ 682
г@@ 682
1983 681
Siena 681
tely 681
Ben 680
Rand@@ 680
Share 680
USE 680
institution@@ 680
miner@@ 680
vide@@ 680
Ent@@ 679
bute 679
graph@@ 679
gun 679
1.3 678
Newsletter 678
Karel 677
Ten@@ 677
ade@@ 677
istan 677
lette 677
sures 677
Natura 676
Sard@@ 676
atar 676
bitter 676
hion 676
meas@@ 676
mix@@ 676
CPU 675
Fiel@@ 675
TER@@ 675
Trading 675
Zu@@ 675
igration 675
timet@@ 675
Histor@@ 674
Vall@@ 674
ats@@ 674
bizar@@ 674
card@@ 674
jack 674
128 673
CR 673
Chicago 673
ING@@ 673
Nat@@ 673
efully 673
ст@@ 673
Castell@@ 672
Cru@@ 672
Knowledge 672
NOR@@ 672
Qui@@ 672
U.@@ 672
chie@@ 672
delines 672
mins 672
Essen 671
Text 671
adi 671
ida 671
nai@@ 671
roman@@ 671
weg 671
142 670
But@@ 670
TA@@ 670
ername 670
té 670
ı@@ 670
1968 669
Marine 669
Napole@@ 669
Palazzo 669
analog 669
slow@@ 669
succe@@ 669
tico 669
wol@@ 669
ń@@ 669
PVC 668
Pf@@ 668
hung@@ 668
ku 668
1930 667
ACE 667
Andr@@ 667
DJ 667
Let@@ 667
Superior 667
capitali@@ 667
ured 667
Gl@@ 666
PR 666
Sat@@ 666
Tau@@ 666
Tony 666
UM 666
asymm@@ 666
chet 666
dden 666
integr@@ 666
pdf 666
unden@@ 666
usa 666
C6 665
coff@@ 665
infra@@ 665
ovi@@ 665
spectac@@ 665
Ash@@ 664
Edit 664
I.@@ 664
Pass 664
Rimini 664
SPA 664
allet 664
fiction 664
fort 664
protec@@ 664
safegu@@ 664
1973 663
Entertainment 663
Pakist@@ 663
agers 663
best@@ 663
â 663
Colom@@ 662
Electronic 662
ache 662
brut@@ 662
istics 662
ition 662
juris@@ 662
Kenn@@ 661
UV 661
Verona 661
acious 661
bedded 661
Auto 660
Performance 660
Stand@@ 660
chestra 660
diagra@@ 660
english 660
lag 660
omo 660
patio 660
pin@@ 660
rts 660
stim@@ 660
90@@ 659
Edi@@ 659
Fischer 659
aes@@ 659
elem@@ 659
ghtful 659
gi 659
mware 659
semi@@ 659
yn 659
13.@@ 658
bell 658
cryst@@ 658
shire 658
tops 658
wald 658
170 657
Canal 657
Lodge 657
Ltd. 657
Monte@@ 657
Om@@ 657
Translation 657
och 657
quanti@@ 657
versal 657
Gardens 656
Ideal 656
Sant@@ 656
Virtual 656
chno@@ 656
wen@@ 656
IRC 655
Mini 655
Posselt 655
SV@@ 655
Visa 655
ather 655
cafes 655
dele@@ 655
dition 655
gru@@ 655
tsch@@ 655
éri@@ 655
Benjamin 654
Carlos 654
HOTEL 654
dice 654
loses 654
ml 654
vei@@ 654
220 653
Bec@@ 653
ament@@ 653
anger@@ 653
fortable 653
gemon@@ 653
get@@ 653
Early 652
Events 652
IE 652
ISA 652
Petersburg 652
Teneri@@ 652
aler 652
avo@@ 652
conv@@ 652
etz@@ 652
iev@@ 652
prote@@ 652
unbe@@ 652
ORE 651
Somalia 651
Yo@@ 651
quer@@ 651
1.4 650
Bos@@ 650
Cont@@ 650
Doctor 650
Facebook 650
Ran@@ 650
adequ@@ 650
cha 650
mono@@ 650
orities 650
taxpa@@ 650
125 649
Chr@@ 649
Photo@@ 649
Roth@@ 649
cca 649
dio 649
oter 649
PXI 648
Stre@@ 648
Tak@@ 648
afford@@ 648
disch@@ 648
guy 648
pos 648
Camping 647
Emperor 647
Event 647
Gil@@ 647
Mei@@ 647
Sty@@ 647
Angeles 646
BE@@ 646
Buil@@ 646
Castro 646
FL@@ 646
MI@@ 646
PP 646
thumb 646
urities 646
wi 646
DVDs 645
Made 645
Roth 645
TU@@ 645
balls 645
hausen 645
ionship 645
oom 645
parall@@ 645
yar@@ 645
Kle@@ 644
Mayor 644
Stan@@ 644
abri@@ 644
Desktop 643
Sharon 643
UT 643
enty 643
Canaria 642
Dubai 642
Identi@@ 642
MEDA 642
Unit 642
Volkswagen 642
bureau@@ 642
favou@@ 642
ources 642
sert 642
yen 642
VI@@ 641
tention 641
1981 640
2.4 640
7,@@ 640
ef 640
fortunately 640
olen 640
pir@@ 640
wir@@ 640
Alp@@ 639
Henry 639
Lum@@ 639
aka 639
circu@@ 639
kking 639
а 639
CP@@ 638
Ethernet 638
arance 638
open@@ 638
subsidi@@ 638
unicip@@ 638
î@@ 638
Buch@@ 637
Conver@@ 637
Estate 637
Impro@@ 637
Living 637
Messenger 637
Shuttle 637
Sto@@ 637
abetes 637
ark 637
perio@@ 637
rech@@ 637
wid@@ 637
Converter 636
PCI 636
Plas@@ 636
Total 636
iga 636
inson 636
tom 636
Airways 635
Dev@@ 635
Guantánamo 635
Model 635
foli@@ 635
ttes 635
Cul@@ 634
atile 634
convers@@ 634
shoul@@ 634
tale 634
Spi@@ 633
Vac@@ 633
bury 633
det 633
esco 633
offen@@ 633
tivirus 633
CAN 632
Color 632
FP@@ 632
Strategi@@ 632
easi@@ 632
ebo@@ 632
milli@@ 632
negli@@ 632
uzzi 632
ASA 631
Mann 631
Mou@@ 631
NA 631
iel 631
lady 631
Creative 630
Kh@@ 630
STE@@ 630
Walter 630
dows 630
ener 630
illed 630
lem@@ 630
stadium 630
à@@ 630
ATE 629
Kie@@ 629
brie@@ 629
kam@@ 629
07@@ 628
Indone@@ 628
Kan@@ 628
NT 628
RT@@ 628
dun@@ 628
earning 628
leg 628
mont 628
oric 628
populi@@ 628
Que@@ 627
Telec@@ 627
Turk@@ 627
lugins 627
Buy 626
Eur@@ 626
HTTP 626
Integration 626
Lady 626
Link 626
dine 626
fant@@ 626
ologi@@ 626
Formul@@ 625
Junior 625
MIDI 625
Malaga 625
Map 625
Mario 625
Medina 625
PN@@ 625
aman@@ 625
dial@@ 625
ingo 625
lemma 625
oman 625
1974 624
Innsbruck 624
Pay@@ 624
ju 624
ovo 624
volunt@@ 624
Gibraltar 623
TER 623
Terra@@ 623
Tool@@ 623
flag@@ 623
furnis@@ 623
gressive 623
pse 623
HI 622
Human@@ 622
Wir@@ 622
consci@@ 622
eins 622
myst@@ 622
opou@@ 622
will@@ 622
Swe@@ 621
UEN 621
itz 621
Azur 620
BSD 620
Beautiful 620
Twitter 620
WiFi 620
doc@@ 620
exe 620
gens 620
ilit@@ 620
Bangkok 619
Brown 619
COM@@ 619
Expl@@ 619
aspi@@ 619
liance 619
opport@@ 619
unge@@ 619
2050 618
Comfort 618
Continental 618
Phar@@ 618
Vig@@ 618
Was 618
bun@@ 618
essen 618
hne 618
ström 618
utting 618
Loc@@ 617
SK@@ 617
Secure 617
Stor@@ 617
betra@@ 617
dell 617
indu@@ 617
phra@@ 617
racle 617
Bran@@ 616
Hat 616
Imple@@ 616
Lot@@ 616
OM 616
ila 616
kni@@ 616
Bahn 615
CN@@ 615
Cannes 615
Chirac 615
Grande 615
Manchester 615
Pom@@ 615
Princ@@ 615
Register 615
Ré@@ 615
SR 615
Zone 615
imple@@ 615
plen@@ 615
zione 615
1977 614
Files 614
Scho@@ 614
Split 614
jar@@ 614
neuro@@ 614
tana 614
25.@@ 613
Blizzard 613
angel@@ 613
boot@@ 613
memor@@ 613
otive 613
FT 612
Franco 612
Mechan@@ 612
Mozart 612
Müller 612
Silver 612
cine 612
congratul@@ 612
fres@@ 612
memb@@ 612
sortium 612
ug@@ 612
14.@@ 611
Arafat 611
Arc@@ 611
chill 611
rail@@ 611
Crus@@ 610
Essen@@ 610
LabVIEW 610
Mic@@ 610
Optim@@ 610
Portal 610
oph@@ 610
Eurocopter 609
Lithu@@ 609
SLR 609
Yu@@ 609
follo@@ 609
tenden@@ 609
Cards 608
DM@@ 608
Nepal 608
Port@@ 608
VO@@ 608
Zap@@ 608
ball@@ 608
hr 608
recomm@@ 608
sanit@@ 608
ün@@ 608
ART 607
Rub@@ 607
Seattle 607
drum 607
horn 607
ANY 606
County 606
Gaz@@ 606
PA@@ 606
Texas 606
Vin@@ 606
aden 606
bei@@ 606
introduc@@ 606
1500 605
DE@@ 605
Friedrich 605
IND 605
Oxford 605
Sofia 605
YO@@ 605
ardo 605
bums 605
butions 605
estim@@ 605
mentary 605
tags 605
Care 604
Ep@@ 604
Fitness 604
Rab@@ 604
anten@@ 604
emit@@ 604
insula 604
moun@@ 604
plat@@ 604
Albert 603
Angola 603
DO 603
FF 603
Seven 603
Smart 603
Stephen 603
etto 603
ptions 603
Alger@@ 602
Blog 602
RA 602
SCH@@ 602
izz@@ 602
wie 602
Rü@@ 601
SEO 601
arran@@ 601
Memory 600
Spec@@ 600
bn 600
choo@@ 600
eler@@ 600
hardt 600
pedia 600
situ@@ 600
extern@@ 599
unic@@ 599
Books 598
Dynam@@ 598
Guatemala 598
Wit@@ 598
egu@@ 598
lov 598
lv@@ 598
ograph@@ 598
throu@@ 598
Corbett 597
John@@ 597
ben 597
cía 597
eters 597
fried 597
lander 597
pover@@ 597
signi@@ 597
vul@@ 597
Inc. 596
Thessaloniki 596
attle 596
bad@@ 596
install@@ 596
wed@@ 596
750 595
Aut@@ 595
Communications 595
Malm@@ 595
Stefan 595
antes 595
region@@ 595
wag@@ 595
Bene@@ 594
Chal@@ 594
Inform@@ 594
Unix 594
agu@@ 594
som 594
Berg@@ 593
GI 593
HE@@ 593
Imperial 593
Leban@@ 593
Package 593
demonstr@@ 593
Erasmus 592
Hollywood 592
dio@@ 592
experim@@ 592
rat 592
tas 592
о 592
.NET 591
Bologna 591
Cot@@ 591
Florida 591
Pension 591
enny 591
Alm@@ 590
Assad 590
Cardiff 590
alis@@ 590
ange 590
anony@@ 590
dal@@ 590
dent@@ 590
flation 590
ppe 590
Cancún 589
Form 589
Jam@@ 589
Messe 589
Sign@@ 589
efore 589
tano 589
uss 589
Goo@@ 588
Lud@@ 588
RE 588
Sebas@@ 588
TU 588
model@@ 588
satelli@@ 588
är@@ 588
Ala@@ 587
BAE 587
Dell 587
Eng@@ 587
Heb@@ 587
aki 587
traffi@@ 587
Fru@@ 586
Pent@@ 586
Transpar@@ 586
gt 586
ungalows 586
Argent@@ 585
SilverFast 585
MIN@@ 584
Nar@@ 584
Steinberg 584
Termin@@ 584
erte 584
ony@@ 584
remain@@ 584
Happ@@ 583
INI 583
Theater 583
Zak@@ 583
cerem@@ 583
lich 583
Donald 582
Neg@@ 582
WIT@@ 582
candi@@ 582
trop@@ 582
yan 582
über 582
Commons 581
Div@@ 581
Hôtel 581
Marx 581
Metro@@ 581
asso 581
orn 581
thre@@ 581
Afri@@ 580
Establi@@ 580
Eurojust 580
Gas@@ 580
Holding 580
Instrument 580
Kri@@ 580
OL 580
Pel@@ 580
Punta 580
Shopping 580
Wiki@@ 580
XI 580
burger 580
enz 580
noti@@ 580
rout@@ 580
seu@@ 580
ula 580
MP 579
Way 579
arbit@@ 579
harm@@ 579
junction 579
uba 579
ë@@ 579
Clin@@ 578
Statisti@@ 578
dis 578
gram@@ 578
inion 578
vulner@@ 578
10.00 577
IMO 577
Quad@@ 577
aro 577
presiden@@ 577
tem 577
wski 577
~ 577
Annan 576
Deluxe 576
Links 576
Prestige 576
Provider 576
Sey@@ 576
Symp@@ 576
thin@@ 576
Fr@@ 575
Hot 575
Mann@@ 575
Montreal 575
Reding 575
benefici@@ 575
competi@@ 575
side@@ 575
Original 574
ThyssenKrupp 574
Transfer 574
Woo@@ 574
abul@@ 574
eno 574
ities 574
ò 574
Info 573
Magazine 573
Multi 573
PG 573
Quali@@ 573
Uganda 573
apar@@ 573
oma 573
small@@ 573
08@@ 572
Ann@@ 572
Innov@@ 572
Sing@@ 572
WAR@@ 572
civi@@ 572
eg 572
tron@@ 572
р@@ 572
CI@@ 571
Lomé 571
Photoshop 571
gli 571
Cau@@ 570
Crist@@ 570
Equipment 570
Gast@@ 570
Hospital 570
Jarzembowski 570
Marie 570
PK@@ 570
tainer 570
wis 570
É@@ 570
Lab 569
Origin@@ 569
gible 569
ille 569
ott 569
renew@@ 569
uan 569
Dest@@ 568
Iber@@ 568
Sli@@ 568
anta 568
etti 568
ferences 568
iry 568
nich@@ 568
tari@@ 568
22@@ 567
Bonus 567
Consu@@ 567
Engine 567
Mini@@ 567
TW@@ 567
Wallström 567
cript 567
draw@@ 567
even@@ 567
inas 567
injec@@ 567
tras 567
Aar@@ 566
Fro@@ 566
Gott 566
Residen@@ 566
lou 566
oul 566
1.0 565
Ny@@ 565
RF@@ 565
Real@@ 565
Rica 565
Vul@@ 565
embles 565
linder 565
pol 565
zn@@ 565
Alpes 564
Ds 564
EOS 564
Electron@@ 564
Harv@@ 564
Porsche 564
Wür@@ 564
amendo 564
aser 564
emis@@ 564
hetero@@ 564
isse 564
rom@@ 564
scrut@@ 564
Bern 563
NT@@ 563
Physi@@ 563
YouTube 563
chs 563
timent 563
xis 563
Arm@@ 562
Clean 562
Fort@@ 562
Liechtenstein 562
Sep@@ 562
Standards 562
belon@@ 562
cock 562
ignano 562
lio 562
neum@@ 562
sag@@ 562
tta 562
uk 562
Bit@@ 561
Fis@@ 561
Kas@@ 561
Mira@@ 561
Ramblas 561
certi@@ 561
eux 561
sses 561
16.@@ 560
Alzheimer 560
Hil@@ 560
Mission 560
geograph@@ 560
occa@@ 560
AF 559
Chianti 559
POR@@ 559
Pots@@ 559
edt 559
troll@@ 559
Cruz 558
D.@@ 558
Dalai 558
Infineon 558
Piet@@ 558
Wind@@ 558
Zürich 558
embership 558
CAN@@ 557
Manuel 557
Niel@@ 557
TRA@@ 557
dor 557
ğ@@ 557
Cadiz 556
Dalmati@@ 556
Industri@@ 556
Pati@@ 556
eme 556
onymous 556
qui 556
City@@ 555
Core 555
Dy@@ 555
Ski@@ 555
derly 555
etings 555
Chur@@ 554
Dau@@ 554
LL@@ 554
Traff@@ 554
ason 554
eng 554
guil@@ 554
terra@@ 554
uta 554
Cost@@ 553
SN@@ 553
bir@@ 553
es.@@ 553
evision 553
popul@@ 553
transform@@ 553
Governance 552
Sydney 552
cons 552
eh 552
eps 552
mn@@ 552
rele@@ 552
vine@@ 552
zin@@ 552
Ach@@ 551
Ferr@@ 551
GAT@@ 551
Hur@@ 551
ao@@ 551
chise 551
sives 551
vic 551
б@@ 551
Brand 550
Erdo@@ 550
Harry 550
ague 550
noisy 550
й 550
2.3 549
Dum@@ 549
Iz@@ 549
Sv@@ 549
agna 549
ckey 549
estro 549
nels 549
ventura 549
Cameron 548
Delta 548
Heidelberg 548
PHARE 548
VII 548
entran@@ 548
t.@@ 548
taine 548
wr@@ 548
Europe@@ 547
Martini 547
Quick@@ 547
reach@@ 547
101 546
ASE 546
Liikanen 546
Monaco 546
Myanmar 546
Pay 546
call@@ 546
Cresp@@ 545
LIFE 545
LR 545
Universi@@ 545
requi@@ 545
105 544
Chris 544
Coff@@ 544
ONE 544
Oliver 544
PO 544
Pad@@ 544
WW@@ 544
birth@@ 544
bited 544
etary 544
jan@@ 544
m. 544
myth@@ 544
rist@@ 544
я 544
Ankara 543
Atlan@@ 543
BB@@ 543
Gom@@ 543
NO 543
Regar@@ 543
TACIS 543
akis 543
conf 543
monum@@ 543
quer 543
Bendit 542
CV@@ 542
Cohn 542
ELDR 542
FS@@ 542
Hannover 542
LIN@@ 542
Mec@@ 542
Mé@@ 542
Tai@@ 542
distinc@@ 542
fia 542
legi@@ 542
retary 542
Me 541
QuarkXPress 541
RC 541
como 541
reve@@ 541
salon 541
Jazz 540
att 540
ett 540
ketball 540
onna 540
thur 540
8,@@ 539
Exp@@ 539
Hi 539
Ner@@ 539
OS@@ 539
Palm 539
Stop 539
Thir@@ 539
agra@@ 539
chil@@ 539
lib@@ 539
lins 539
α@@ 539
Colum@@ 538
Stalin 538
ere@@ 538
gmati@@ 538
æ@@ 538
Brit@@ 537
HC 537
agan 537
ces@@ 537
hus@@ 537
ismo 537
Aus@@ 536
ahn 536
chens 536
rad@@ 536
ра@@ 536
Band 535
Radisson 535
nez 535
nos 535
tempor@@ 535
Ali 534
DEN@@ 534
Fam@@ 534
Franç@@ 534
KO@@ 534
Lamy 534
Lap@@ 534
Lee 534
Oomen 534
Rotterdam 534
bekistan 534
dec 534
sab@@ 534
Á@@ 534
Beau@@ 533
Bud@@ 533
Catalunya 533
Commander 533
HER@@ 533
Vent@@ 533
aba 533
cide 533
declar@@ 533
ende 533
oro 533
untu 533
Ecu@@ 532
LON@@ 532
Nag@@ 532
eder 532
sligh@@ 532
Ec@@ 531
Mercure 531
Sei@@ 531
Soli@@ 531
Terror@@ 531
endt 531
hesit@@ 531
Dé@@ 530
Hein@@ 530
Hung@@ 530
Imp@@ 530
Index 530
Program@@ 530
Tuni@@ 530
alto 530
ffel 530
ч@@ 530
ECT 529
Giovanni 529
Jen@@ 529
Script 529
aller@@ 529
awar@@ 529
fortunate 529
preme 529
utt@@ 529
ERP 528
Pho@@ 528
Tennis 528
Ze@@ 528
hem@@ 528
kel@@ 528
promin@@ 528
skep@@ 528
115 527
15.@@ 527
Angel@@ 527
Banking 527
Dark 527
Orange 527
Vitorino 527
añ@@ 527
org@@ 527
remark@@ 527
sep@@ 527
AA 526
ANT@@ 526
GNOME 526
Leone 526
MB@@ 526
Nichol@@ 526
Satelli@@ 526
Scott 526
Them@@ 526
accord@@ 526
opho@@ 526
vies 526
zza 526
01.@@ 525
1969 525
Ander@@ 525
CSS 525
ambots 525
aw 525
jana 525
ommis@@ 525
thodo@@ 525
å 525
Domin@@ 524
Ferrero 524
Ot@@ 524
Sili@@ 524
TNG 524
Tunes 524
fascin@@ 524
ius 524
reserv@@ 524
tainment 524
til 524
Clu@@ 523
E.ON 523
Mail@@ 523
Ple@@ 523
Ruijten 523
SOL@@ 523
shar@@ 523
1972 522
CMS 522
Glob@@ 522
RI@@ 522
cracy 522
erc@@ 522
fur 522
wle@@ 522
ş@@ 522
Cardassi@@ 521
Re 521
bare 521
enna 521
essimis@@ 521
ficial 521
sau 521
AB 520
CAM@@ 520
Cash@@ 520
LI@@ 520
Lon@@ 520
Share@@ 520
Veri@@ 520
chn@@ 520
docum@@ 520
elo@@ 520
glia 520
hof@@ 520
restruc@@ 520
vas 520
wird 520
Graphi@@ 519
allen 519
lash 519
orrow 519
A6 518
Astrium 518
DON 518
ICA 518
Intelli@@ 518
Mode 518
Voyager 518
damp@@ 518
senal 518
tees 518
τ@@ 518
Europ@@ 517
Klingon 517
Pum@@ 517
UP 517
Vegas 517
beau@@ 517
sig@@ 517
Details 516
Istri@@ 516
Sach@@ 516
Tag@@ 516
Turin 516
igno@@ 516
-B4 515
ARC 515
Hilton 515
Lav@@ 515
Tanz@@ 515
VA 515
cling 515
mos 515
opath@@ 515
wled@@ 515
ę@@ 515
BG 514
Lig@@ 514
Lyon 514
Metal 514
T. 514
billi@@ 514
dictator@@ 514
multilater@@ 514
tat 514
tu 514
Langu@@ 513
MPEG 513
liers 513
lung 513
unia 513
CI 512
LIN 512
Motion 512
agua 512
ographi@@ 512
ssi 512
001 511
Clear@@ 511
Moder@@ 511
PayPal 511
Stream 511
mation 511
niture 511
stur@@ 511
thouse 511
Benz 510
DB 510
Eth@@ 510
Simil@@ 510
WordPress 510
Alex@@ 509
Davi@@ 509
L. 509
Moz@@ 509
Torre 509
WE 509
Wes@@ 509
XX@@ 509
cc 509
cohe@@ 509
ergonom@@ 509
erie 509
38@@ 508
Administ@@ 508
Final 508
Peru@@ 508
raft 508
rigi@@ 508
tner 508
uro 508
1971 507
A1 507
Fair@@ 507
kal@@ 507
tol@@ 507
Fan@@ 506
Jet 506
Jung@@ 506
Lom@@ 506
Wolf 506
behavi@@ 506
elt 506
wher@@ 506
Alicante 505
Coll@@ 505
Rep@@ 505
Uru@@ 505
Zagreb 505
hosp@@ 505
que@@ 505
rag@@ 505
xide 505
Picard 504
akan 504
expendi@@ 504
lass 504
AVI 503
CRM 503
Rose 503
Twin 503
Vati@@ 503
aco 503
fem@@ 503
stra 503
Di 502
SERV@@ 502
dau@@ 502
eiro 502
ii 502
rea 502
sili@@ 502
stron@@ 502
Copy@@ 501
E.@@ 501
Jak@@ 501
aine 501
pon@@ 501
till@@ 501
Milano 500
Peri@@ 500
gery 500
massi@@ 500
ow 500
param@@ 500
tels 500
tima 500
5000 499
Angela 499
Claude 499
Flexi@@ 499
Gh@@ 499
IVE 499
Polo 499
erly 499
geb@@ 499
ongside 499
residen@@ 499
ses@@ 499
thresh@@ 499
öl@@ 499
Everest 498
Lufthansa 498
Miles 498
NH 498
Prote@@ 498
Pun@@ 498
Simon 498
imper@@ 498
pause 498
zh@@ 498
103 497
45@@ 497
Amon@@ 497
Barro@@ 497
Infra@@ 497
Mün@@ 497
beck 497
gst 497
mmer 497
Expo 496
G. 496
Gene@@ 496
alien 496
durch 496
garten 496
vio 496
voir 496
Aero@@ 495
Blin@@ 495
Carl@@ 495
LT@@ 495
Master@@ 495
SIM@@ 495
Willi@@ 495
Wri@@ 495
aber 495
kilomet@@ 495
liv@@ 495
susta@@ 495
DEM 494
Ech@@ 494
Famili@@ 494
IFT 494
Nord@@ 494
jub@@ 494
tude 494
135 493
Acrobat 493
CNC 493
Pisa 493
dispos@@ 493
gram 493
sburg 493
unication 493
Represent@@ 492
17.@@ 491
Are@@ 491
Jack 491
Posi@@ 491
Schi@@ 491
Tut@@ 491
Walking 491
fore 491
mist@@ 491
pedition 491
Ferrari 490
Fres@@ 490
Mist@@ 490
Module 490
Málaga 490
Shops 490
coast@@ 490
develop@@ 490
gir@@ 490
sympath@@ 490
Day@@ 489
Farm 489
Fou@@ 489
Gonzá@@ 489
Isa@@ 489
Marra@@ 489
PI 489
Yah@@ 489
agn@@ 489
bag@@ 489
enzo 489
partment 489
spr@@ 489
stav@@ 489
ś@@ 489
Friedrich@@ 488
Jav@@ 488
NE 488
Seri@@ 488
Abra@@ 487
GO@@ 487
Mare 487
WA 487
sehr 487
thos 487
visory 487
MAN 486
Poker@@ 486
Tun@@ 486
app 486
arks 486
lash@@ 486
noch 486
wo 486
ype 486
³ 486
ów 486
EFA 485
Route 485
izza 485
oi 485
vin 485
32@@ 484
Asi@@ 484
dali@@ 484
mina 484
prerequi@@ 484
Cox 483
Evans 483
Mr@@ 483
Rh@@ 483
Salvador 483
Terme 483
bian@@ 483
einem 483
leyball 483
sender 483
Alexand@@ 482
ESA 482
Hist@@ 482
Operation 482
Teh@@ 482
Am 481
B4 481
FIFA 481
ascript 481
help@@ 481
serie 481
ро@@ 481
24.@@ 480
Fuji@@ 480
HA@@ 480
Images 480
abili@@ 480
gun@@ 480
kus@@ 480
12.00 479
Berg 479
Com 479
Linz 479
São 479
conveni@@ 479
esk@@ 479
onom@@ 479
prou@@ 479
9.00 478
Budd@@ 478
C.@@ 478
Liby@@ 478
Raf@@ 478
Tours 478
forec@@ 478
Champs 477
Email 477
Sci@@ 477
Zar@@ 477
amente 477
e. 477
lige 477
ligent 477
wir 477
Art@@ 476
Clau@@ 476
Dal@@ 476
Ev@@ 476
ITE 476
computer@@ 476
import@@ 476
isch@@ 476
lli@@ 476
MAS 475
Nig@@ 475
Schu@@ 475
health@@ 475
illon 475
neighbour@@ 475
1965 474
Dubrovnik 474
ERS 474
Mauri@@ 474
Work@@ 474
fort@@ 474
gem 474
inings 474
loyd 474
ould 474
proxim@@ 474
vom 474
E. 473
R. 473
Release 473
aan 473
genous 473
175 472
Bristol 472
Challenge 472
Ray 472
Stein@@ 472
TEC 472
curr@@ 472
ermo 472
Atom@@ 471
Delegation 471
Leon@@ 471
PN 471
Satur@@ 471
TCP 471
Wall@@ 471
chio 471
excell@@ 471
kW 471
mei@@ 471
scap@@ 471
120@@ 470
Carmen 470
Elba 470
erner 470
nific@@ 470
ο@@ 470
19.@@ 469
1957 469
Conil 469
langes 469
pus@@ 469
raid 469
Engine@@ 468
Glas@@ 468
Italia 468
Lite 468
ons@@ 468
Deci@@ 467
Depression 467
asis 467
bahn 467
itar@@ 467
sidi@@ 467
190 466
XL@@ 466
gger 466
occ@@ 466
transpar@@ 466
Carl 465
Pé@@ 465
SR@@ 465
bau@@ 465
dow@@ 465
eras 465
republi@@ 465
ь@@ 465
ALL@@ 464
Fast 464
Records 464
af 464
inian 464
nect 464
reser@@ 464
teach@@ 464
Columbia 463
Gates 463
Span@@ 463
public@@ 463
240 462
800@@ 462
9,@@ 462
Doc@@ 462
Mill@@ 462
Ring 462
Swiss@@ 462
aciones 462
bru@@ 462
discus@@ 462
parag@@ 462
rigor@@ 462
uxe 462
veau 462
Rober@@ 461
Schmidt 461
ademi@@ 461
dend 461
fin 461
gem@@ 461
poli 461
rescu@@ 461
seg@@ 461
sko 461
Export 460
Kil@@ 460
chner 460
delle 460
otechn@@ 460
rin 460
scar 460
trin@@ 460
Aff@@ 459
Ernst 459
Esc@@ 459
IK 459
Scre@@ 459
Slo@@ 459
kn@@ 459
lick 459
og 459
spit@@ 459
CF 458
Dimension 458
Mik@@ 458
Sw@@ 458
Winter@@ 458
arbitr@@ 458
jen@@ 458
mg 458
ont@@ 458
scher 458
teleph@@ 458
urg@@ 458
...... 457
Ath@@ 457
Ces@@ 457
Mars 457
flex@@ 457
grades 457
lack@@ 457
rot 457
satisfac@@ 457
uli 457
18.@@ 456
DB@@ 456
Holocaust 456
Valle 456
Weber 456
eri 456
jn 456
replac@@ 456
servation 456
thias 456
vices 456
HT 455
Miguel 455
Rosa 455
alpha@@ 455
ativity 455
cil 455
lux@@ 455
más 455
pharmac@@ 455
recre@@ 455
sched@@ 455
thropo@@ 455
1956 454
F. 454
IDE 454
Koh@@ 454
MHz 454
amentos 454
MAS@@ 453
dass 453
ecks 453
riva 453
Flor@@ 452
Marc 452
Schrö@@ 452
Stars 452
Wilhelm 452
acher 452
bat 452
ا@@ 452
112 451
650 451
Milli@@ 451
Mitch@@ 451
Mont 451
ggen@@ 451
rench 451
y.@@ 451
BI 450
Kn@@ 450
NA@@ 450
Schum@@ 450
Territ@@ 450
Ve@@ 450
gos 450
meaning@@ 450
nd 450
nic 450
pis@@ 450
porary 450
ritz 450
stuffs 450
suffici@@ 450
Fli@@ 449
Interface 449
Lyn@@ 449
aller 449
cho 449
dere 449
die@@ 449
produc@@ 449
pursu@@ 449
108 448
Materials 448
incre@@ 448
sol 448
stir@@ 448
wes@@ 448
Christop@@ 447
OP 447
P. 447
Senior 447
Spor@@ 447
Status 447
Wu@@ 447
adar 447
bara 447
derer 447
egal 447
lik@@ 447
lock@@ 447
ww@@ 447
Agent 446
Geb@@ 446
Spre@@ 446
Style 446
Wen@@ 446
diox@@ 446
mente 446
plann@@ 446
rank@@ 446
zel@@ 446
Å@@ 446
1948 445
48@@ 445
Frequ@@ 445
Geo@@ 445
Johann 445
Scri@@ 445
Team@@ 445
chez 445
ciano 445
ко@@ 445
1200 444
BBC 444
M.@@ 444
Megapi@@ 444
Roo@@ 444
altar 444
decla@@ 444
fred 444
thal@@ 444
1900 443
Carlo 443
Fox 443
Generation 443
Harmon@@ 443
Palais 443
VIII 443
dela@@ 443
ining@@ 443
stun@@ 443
teau 443
NET 442
Stadium 442
esp@@ 442
potenti@@ 442
urred 442
Affiliate 441
Graz 441
SO 441
Sla@@ 441
Tickets 441
a.com 441
flan@@ 441
inspi@@ 441
tability 441
tissu@@ 441
.jpg 440
Andrea 440
Carol@@ 440
DS9 440
Pad 440
Studios 440
ien@@ 440
ás 440
Bun@@ 439
Cookies 439
FIN@@ 439
Mai@@ 439
Morgan 439
Peti@@ 439
Planet 439
Platz 439
Ras@@ 439
bum@@ 439
cides 439
enne 439
rei@@ 439
rlpool 439
Andrew 438
Fuer@@ 438
München 438
Rit@@ 438
alp@@ 438
amm 438
plau@@ 438
Enter@@ 437
Fei@@ 437
Gab@@ 437
herein 437
jer 437
mut 437
1944 436
Aparthotel 436
Fit@@ 436
bure@@ 436
1920 435
Eden 435
Ja@@ 435
Rate 435
Schre@@ 435
Viet@@ 435
exo@@ 435
garde 435
ldwide 435
o.@@ 435
pertoire 435
Automati@@ 434
B. 434
Glo@@ 434
K. 434
Markus 434
Phone 434
Renault 434
erk@@ 434
quad@@ 434
111 433
Boutique 433
Lec@@ 433
Metho@@ 433
Mike 433
Valent@@ 433
Yam@@ 433
aga@@ 433
avoi@@ 433
config@@ 433
haben 433
iss 433
tern 433
21.@@ 432
H. 432
Kla@@ 432
asa 432
borg 432
campa@@ 432
sche 432
stitution 432
Alan 431
Install@@ 431
Seg@@ 431
Stabili@@ 431
dd 431
pragmati@@ 431
č 431
ε@@ 431
....@@ 430
Energi@@ 430
GS 430
Hotel@@ 430
SAT 430
arding 430
enk@@ 430
gang 430
gesellschaft 430
palette 430
rand@@ 430
tex 430
uno 430
1930@@ 429
Dro@@ 429
Patrick 429
gl 429
pi 429
revolution@@ 429
Anne 428
Lamp@@ 428
Resul@@ 428
anto 428
e- 428
entes 428
esi@@ 428
.- 427
Alt@@ 427
Bike 427
Cambridge 427
Gru@@ 427
Hit@@ 427
Safe 427
WS 427
enix 427
sti 427
Eis@@ 426
Gall@@ 426
Gord@@ 426
Loo@@ 426
MR@@ 426
Motor 426
dea@@ 426
pha 426
text@@ 426
Caf@@ 425
FIN 425
Fut@@ 425
List@@ 425
Nami@@ 425
adise 425
awa 425
Bron@@ 424
Fili@@ 424
IER 424
Jones 424
NCC 424
ady 424
fs@@ 424
jor@@ 424
Campo 423
Host@@ 423
Kap@@ 423
Rich@@ 423
nament 423
nur 423
Andre@@ 422
Arn@@ 422
DNS 422
EURO 422
Souven@@ 422
Vict@@ 422
WE@@ 422
atico 422
lus 422
reds 422
thy@@ 422
ан@@ 422
Bach@@ 421
Jor@@ 421
KE@@ 421
Minist@@ 421
Muse@@ 421
Os 421
Ou@@ 421
Thal@@ 421
displac@@ 421
liner 421
ource 421
в 421
Dup@@ 420
Geor@@ 420
Park@@ 420
Wag@@ 420
ral@@ 420
vious 420
én 420
1939 419
Aven@@ 419
Liter@@ 419
Smart@@ 419
hn 419
isch 419
otto 419
trol@@ 419
GIMP 418
Koso@@ 418
Mam@@ 418
Well@@ 418
mentally 418
mt 418
ort@@ 418
DER 417
Nam@@ 417
gigan@@ 417
iter 417
rom 417
unting 417
ò@@ 417
ы@@ 417
Bes@@ 416
Elisa@@ 416
environ@@ 416
hotel@@ 416
Centro 415
Down@@ 415
I. 415
LAF 415
jet@@ 415
rite 415
siv@@ 415
Adap@@ 414
Holi@@ 414
Malware 414
NAT@@ 414
Nau@@ 414
api@@ 414
telecomm@@ 414
ECH@@ 413
EI@@ 413
Greg@@ 413
Karls@@ 413
Steve 413
für@@ 413
listen@@ 413
promot@@ 413
Labor@@ 412
alis 412
culp@@ 412
esto 412
rä@@ 412
Jür@@ 411
Pod@@ 411
ead 411
electri@@ 411
230 410
Facili@@ 410
GMO 410
Isch@@ 410
Josef 410
enger 410
ische 410
lood 410
ny@@ 410
pects 410
1966 409
20.@@ 409
Rin@@ 409
adul@@ 409
e.V 409
indisp@@ 409
lease 409
ystem 409
ι@@ 409
1. 408
Frau@@ 408
Mut@@ 408
bec 408
muy 408
rau@@ 408
taste@@ 408
Fried@@ 407
Haar@@ 407
Jesolo 407
Stock@@ 407
Sym@@ 407
academ@@ 407
rab@@ 407
refle@@ 407
Chro@@ 406
Daim@@ 406
EK@@ 406
Gur@@ 406
Lange 406
Ves@@ 406
adal@@ 406
gab@@ 406
mans 406
wurde 406
Adam@@ 405
Gem@@ 405
Jack@@ 405
NG 405
Sauna 405
ciples 405
eBay 405
eau 405
euro@@ 405
я@@ 405
102 404
Kron@@ 404
beha@@ 404
gest 404
manip@@ 404
ß 404
Gross@@ 403
Hof 403
Massage 403
zona 403
Has@@ 402
Les@@ 402
Otto 402
Rosen@@ 402
ourc@@ 402
pharmaceu@@ 402
schedul@@ 402
tik 402
Fass@@ 401
Gabri@@ 401
adel@@ 400
compos@@ 400
corpor@@ 400
flus@@ 400
lator 400
ves@@ 400
1962 399
Thy@@ 399
Wild@@ 399
beach@@ 399
enchan@@ 399
lements 399
satlan@@ 399
Georg 398
Sn@@ 398
VIS 398
kammer@@ 398
reci@@ 398
titu@@ 398
1961 397
Anth@@ 397
Haus 397
Nas@@ 397
elimin@@ 397
eo@@ 397
tik@@ 397
Chat 396
Disney 396
Lac@@ 396
Max@@ 396
Pes@@ 396
ester@@ 396
itly 396
some@@ 396
zar@@ 396
Andro@@ 395
GE@@ 395
Kom@@ 395
Shin@@ 395
Ž@@ 395
Boston 394
Display 394
fter 394
king@@ 394
phy@@ 394
prep@@ 394
Designer 393
Extra 393
Iraq@@ 393
ima 393
Audi@@ 392
Info@@ 392
Jes@@ 392
Psych@@ 392
Transpor@@ 392
Zend 392
aires 392
fall@@ 392
peror 392
tradi@@ 392
German@@ 391
athan 391
crete 391
soldi@@ 391
test@@ 391
tà 391
Bin@@ 390
Gö@@ 390
Kro@@ 390
Rat@@ 390
Romul@@ 390
eso 390
eto@@ 390
ove 390
proportion@@ 390
1963 389
bution 389
ece 389
nut@@ 389
pac@@ 389
pictu@@ 389
tat@@ 389
tini 389
Sites 388
kann 388
nei@@ 388
orthodo@@ 388
uit@@ 388
utch 388
Asset 387
Beta 387
arta 387
atin 387
gal 387
sition 387
tiger 387
4000 386
Gad@@ 386
Sat 386
cion@@ 386
enst@@ 386
pler 386
Bad@@ 385
Borg 385
Bow@@ 385
Florenz 385
HR@@ 385
Pep@@ 385
fu 385
itably 385
kun@@ 385
landscap@@ 385
lowing 385
neu@@ 385
sians 385
unge 385
º 385
23.@@ 384
isen@@ 384
lam 384
olf 384
sman 384
teries 384
wet@@ 384
1958 383
GL@@ 383
Maxim@@ 383
Rock@@ 383
dak 383
en.@@ 383
fail@@ 383
gast@@ 383
luxuri@@ 383
tainers 383
Brow@@ 382
Clients 382
Equi@@ 382
azione 382
mitt@@ 382
sed@@ 382
sse 382
tha 382
Kun@@ 381
Nikol@@ 381
SOFT@@ 381
versity 381
AU 380
Veter@@ 380
WF 380
alen 380
ds@@ 380
film@@ 380
werk 380
Snow@@ 379
aut 379
bitions 379
dig 379
rami@@ 379
ño 379
II@@ 378
Inf@@ 378
Tot@@ 378
Vali@@ 378
bau 378
dum@@ 378
ege 378
eli 378
ourable 378
proch@@ 378
stark 378
vents 378
xe 378
zzi 378
ă@@ 378
137 377
1964 377
Autonom@@ 377
Intern@@ 377
Ware 377
Zo@@ 377
eres 377
lender 377
press@@ 377
Dolom@@ 376
Mig@@ 376
Sm@@ 376
caus@@ 376
extre@@ 376
success@@ 376
viously 376
Bres@@ 375
Buffet 375
Fant@@ 375
Lit@@ 375
anni@@ 375
campaign@@ 375
kor@@ 375
nie 375
spann@@ 375
wels 375
ý@@ 375
Ludwig 374
Tibet@@ 374
Yor@@ 374
erh@@ 374
ruhe 374
Gan@@ 373
Reser@@ 373
bourg 373
isa 373
lus@@ 373
sse@@ 373
Block 372
Eric 372
Hö@@ 372
Revol@@ 372
effici@@ 372
hier 372
ism@@ 372
ms@@ 372
ums@@ 372
Track 371
ule 371
м 371
August@@ 370
Nom@@ 370
amento 370
ept@@ 370
stag 370
ungs@@ 370
ل@@ 370
1949 369
226@@ 369
Kit 369
aris 369
pedestri@@ 369
tam@@ 369
Ox@@ 368
Schwar@@ 368
Sir@@ 368
Wien 368
incorrec@@ 368
inno@@ 368
l. 368
specific@@ 368
zog 368
EW@@ 367
Hus@@ 367
Simul@@ 367
cancell@@ 367
coni 367
ktor 367
lieu 367
mund 367
ople 367
policy@@ 367
ui 367
Hir@@ 366
Johannes 366
Moo@@ 366
alles 366
brun@@ 366
nette 366
pur 366
terranean 366
theore@@ 366
š 366
Gas 365
dex 365
endu@@ 365
kol@@ 365
ungs 365
Diplom@@ 364
Touch 364
Word@@ 364
accept@@ 364
dago@@ 364
heavi@@ 364
Ange@@ 363
Filter 363
Option 363
Refer@@ 363
intu@@ 363
öh@@ 363
ь 363
BA@@ 362
Feder@@ 362
Steph@@ 362
amen 362
manag@@ 362
Excell@@ 361
Institut 361
Monum@@ 361
Unter@@ 361
anni 361
auth@@ 361
dari 361
destro@@ 361
ht@@ 361
Event@@ 360
Fla@@ 360
Fort 360
Puer@@ 360
Sevilla 360
VP 360
Wur@@ 360
auf@@ 360
downlo@@ 360
lé@@ 360
wart 360
ä 360
1940 359
Bom@@ 359
Hoh@@ 359
Nit@@ 359
Zoo 359
sionally 359
ù 359
Kath@@ 358
Wid@@ 358
angel 358
Flu@@ 357
Material 357
Ost@@ 357
Position 357
cos@@ 357
ito 357
rema@@ 357
Whe@@ 356
Zer@@ 356
inity 356
magne@@ 356
sensus 356
Weg@@ 355
feu@@ 355
kli@@ 355
Appartement 354
GF@@ 354
Tube 354
aut@@ 354
duce 354
esch@@ 354
grande 354
jus@@ 354
legen@@ 354
09.@@ 353
BB 353
TEN 353
finan@@ 353
immen@@ 353
pollu@@ 353
ror@@ 353
Lü@@ 352
astery 352
definiti@@ 352
earthqu@@ 352
ien 352
können 352
Leu@@ 351
Parli@@ 351
Tag 351
emed 351
ode 351
pré@@ 351
stak@@ 351
anci@@ 350
fig@@ 350
iten@@ 350
mith 350
nament@@ 350
ogra@@ 350
renov@@ 350
substanti@@ 350
ö 350
ür@@ 350
Cust@@ 349
Dach@@ 349
Jobs 349
KL@@ 349
Nan@@ 349
Schul@@ 349
amt 349
essions 349
kur@@ 349
veh@@ 349
Fund@@ 348
istic@@ 348
onale 348
rell 348
xi 348
aim@@ 347
ddle 347
gangs 347
onial 347
ru 347
ungalo@@ 347
22.@@ 346
Appar@@ 346
Chil@@ 346
Sport@@ 346
Stick 346
Trin@@ 346
ost 346
thotel 346
→ 346
Donn@@ 345
Label 345
Resp@@ 345
amos 345
compre@@ 345
danger@@ 345
dir 345
mis 345
.-@@ 344
Browser 344
Da 344
Heinrich 344
Offic@@ 344
anya 344
avail@@ 344
inclu@@ 344
nier 344
tura 344
Log 343
Maced@@ 343
Mum@@ 343
Terrain 343
digit@@ 343
eon 343
lich@@ 343
partement 343
т 343
Barcel@@ 342
Gesellschaft 342
Inten@@ 342
Kunst@@ 342
Panorama 342
breath@@ 342
olog@@ 342
probe 342
quasi 342
rie@@ 342
tivi@@ 342
urs@@ 342
Kaiser 341
arer 341
entre 341
eurs 341
03.@@ 340
Halle 340
Horiz@@ 340
Rhein@@ 340
acion 340
heik@@ 340
llon 340
orium 340
rh@@ 340
½ 340
IST@@ 339
Migration 339
fr 339
ingent 339
nail 339
profi@@ 339
uel 339
α 339
Chef 338
Spar@@ 338
enstein 338
gotten 338
kul@@ 338
pend@@ 338
sci@@ 338
thes 338
trage 338
xer 338
Chin@@ 337
ELL@@ 337
You@@ 337
ask@@ 337
obil@@ 337
onym 337
split@@ 337
¿ 337
Educ@@ 336
Pilot 336
Ton@@ 336
entic@@ 336
s- 336
но@@ 336
ﬁ@@ 336
put@@ 335
Alle@@ 334
bie 334
endar 334
enthusias@@ 334
king.com 334
kö@@ 334
miss@@ 334
Exhi@@ 333
KS 333
Ultra@@ 333
ox@@ 333
Cany@@ 332
Temp@@ 332
gion 332
list@@ 332
tah@@ 332
Absol@@ 331
ades@@ 331
aning 331
exac@@ 331
glas 331
Amp@@ 330
Bashir 330
Journ@@ 330
ator@@ 330
bien 330
jed@@ 330
marri@@ 330
Distribution 329
Gel@@ 329
Lieutenant 329
NX 329
Phi@@ 329
acces@@ 329
etz 329
gare@@ 329
ggle 329
near@@ 329
otte 329
Evalu@@ 328
Wind 328
ank@@ 328
country@@ 328
rement 328
wander@@ 328
Kei@@ 327
Spock 327
ause 327
dak@@ 327
jour 327
untuk 327
wy@@ 327
ер@@ 327
Asyl@@ 326
Diagno@@ 326
Eco@@ 326
Finan@@ 326
Finn@@ 326
Nation@@ 326
Nieder@@ 326
Plug 326
Promenade 326
TOS 326
dump@@ 326
mly 326
where@@ 326
Schü@@ 325
Scienti@@ 325
appointing 325
deck@@ 325
limit@@ 325
pow@@ 325
Ã 325
Flori@@ 324
Slov@@ 324
apart@@ 324
mus 324
Domain 323
Sex@@ 323
avi 323
elen 323
lymp@@ 323
present@@ 323
Hof@@ 322
Laden 322
Laser 322
Objec@@ 322
ativ@@ 322
bran@@ 322
kat 322
sei 322
xon 322
ń 322
Fall@@ 321
ICH@@ 321
Job 321
Sens@@ 321
Un 321
isely 321
loser 321
oner 321
Fusion 320
acco 320
arte 320
gross@@ 320
lau 320
ен@@ 320
по@@ 320
Apo@@ 319
Format 319
Rum@@ 319
Wer@@ 319
brand@@ 319
negara 319
2. 318
Catho@@ 318
Fabri@@ 318
enshr@@ 318
oft 318
parl@@ 318
tish 318
wig 318
Baby 317
Christopher 317
Galax@@ 317
Workshop 317
Zei@@ 317
bs@@ 317
büh@@ 317
Kinder@@ 316
Piaz@@ 316
hs 316
ness@@ 316
nis 316
Controller 315
Cyber@@ 315
Hart@@ 315
cht@@ 315
ż@@ 315
Schön@@ 314
Sisko 314
Situation 314
achen 314
defin@@ 314
mom@@ 314
versary 314
11.00 313
Gig@@ 313
Silver@@ 313
Smo@@ 313
dney 313
Â 313
ß@@ 313
ж@@ 313
Ball@@ 312
Rail@@ 312
consisten@@ 312
moment@@ 312
Era@@ 311
Stro@@ 311
System@@ 311
Therap@@ 311
Ukra@@ 311
hinter@@ 311
ité 311
lars 311
rein 311
Ε@@ 311
− 311
Hier@@ 310
Joh@@ 310
Mai 310
Non@@ 310
acht 310
ael 310
alth 310
dner 310
implement@@ 310
inen 310
stren@@ 310
volution 310
ð@@ 310
Hoch@@ 309
Stur@@ 309
drau@@ 309
kop@@ 309
σ@@ 309
arin 308
eim 308
gentle@@ 308
hol 308
sme@@ 308
west@@ 308
Alt 307
Fest@@ 307
Kau@@ 307
Wik@@ 307
ladi@@ 307
ng 307
pesti@@ 307
vier 307
08.@@ 306
Augu@@ 306
Legi@@ 306
cina 306
distan@@ 306
fas@@ 306
melt 306
Dame 305
Domini@@ 305
Mitte 305
Ord@@ 305
Zim@@ 305
hl 305
kom@@ 305
ssel 305
uten@@ 305
xim@@ 305
1701 304
ACH 304
Lobby 304
inely 304
intelli@@ 304
sequently 304
ème 304
bend 303
deter 303
perfec@@ 303
rü@@ 303
ą@@ 303
Bio 302
Twi@@ 302
ademy 302
itely 302
kem@@ 302
kos 302
mehr 302
öst@@ 302
Egyp@@ 301
Ever@@ 301
Tap@@ 301
qu 301
stances 301
tout 301
ção 301
Balance 300
Dig@@ 300
aber@@ 300
biotechn@@ 300
did@@ 300
icals 300
adem@@ 299
instal@@ 299
lang 299
liferation 299
İ@@ 299
Divi@@ 298
Hardware 298
Telek@@ 298
aissance 298
azz@@ 298
eren 298
esen@@ 298
intenance 298
produ@@ 298
õ@@ 298
Agen@@ 297
Ball 297
EST@@ 297
Elite 297
GEN@@ 297
Isol@@ 297
King@@ 297
Restaurants 297
Trau@@ 297
Virus 297
contr@@ 297
xt 297
π@@ 297
--------@@ 296
Cann@@ 296
Fau@@ 296
His@@ 296
primi@@ 296
wie@@ 296
winn@@ 296
ő@@ 296
μ@@ 296
Alternative 295
WLAN 295
ditions 295
ular@@ 295
ühr@@ 295
ы 295
Lob@@ 294
Neue 294
Zentrum 294
partments 294
Chic@@ 293
erb@@ 293
nois@@ 293
o. 293
tau@@ 293
Struc@@ 292
rer 292
Wis@@ 291
alley 291
enen 291
htt@@ 291
vri@@ 291
то@@ 291
Mom@@ 290
Sequ@@ 290
dens 290
eines 290
itar 290
nya 290
orer 290
sprin@@ 290
v. 290
wri@@ 290
Berliner 289
Coo@@ 289
Defin@@ 289
Stand 289
dengan 289
sident 289
sth@@ 289
ат@@ 289
Profile 288
dh@@ 288
ffe 288
inhal@@ 288
lem 288
refurb@@ 288
Break@@ 287
cke 287
fot@@ 287
heal@@ 287
passi@@ 287
sustain@@ 287
themati@@ 287
zon@@ 287
Archer 286
Hän@@ 286
Lad@@ 286
Sie@@ 286
Solar@@ 286
eder@@ 286
isms 286
Spen@@ 285
ischer 285
percent@@ 285
Emis@@ 284
Maximum 284
TAC@@ 284
absur@@ 284
ffer 284
hen 284
Gei@@ 283
Haus@@ 283
Jur@@ 283
entin 283
enze 283
resul@@ 283
span@@ 283
technik 283
Sever@@ 282
ameters 282
во@@ 282
Extra@@ 281
Guant@@ 281
News@@ 281
5.000 280
GB@@ 280
Länder 280
Organis@@ 280
Straße 280
asser 280
encia 280
faire 280
oper 280
sincer@@ 280
stent 280
wen 280
än@@ 280
ı 280
124@@ 279
Techni@@ 279
colle@@ 278
nach@@ 278
Tunnel 277
frei@@ 277
graphi@@ 277
kt 277
pä@@ 277
Austri@@ 276
Bli@@ 276
Mani@@ 276
Navigation 276
Rö@@ 276
SQ@@ 276
natur@@ 276
versi@@ 276
µ@@ 276
Kultur@@ 275
Philosoph@@ 275
aten@@ 275
mobil@@ 275
percus@@ 275
salle 275
sein 275
strai@@ 275
Ad 274
Busin@@ 274
Dollar 274
Exec@@ 274
Problems 274
Welt 274
markt 274
phs 274
statt 274
zur@@ 274
Labor 273
Nation 273
Virtu@@ 273
covery 273
genu@@ 273
mais 273
schen 273
v.@@ 273
Jar@@ 272
geh@@ 272
ison@@ 272
Import 271
hart 271
plo@@ 271
uner 271
Acces@@ 270
Aro@@ 270
Premi@@ 270
SER@@ 270
hygi@@ 270
Im 269
Merc@@ 269
Musik@@ 269
cket@@ 269
entre@@ 269
gather@@ 269
tur 269
zin 269
Addi@@ 268
Jag@@ 268
Modi@@ 268
Museums 268
mel 268
Amat@@ 267
Form@@ 267
Hydro@@ 267
Illu@@ 267
König@@ 267
Zimmer 267
rak@@ 267
ting@@ 267
ρ@@ 267
Dom 266
Exist@@ 266
Hyper@@ 266
Iran@@ 266
a. 266
ket@@ 266
mü@@ 266
null 266
phen@@ 266
rift 266
tiv 266
Downlo@@ 265
Hand 265
Schloss 265
alleys 265
eir 265
g. 265
raff@@ 265
tique 265
Song 264
absol@@ 264
ventive 264
Ges@@ 263
Proper@@ 263
einf@@ 263
fragi@@ 263
strand 263
Ein 262
Lage 262
Rates 262
Universität 262
bij@@ 262
ritt@@ 262
verein 262
weren 262
Р@@ 262
ш@@ 262
Monitor 261
Salon 261
Spo@@ 261
Stell@@ 261
ers@@ 261
igrants 261
ording 261
ā@@ 261
ě 261
intel@@ 260
pf@@ 260
philosoph@@ 260
qualit@@ 260
usi@@ 260
Chair@@ 259
Pier@@ 259
akia 259
fiel@@ 259
на@@ 259
Berlin@@ 258
Ex 258
Fall 258
Features 258
Hard@@ 258
Kauf@@ 258
adas 258
kon 258
pg 258
ï 258
Fü@@ 257
HOT@@ 257
Wör@@ 256
fil 256
kra@@ 256
mé@@ 256
rand 256
wenn 256
λ@@ 256
ал@@ 256
Reli@@ 255
apor@@ 255
isti@@ 255
welt 255
у 255
Boot 254
DER@@ 254
Liqui@@ 254
democra@@ 254
dership 254
ende@@ 254
explic@@ 254
lien 254
sowie 254
usses 254
κ@@ 254
Aber@@ 253
Installer 253
Pop 253
secon@@ 253
thu@@ 253
thum@@ 253
œ@@ 253
Brus@@ 252
Hinter@@ 252
Kore@@ 252
Schaff@@ 252
Wein@@ 252
clar@@ 252
etes 252
etts 252
stat 252
Den 251
Venezu@@ 251
arel 251
grie@@ 251
sko@@ 251
tet@@ 251
Du 250
GH 250
KM@@ 250
Mix 250
alog 250
icul@@ 250
langu@@ 250
1,5 249
Deutsch@@ 249
Internation@@ 249
Linu@@ 249
chambres 249
damer 249
enn 249
stently 249
thorou@@ 249
± 249
Ang@@ 248
Demo 248
Wir 248
sono 248
sont 248
Administrator 247
Falls 247
Multimedia 247
integra@@ 247
koh@@ 247
Dr@@ 246
Karl@@ 246
Klu@@ 246
Montre@@ 246
Navig@@ 246
Video@@ 246
necessi@@ 246
robu@@ 246
Ø@@ 246
AKP 245
Kreuz@@ 245
Lö@@ 245
Reich@@ 245
^ 245
ahr@@ 245
allen@@ 245
aper 245
rov@@ 245
rying 245
Film@@ 244
Gut@@ 244
Know 244
Plans 244
Zen@@ 244
aner 244
rale 244
recht 244
rhet@@ 244
öder@@ 244
ν@@ 244
ре@@ 244
Gat@@ 243
Jord@@ 243
PV@@ 243
Reform@@ 243
helm 243
kilom@@ 243
schwi@@ 243
supp@@ 243
tick 243
ì 243
ú 243
Ambi@@ 242
Psy@@ 242
Strasse 242
Tren@@ 242
bah@@ 242
ellow 242
err@@ 242
leu@@ 242
spiritu@@ 242
ит@@ 242
Roh@@ 241
Soft@@ 241
Spr@@ 241
cker@@ 241
diese 241
sophistic@@ 241
voor 241
Cock@@ 240
Dyn@@ 240
Jose@@ 240
Kais@@ 240
Lie@@ 240
Miner@@ 240
berg@@ 240
olle 240
sugges@@ 240
uss@@ 240
Advan@@ 239
Coh@@ 239
Klein@@ 239
Kok@@ 239
Sis@@ 239
bay@@ 239
cipl@@ 239
utation 239
на 239
Gent@@ 238
Gü@@ 238
ICH 238
Nep@@ 238
Websites 238
bil 238
frau 238
kre@@ 238
Klin@@ 237
Zimmer@@ 237
accompan@@ 237
dei@@ 237
dien 237
entially 237
iden 237
last@@ 237
orie 237
tremend@@ 237
üb@@ 237
Card@@ 236
Kamp@@ 236
Stadt@@ 236
abled 236
blas@@ 236
edes 236
hast 236
lages 236
projek@@ 236
Minimum 235
Roll@@ 235
Salv@@ 235
Wan@@ 235
contri@@ 235
dieser 235
fak@@ 235
macro@@ 235
schem@@ 235
Inte@@ 234
Kali@@ 234
Spam 234
chester 234
hung 234
Ç@@ 234
Bit 233
Rau@@ 233
Wed@@ 233
agri@@ 233
autonom@@ 233
barri@@ 233
cken@@ 233
kas 233
mire 233
nisch 233
Definition 232
Layout 232
Tok@@ 232
Verlag 232
WM 232
alin 232
hai 232
leh@@ 232
lingen 232
onte 232
pada 232
reco@@ 232
rem 232
tres 232
× 232
Burg 231
Compu@@ 231
Eurozone 231
Freu@@ 231
Provin@@ 231
Put@@ 231
Schnei@@ 231
pharm@@ 231
й@@ 231
ны@@ 231
Fan 230
Medium 230
Schw@@ 230
alit@@ 230
gyp@@ 230
schwei@@ 230
spre@@ 230
tener 230
tig 230
ê 230
3. 229
bots 229
forth@@ 229
Brasi@@ 228
IFA 228
Nap@@ 228
Nob@@ 228
Patch 228
Rest 228
dich@@ 228
hin 228
modul@@ 228
omen 228
rid@@ 228
unfor@@ 228
Album 227
Bergen 227
Minute 227
ays 227
bile 227
earth@@ 227
hem 227
quis 227
vene@@ 227
ů@@ 227
Monta@@ 226
Phan@@ 226
Reich 226
Zeit 226
Zeitung 226
abe@@ 226
arf 226
liche 226
macher 226
sé@@ 226
waren 226
ž 226
Alpen@@ 225
Hostels 225
Inspi@@ 225
Las@@ 225
Parks 225
Sad@@ 225
immer 225
licens@@ 225
sung 225
Profession@@ 224
Spiri@@ 224
Zah@@ 224
deliver@@ 224
deu@@ 224
gang@@ 224
isco 224
t- 224
thumb@@ 224
worth@@ 224
ел@@ 224
Para@@ 223
Parti@@ 223
dat 223
funk@@ 223
jek@@ 223
kel 223
norm@@ 223
stead 223
uch 223
ungen 223
welve 223
º@@ 223
äl@@ 223
ц@@ 223
Aug@@ 222
Experi@@ 222
Lang@@ 222
Phase 222
horizon@@ 222
rists 222
vereig@@ 222
Ä@@ 222
..@@ 221
Moldo@@ 221
Vot@@ 221
agements 221
bean 221
bedro@@ 221
gious 221
très 221
unications 221
von@@ 221
Fen@@ 220
Gon@@ 220
Institution 220
vos 220
Malay@@ 219
Pak@@ 219
Scot@@ 219
stronom@@ 219
votre 219
Foto@@ 218
Laser@@ 218
Schle@@ 218
Seine 218
Affili@@ 217
Dies@@ 217
Golf@@ 217
Hoff@@ 217
Kris@@ 217
Kunst 217
Schil@@ 217
beauti@@ 217
ellen@@ 217
investi@@ 217
liest 217
sport@@ 217
VO 216
ahn@@ 216
häuser 216
i.@@ 216
mbo@@ 216
seek@@ 216
і@@ 216
Brau@@ 215
EZ@@ 215
Mono@@ 215
bauer 215
gibt 215
jpg 215
r. 215
Ђ 215
10.000 214
Veg@@ 214
anz@@ 214
astern 214
llas 214
tak@@ 214
tions@@ 214
valent 214
wom@@ 214
ş 214
Deut@@ 213
Kast@@ 213
Plugin 213
Spit@@ 213
Will@@ 213
baden 213
sam 213
tidak 213
Hack@@ 212
IMM@@ 212
Süd@@ 212
arab@@ 212
erten 212
onen 212
Buff@@ 211
Clim@@ 211
Landes@@ 211
Rhein 211
Stad@@ 211
eces 211
fel 211
laden 211
liz@@ 211
outh 211
reless 211
statisti@@ 211
ć@@ 211
Des 210
Dür@@ 210
ij@@ 210
lans 210
retari@@ 210
uts 210
zah@@ 210
› 210
Lich@@ 209
auff@@ 209
automati@@ 209
embers 209
ún 209
ф@@ 209
Videos 208
great@@ 208
tackl@@ 208
tsch 208
Ó@@ 208
Icel@@ 207
Zug 207
allel 207
atz@@ 207
ecke 207
iche 207
timate 207
urement 207
Control@@ 206
Et@@ 206
Homepage 206
Problem 206
Renn@@ 206
Tari@@ 206
dul 206
food@@ 206
stens 206
utz 206
vere 206
Religi@@ 205
Ring@@ 205
Schö@@ 205
Sex 205
abel 205
hous@@ 205
libr@@ 205
schule 205
DN@@ 204
EW 204
Miss@@ 204
Prof@@ 204
String 204
Wiener 204
eived 204
him@@ 204
Schnell@@ 203
ations@@ 203
ddenly 203
erland 203
kap@@ 203
prise 203
sels 203
teur 203
viel@@ 203
ė 203
Experim@@ 202
Solarium 202
Taxi 202
Veget@@ 202
isches 202
ley@@ 202
life@@ 202
urer 202
Feld@@ 201
Luft@@ 201
Tos@@ 201
disa@@ 201
ista 201
ohne 201
sé 201
té@@ 201
zip@@ 201
Aga@@ 200
Ment@@ 200
Musik 200
Orig@@ 200
Schwei@@ 200
atik 200
letter@@ 200
lig 200
tiful 200
Audio@@ 199
Herr@@ 199
Kul@@ 199
Resol@@ 199
ding@@ 199
schon 199
zei@@ 199
Contin@@ 198
Screen@@ 198
gaz@@ 198
politik 198
Eich@@ 197
Gn@@ 197
Panoram@@ 197
Recy@@ 197
mbH 197
seh@@ 197
urop@@ 197
withdraw@@ 197
yk@@ 197
đ@@ 197
ر@@ 197
1.000 196
Dres@@ 196
Dör@@ 196
Hob@@ 196
Perform@@ 196
atori@@ 196
gasse 196
tten 196
alition 195
neut@@ 195
rehabilit@@ 195
ös@@ 195
Hybri@@ 194
Tradition 194
big@@ 194
dalam 194
encounter@@ 194
territori@@ 194
tung 194
utz@@ 194
xen 194
Deutsch 193
Köln 193
Tourismus 193
repar@@ 193
tim 193
Mö@@ 192
UND 192
dies@@ 192
dion 192
enon 192
risten@@ 192
End@@ 191
Nach@@ 191
Tei@@ 191
ext 191
kr@@ 191
Frankfurter 190
GEN 190
Galerie 190
Kop@@ 190
MIT 190
Million 190
Voy@@ 190
beh@@ 190
excep@@ 190
meng@@ 190
pher@@ 190
rats 190
sidency 190
umen 190
wieder 190
z.@@ 190
ς 190
Arran@@ 189
Grund@@ 189
Inn@@ 189
Natur@@ 189
Radio@@ 189
Spezi@@ 189
acio 189
alt@@ 189
brin@@ 189
deutsche 189
energ@@ 189
energi@@ 189
erst@@ 189
exi@@ 189
mann@@ 189
purch@@ 189
Band@@ 188
Klo@@ 188
Nürn@@ 188
aden@@ 188
atur@@ 188
burgh 188
dige 188
herr@@ 188
phenom@@ 188
titudes 188
u.@@ 188
х 188
م@@ 188
Autor@@ 187
Biom@@ 187
Listen 187
Schlo@@ 187
aku@@ 187
eron 187
eties 187
gesetz 187
lange 187
litt@@ 187
vements 187
ASP 186
Flora 186
Má@@ 186
airs 186
rapi@@ 186
stopp@@ 186
w.@@ 186
û@@ 186
ка@@ 186
Bü@@ 185
Explo@@ 185
ammer 185
arten 185
atie 185
lifer@@ 185
perman@@ 185
ю@@ 185
Billi@@ 184
Expan@@ 184
Hauptbahnhof 184
Upgrade 184
ership 184
especi@@ 184
rent@@ 184
unger 184
ZE 183
artier 183
coo@@ 183
enden 183
felong 183
forbi@@ 183
gels 183
metho@@ 183
posure 183
tium 183
Ihre 182
Peters@@ 182
ateful 182
confidenti@@ 182
fox 182
isse@@ 182
lief 182
modus 182
shof 182
stä@@ 182
är 182
Fisher@@ 181
Offen@@ 181
Spon@@ 181
Stiftung 181
coher@@ 181
crop@@ 181
eden 181
funk 181
keine 181
tis@@ 181
Ł@@ 181
мо@@ 181
Button 180
Markt 180
ahl 180
anderen 180
andt 180
illeg@@ 180
inen@@ 180
invol@@ 180
ologie 180
strous 180
υ@@ 180
Dub@@ 179
aty 179
berge 179
drei 179
soever 179
tonn@@ 179
wing@@ 179
zel 179
Í@@ 179
ί@@ 179
Fach@@ 178
Grün@@ 178
Göte@@ 178
amas 178
bilater@@ 178
dary 178
hir 178
tika 178
го 178
Neut@@ 177
Oran@@ 177
Sich@@ 177
eig@@ 177
fabrik 177
islat@@ 177
later@@ 177
lub 177
magnific@@ 177
refre@@ 177
weap@@ 177
و@@ 177
ي@@ 177
Imperi@@ 176
Jus@@ 176
Keller 176
Uhr 176
azzo 176
etten 176
exper@@ 176
jap@@ 176
jur@@ 176
symbo@@ 176
Ś@@ 176
об@@ 176
Aluminium 175
Challen@@ 175
Eine 175
Molda@@ 175
dann 175
eten@@ 175
neue 175
panoram@@ 175
programm 175
ن@@ 175
Boot@@ 174
Luxemburg 174
beim 174
gegen 174
lds 174
terie 174
ри@@ 174
Hub@@ 173
Ich 173
Religion 173
Stern 173
chs@@ 173
cks@@ 173
enness 173
orig@@ 173
rang 173
¡ 173
Zw@@ 172
ehl 172
ersten 172
oples 172
petit 172
stauran@@ 172
uner@@ 172
В 172
Afgh@@ 171
Kling@@ 171
Partner@@ 171
Priv@@ 171
Profit 171
Ug@@ 171
Zwei@@ 171
ains 171
enes 171
heu@@ 171
illar 171
inhabit@@ 171
kot@@ 171
lichen 171
meister 171
oft@@ 171
ssen@@ 171
ywood 171
Ã@@ 171
ą 171
Rede@@ 170
atum 170
gratis 170
obst@@ 170
sist@@ 170
über@@ 170
Clas@@ 169
IDS 169
Sand 169
Schlei@@ 169
Taste 169
eger 169
icro@@ 169
nah@@ 169
ollen 169
z.B. 169
Ћ@@ 169
ни@@ 169
OME 168
Schweiz 168
dise@@ 168
ement@@ 168
fossi@@ 168
glas@@ 168
kri@@ 168
nes@@ 168
nity 168
progno@@ 168
rik 168
stab@@ 168
‑ 168
Mit 167
stern 167
tob@@ 167
unte@@ 167
Internet@@ 166
Rom 166
Rund@@ 166
Trend 166
doch 166
etus 166
inea 166
isl@@ 166
kro@@ 166
thaus 166
üh@@ 166
Alli@@ 165
Jahr 165
alco@@ 165
besi@@ 165
itment 165
speak@@ 165
Sommer 164
Verb@@ 164
enser 164
lust 164
mium 164
prom@@ 164
Α@@ 164
Clubs 163
Demon@@ 163
Mön@@ 163
Rak@@ 163
Revision 163
Sinn 163
Von 163
ieder@@ 163
isine 163
ween 163
ürz@@ 163
В@@ 163
Inflation 162
Minim@@ 162
See@@ 162
Stru@@ 162
Updates 162
drin@@ 162
emark 162
oriz@@ 162
poly 162
sah 162
Dialog 161
Für@@ 161
Hohe 161
Informationen 161
eln 161
repeat@@ 161
ã@@ 161
ücken 161
ет@@ 161
н 161
Seite 160
Tep@@ 160
baum 160
hn@@ 160
zt 160
с 160
щ@@ 160
Co. 159
Distri@@ 159
Stein 159
Temperat@@ 159
bare@@ 159
chocol@@ 159
eigen@@ 159
geno@@ 159
halle 159
oeu@@ 159
Agr@@ 158
Angol@@ 158
Festivals 158
Quart@@ 158
abe 158
brilli@@ 158
erer 158
tier@@ 158
ärm 158
П@@ 158
Appart@@ 157
Wie@@ 157
dimension@@ 157
eventu@@ 157
latz 157
restau@@ 157
schen@@ 157
ultim@@ 157
ū@@ 157
Aktien@@ 156
Mittel@@ 156
ellen 156
gut@@ 156
inge 156
minist@@ 156
reduc@@ 156
tien@@ 156
ени@@ 156
э@@ 156
Downloads 155
Für 155
Kli@@ 155
Logo 155
chur@@ 155
kla@@ 155
ň@@ 155
Ѓ@@ 155
Bulg@@ 154
Plu@@ 154
Staats@@ 154
Tier 154
dap@@ 154
ehold 154
gt@@ 154
independ@@ 154
intro@@ 154
lei 154
pau@@ 154
tun 154
Deleg@@ 153
Evange@@ 153
Fans 153
Mobili@@ 153
Seminar 153
Sonn@@ 153
Switz@@ 153
Zy@@ 153
c. 153
das@@ 153
[...]
