, 4123
. 2739
der 1763
die 1678
und 1230
&quot; 1057
in 929
zu 674
von 653
den 634
ist 583
das 550
dass 460
mit 452
nicht 448
-@@ 426
für 418
es 410
sich 399
auf 391
im 363
ein 353
des 351
eine 345
er 333
dem 308
Die 300
als 268
sind 264
sie 261
an 253
- 236
werden 229
auch 220
ich 211
hat 199
haben 194
einer 188
wir 178
um 172
einen 170
aus 166
einem 166
wird 165
wie 164
oder 160
bei 158
? 153
: 145
Das 144
war 142
Sie 141
( 140
) 140
über 140
aber 137
am 137
wurde 137
nur 136
man 129
nach 129
Der 124
ten 124
Ich 121
noch 120
ver@@ 119
te 117
In 116
an@@ 116
so 110
vor 110
diese 109
er@@ 108
Es 107
zur 101
habe 99
sein 98
gibt 96
zum 95
bis 92
wenn 92
kann 91
sagt 86
mehr 85
seine 84
keine 83
be@@ 79
können 79
uns 79
was 79
Und 78
un@@ 78
Jahren 77
dieser 77
ab@@ 76
durch 76
en 76
ge@@ 76
Jahr 74
Menschen 73
en@@ 73
P@@ 72
ihre 71
wurden 71
H@@ 70
K@@ 69
sch@@ 69
An@@ 67
Im 67
L@@ 67
t 67
T@@ 66
Welt 66
k@@ 66
s@@ 66
z@@ 65
eines 63
hatte 63
s 63
unter 63
dieses 62
m@@ 62
Er 61
Wir 61
aus@@ 61
F@@ 60
Jahre 60
dies 59
immer 59
mich 59
muss 59
ein@@ 58
Zeit 57
d@@ 57
dann 57
seiner 57
t@@ 57
da 56
M@@ 55
Aber 54
diesem 54
kommen 54
sagte 54
sehr 54
E@@ 53
N@@ 53
de 53
e 53
sten 53
Land 52
ge 52
gegen 52
viele 52
a 51
anderen 51
damit 51
% 50
ihnen 50
müssen 50
unter@@ 50
würde 50
A@@ 49
Ver@@ 49
bereits 49
gen 49
jedoch 49
ungen 49
vom 49
alle 48
weil 48
zwischen 48
etwas 47
or@@ 47
st@@ 47
li@@ 46
S@@ 45
es@@ 45
ihm 45
mir 45
ohne 45
ter 45
waren 45
wo 45
B@@ 44
Millionen 44
R@@ 44
Sch@@ 44
b@@ 44
g@@ 44
hier 44
zwei 44
J@@ 43
auf@@ 43
p 43
Staaten 42
k 42
Wenn 41
vor@@ 41
; 40
Leben 40
i 40
ste 40
Mann@@ 39
ange@@ 39
i@@ 39
n 39
seinen 39
u@@ 39
Eine 38
Er@@ 38
Kinder 38
W@@ 38
sondern 38
st 38
Deutschland 37
Vor@@ 37
Z@@ 37
dazu 37
el@@ 37
heute 37
j@@ 37
m 37
sei 37
selbst 37
viel 37
Rak@@ 36
Stadt 36
andere 36
ch@@ 36
denen 36
ihr 36
ing 36
ri@@ 36
schon 36
seit 36
sollte 36
ur 36
y@@ 36
Man 35
chen 35
dort 35
enden 35
f@@ 35
ko@@ 35
n@@ 35
ung 35
D@@ 34
Diese 34
Ende 34
ar@@ 34
de@@ 34
gab 34
ihn 34
ihren 34
lich 34
neue 34
um@@ 34
über@@ 34
Personen 33
ebenfalls 33
ent@@ 33
ersten 33
meine 33
seinem 33
Wie 32
a@@ 32
as 32
e@@ 32
end 32
etwa 32
Doch 31
Dollar 31
Geld 31
Problem 31
Tag 31
Un@@ 31
Universität 31
alen 31
alles 31
diesen 31
erte 31
gut 31
ihrer 31
le@@ 31
ler 31
... 30
G@@ 30
Mari@@ 30
Präsident 30
US@@ 30
drei 30
eren 30
ern 30
großen 30
h@@ 30
in@@ 30
kon@@ 30
könnte 30
sogar 30
to 30
tun 30
während 30
zu@@ 30
Auf 29
Aus@@ 29
Ein@@ 29
I@@ 29
Israel 29
Regierung 29
Tel@@ 29
USA 29
Waffen 29
as@@ 29
ber@@ 29
davon 29
gehen 29
geht 29
ins 29
ke 29
lichen 29
machen 29
o 29
o@@ 29
wollen 29
! 28
C@@ 28
Ein 28
Fall 28
Geschichte 28
Welt@@ 28
ag@@ 28
einfach 28
ens 28
erten 28
ob 28
os 28
ungs@@ 28
Arbeit 27
Dies 27
Gesetze 27
Wel@@ 27
ab 27
besch@@ 27
di@@ 27
ei@@ 27
fen 27
re@@ 27
soll 27
Pro@@ 26
St@@ 26
Straßen 26
am@@ 26
dafür 26
dessen 26
ischen 26
neuen 26
r@@ 26
sagen 26
ser@@ 26
wei@@ 26
weile 26
Mexiko 25
O@@ 25
System 25
arbeiten 25
deren 25
erste 25
exi@@ 25
geben 25
ger 25
große 25
hu@@ 25
ie 25
ische 25
ne 25
pf@@ 25
ro@@ 25
schen 25
sehen 25
ts 25
&apos; 24
2011 24
Ar@@ 24
Euro 24
Mex@@ 24
Studenten 24
Ta@@ 24
Vereinigten 24
Weg 24
Woche 24
au@@ 24
beim 24
ben 24
dabei 24
den@@ 24
gerade 24
ien 24
kein 24
leben 24
letzten 24
nichts 24
se 24
tischen 24
unsere 24
Ab@@ 23
Als 23
Auch 23
Bo@@ 23
Bundes@@ 23
Für 23
In@@ 23
Leute 23
Präsidenten 23
Teil 23
allen 23
at@@ 23
bel 23
doch 23
finden 23
g 23
her@@ 23
jeder 23
kan@@ 23
kommt 23
macht 23
nen 23
on 23
ot@@ 23
sen 23
sowie 23
stehen 23
sti@@ 23
tes 23
w@@ 23
Gruppe 22
Re@@ 22
Unternehmen 22
V@@ 22
Was 22
ad@@ 22
al@@ 22
all@@ 22
ast@@ 22
darüber 22
du 22
einmal 22
el 22
em 22
erreichen 22
erst 22
fünf 22
gesagt 22
liche 22
mehrere 22
mein 22
meisten 22
or 22
p@@ 22
tete 22
wa@@ 22
wäre 22
zufolge 22
ä@@ 22
Bei 21
Länder 21
Mar@@ 21
Mit 21
Sp@@ 21
Staat 21
Wahl@@ 21
at 21
cher 21
einige 21
eln 21
enen 21
hätte 21
isch 21
jetzt 21
ken 21
mar@@ 21
meiner 21
sch 21
wegen 21
y 21
z 21
zi@@ 21
zurück@@ 21
ü@@ 21
10 20
2 20
5 20
Ch@@ 20
Kon@@ 20
Neu@@ 20
Or@@ 20
Rolle 20
Situation 20
Während 20
Ziel 20
ale 20
ali@@ 20
b 20
bekannt 20
berg 20
besteht 20
bin 20
det 20
eigenen 20
ende 20
fast 20
gen@@ 20
gern 20
hinzu 20
internationalen 20
ker 20
lege 20
liegt 20
steht 20
ts@@ 20
us 20
weniger 20
werde 20
will 20
Bar@@ 19
Frage 19
Frauen 19
Gesellschaft 19
Gesetz 19
Ma@@ 19
Mo@@ 19
Nach 19
Pal@@ 19
Patienten 19
Professor 19
Raum@@ 19
Straßen@@ 19
allerdings 19
amerikanischen 19
ana 19
beiden 19
bleibt 19
cken 19
daran 19
erhalten 19
erklärt 19
ert 19
führen 19
führt 19
ganz 19
ges@@ 19
insbesondere 19
ischer 19
lang 19
le 19
lä@@ 19
om@@ 19
on@@ 19
tern 19
zen 19
30 18
Allerdings 18
Auf@@ 18
Bevölkerung 18
Bit@@ 18
Ländern 18
Mal 18
Ort 18
Schwarz@@ 18
Waffen@@ 18
Wal@@ 18
all 18
also 18
ch 18
ek@@ 18
fi@@ 18
gel@@ 18
h 18
ihrem 18
indem 18
ir@@ 18
keinen 18
l@@ 18
los 18
möglich 18
nach@@ 18
nun 18
per@@ 18
schaft 18
si@@ 18
sk@@ 18
u 18
ur@@ 18
wieder 18
wissen 18
wobei 18
worden 18
zeigt 18
.@@ 17
19@@ 17
8 17
Alter 17
Anfang 17
Artikel 17
Bau@@ 17
Beispiel 17
Kre@@ 17
Kultur 17
New 17
Staats@@ 17
Zahl 17
al 17
allem 17
alt 17
bar 17
bleiben 17
bringen 17
darauf 17
einzige 17
ent 17
ere 17
et@@ 17
fahr@@ 17
ie@@ 17
kanische 17
kt 17
lan@@ 17
nie 17
so@@ 17
tische 17
tung 17
vielen 17
w 17
zusammen 17
zwar 17
á@@ 17
ö@@ 17
0er 16
1 16
Be@@ 16
Behandlung 16
Grund 16
Licht@@ 16
Macht 16
Politik 16
Position 16
Probleme 16
Valent@@ 16
Von 16
Zu 16
ativ@@ 16
aufgrund 16
beispielsweise 16
cht 16
der@@ 16
ellen 16
em@@ 16
erklärte 16
geb@@ 16
handelt 16
is 16
könnten 16
land 16
lassen 16
mon@@ 16
nahm 16
ran@@ 16
sozialen 16
stand 16
te@@ 16
v@@ 16
wi@@ 16
wirklich 16
würden 16
zurück 16
Über@@ 16
18@@ 15
1@@ 15
2012 15
Behörden 15
Bürger 15
EU 15
Fälle 15
Krieg 15
Le@@ 15
Mann 15
Meinung 15
Ne@@ 15
Spieler 15
Th@@ 15
ak@@ 15
besonders 15
ck@@ 15
d 15
dameri@@ 15
darin 15
deshalb 15
ente 15
gang 15
gar 15
gesehen 15
gt 15
hatten 15
hinter 15
ino 15
is@@ 15
jemand 15
kanischen 15
kre@@ 15
lagen 15
lange 15
len 15
sche 15
seines 15
sollen 15
sp@@ 15
sprechen 15
stellt 15
sterben 15
ten@@ 15
tor@@ 15
tte 15
/ 14
Bürger@@ 14
China 14
Col@@ 14
Darüber 14
Ecu@@ 14
Hamas 14
Hier 14
Kind 14
Maßnahmen 14
Militär@@ 14
Privat@@ 14
Que@@ 14
Schul@@ 14
Schwe@@ 14
Seit 14
Seite 14
Sen@@ 14
So 14
The 14
Weise 14
Zusammenarbeit 14
ah@@ 14
aller 14
ausge@@ 14
behörde 14
che 14
cher@@ 14
denn 14
deten 14
durch@@ 14
ell 14
ena 14
ens@@ 14
ers 14
esk@@ 14
genau 14
gest@@ 14
glaube 14
gung 14
gute 14
hin@@ 14
hinaus 14
ihres 14
jeden 14
kleinen 14
kostet 14
letzte 14
lo@@ 14
lt 14
lung 14
mal 14
men 14
möchten 14
obwohl 14
oft 14
oo@@ 14
schwer 14
sollten 14
stra@@ 14
tel@@ 14
tig 14
ung@@ 14
vergangenen 14
versch@@ 14
versucht 14
war@@ 14
weiß 14
yp@@ 14
100 13
2010 13
21 13
Ban@@ 13
Damit 13
Di@@ 13
Eis@@ 13
Europa 13
Film 13
Freunde 13
Groß@@ 13
Haupt@@ 13
Hei@@ 13
Inf@@ 13
Institut 13
Inter@@ 13
Internet 13
Kontrolle 13
Lage 13
Met@@ 13
Mit@@ 13
Mitarbeiter 13
Nach@@ 13
November 13
Partei 13
Projekt 13
Um 13
Vit@@ 13
Vor 13
Wer 13
Wähler 13
aler 13
allein 13
ar 13
ationen 13
be 13
besser 13
besten 13
bi@@ 13
chten 13
eigentlich 13
end@@ 13
ene 13
entwickelt 13
erreicht 13
fall 13
fis@@ 13
fügt 13
gemacht 13
genug 13
ger@@ 13
gesch@@ 13
halten 13
hält 13
häufig 13
jene 13
kam 13
kaum 13
kte 13
ne@@ 13
pres@@ 13
ra@@ 13
räger 13
schi@@ 13
se@@ 13
statt 13
unseren 13
unserer 13
v 13
weiterhin 13
wenig 13
zeigen 13
15 12
50 12
Al@@ 12
All 12
Am 12
Art 12
Bezug 12
Cor@@ 12
Dinge 12
EU@@ 12
Experten 12
Familie 12
Hum@@ 12
Idee 12
Ihre 12
Kraft 12
La@@ 12
Landes 12
Li@@ 12
Metern 12
Montreal 12
Museum 12
Richtung 12
Schne@@ 12
Singapur 12
Spiel@@ 12
Stunden 12
U@@ 12
Viele 12
Wahlen 12
adi@@ 12
ay@@ 12
bedeutet 12
begann 12
bel@@ 12
bo@@ 12
dadurch 12
danach 12
dar@@ 12
darf 12
derzeit 12
elt 12
erforderlich 12
ete 12
europäischen 12
fe 12
fällt 12
gesellschaft 12
gewinnen 12
gewährt 12
gi@@ 12
gleichzeitig 12
gs@@ 12
hei@@ 12
hi@@ 12
kal@@ 12
kaner 12
kennen 12
ks@@ 12
lle 12
mit@@ 12
nten 12
oren 12
paar 12
pro 12
schnell 12
sicher 12
später 12
stellen 12
tel 12
teste 12
th@@ 12
tiert 12
tige 12
tion@@ 12
traum@@ 12
treten 12
tten 12
tz@@ 12
ul@@ 12
walt 12
weiter 12
ßen 12
é 12
1,@@ 11
14 11
20 11
4 11
Amerikaner 11
Anhänger 11
Arbeiten 11
Ber@@ 11
Bezir@@ 11
Bri@@ 11
Bü@@ 11
Den 11
Denn 11
Dieses 11
Erklärung 11
Ex@@ 11
Frau 11
G 11
Gad@@ 11
Ge@@ 11
Gericht 11
Gesetzes 11
Gra@@ 11
Gu@@ 11
Hig@@ 11
Höhe 11
I 11
IV@@ 11
Ju@@ 11
Ki@@ 11
Kosten 11
Lebens@@ 11
Marken@@ 11
Mitglieder 11
Mon@@ 11
Mur@@ 11
Namen 11
Nationen 11
Person 11
Prozent 11
Ro@@ 11
Russland 11
Sa@@ 11
Selbst@@ 11
Sinne 11
Sprach@@ 11
Sprache 11
Staat@@ 11
Staates 11
Ster@@ 11
Test 11
Tschech@@ 11
Unter@@ 11
Verfassung 11
Vi@@ 11
Volk 11
Wasser 11
York 11
Zigare@@ 11
acht 11
alten 11
amerikanische 11
aufge@@ 11
außerdem 11
av@@ 11
bes@@ 11
bzw. 11
ck 11
coin 11
denken 11
dete 11
ed 11
eher 11
ektionen 11
elle 11
enten 11
entfernt 11
erin 11
eva 11
fel 11
führte 11
gegeben 11
gegenüber 11
gehört 11
gew@@ 11
gewesen 11
gezeigt 11
gezwungen 11
gilt 11
ging 11
go 11
größere 11
größten 11
hin 11
id@@ 11
ja 11
ktion 11
la@@ 11
legen 11
leid 11
lern 11
manchmal 11
me 11
meinen 11
mer 11
natürlich 11
nehmen 11
nte 11
nächsten 11
politische 11
scher 11
sh@@ 11
sieht 11
son 11
spielen 11
stark 11
tere 11
ti@@ 11
tragen 11
ums 11
ungefähr 11
us@@ 11
vielleicht 11
vier 11
wer 11
wer@@ 11
wichtigsten 11
z. 11
zeit 11
zweiten 11
ß@@ 11
öffentlichen 11
25 10
3@@ 10
Ak@@ 10
Anwendung 10
Arbeits@@ 10
Aufgabe 10
Augen 10
Außerdem 10
B. 10
Band 10
Dezember 10
Dort 10
Einfluss 10
Eltern 10
Experim@@ 10
Fach@@ 10
Gegen@@ 10
Hand 10
Haus 10
Ko@@ 10
Krankheit 10
Krebs 10
London 10
Meer 10
Meine 10
Merk@@ 10
Meter 10
Milliarden 10
Monat 10
Monate 10
Mor@@ 10
Moskau 10
Nicht 10
Ol@@ 10
Organisation 10
Osten 10
Oxford 10
Par@@ 10
Peru 10
Planeten 10
Qu@@ 10
Raum 10
Recht 10
Regeln 10
Risiko 10
Stern@@ 10
Sz@@ 10
Sü@@ 10
Tabak@@ 10
Teil@@ 10
Text 10
Tri@@ 10
Um@@ 10
Urteil 10
Weltkrieg 10
Wochen 10
Wohn@@ 10
Wort 10
Zu@@ 10
Zukunft 10
angesehen 10
ator 10
baren 10
befindet 10
betrifft 10
bild@@ 10
bringt 10
bs@@ 10
c 10
chte 10
del 10
deutsche 10
dra@@ 10
du@@ 10
dürfen 10
einigen 10
ez 10
fest 10
gefunden 10
gekommen 10
gemeinsam 10
gemäß 10
gte 10
he 10
heit 10
ig@@ 10
ing@@ 10
jährige 10
ken@@ 10
l 10
laut 10
ll 10
lte 10
lus@@ 10
lässt 10
ma@@ 10
markt 10
mb@@ 10
meinem 10
möchte 10
niemand 10
nimmt 10
nisse 10
nt 10
ok@@ 10
ol@@ 10
op@@ 10
rea 10
recht 10
schaffen 10
schließlich 10
setzen 10
son@@ 10
sowohl 10
staaten 10
stu@@ 10
system 10
ta@@ 10
teil 10
teilen 10
ter@@ 10
tet 10
up@@ 10
vo 10
weise 10
wichtig 10
zei@@ 10
zer@@ 10
Ägypten 10
är@@ 10
í 10
Š@@ 10
.000 9
000 9
12 9
40 9
4@@ 9
6@@ 9
7@@ 9
AIDS 9
Bank@@ 9
Bas@@ 9
Benutzer 9
Berg@@ 9
Bilder 9
Botschaft 9
C 9
Daten 9
Deutschen 9
Donald 9
Druck 9
En@@ 9
Entscheidung 9
Entwicklung 9
Ergebnis 9
Feld 9
Forscher 9
Foto 9
Frü@@ 9
Gast@@ 9
Gesundheits@@ 9
Gewalt 9
Gruppen 9
Ihnen 9
Industrie 9
Informationen 9
Innen@@ 9
Israels 9
Journalisten 9
Jugendlichen 9
Ka@@ 9
Kampf 9
Kindern 9
Kopf 9
Laut 9
Lösung 9
Mc@@ 9
Medien 9
Mein 9
Migranten 9
Möglichkeit 9
N 9
Nor@@ 9
Obwohl 9
PS@@ 9
Pra@@ 9
Presse 9
Prin@@ 9
Rau@@ 9
Region 9
Republik 9
Revolution 9
San@@ 9
Schmer@@ 9
Schutz 9
Schwer@@ 9
Seiten 9
Selbst 9
Stadt@@ 9
Sternen@@ 9
Tages 9
Tat 9
Thema 9
Touristen 9
Treffen 9
Unter 9
Verfahren 9
Vic@@ 9
Waffe 9
Washington 9
Webseite 9
Wei@@ 9
Wirtschaft 9
Y@@ 9
Zugang 9
Zustand 9
ala 9
ales 9
alität 9
arbeiter 9
att@@ 9
au 9
auszu@@ 9
bli@@ 9
bt 9
burger 9
d. 9
deutschen 9
diejenigen 9
dieren 9
eb@@ 9
eigene 9
ell@@ 9
eller 9
enti@@ 9
erk@@ 9
erwartet 9
eten 9
fahrt 9
fer@@ 9
for@@ 9
fte 9
führer 9
gef@@ 9
gem@@ 9
gemein@@ 9
großer 9
gruppe 9
guten 9
heißt 9
ico 9
innen 9
insgesamt 9
isch@@ 9
isten 9
it 9
jahr@@ 9
je 9
jede 9
jedem 9
jen@@ 9
komm@@ 9
langen 9
lediglich 9
leisten 9
lernen 9
liches 9
lichkeit 9
ließ 9
lig 9
mann 9
mehreren 9
mi@@ 9
mü@@ 9
nationalen 9
ner 9
ner@@ 9
nämlich 9
ori@@ 9
po@@ 9
punkt 9
rei@@ 9
richtige 9
ru@@ 9
schaften 9
sechs 9
serv@@ 9
setzt 9
si 9
spiel 9
staat 9
stadt 9
ster 9
suchen 9
tern@@ 9
tik 9
unser 9
unterstützt 9
verabschiedet 9
verb@@ 9
verboten 9
verfolgen 9
verschiedenen 9
weg 9
weit 9
weitere 9
weltweit 9
wor@@ 9
zug 9
ße 9
äch@@ 9
ändern 9
í@@ 9
öh@@ 9
übrigens 9
21. 8
3 8
70 8
8@@ 8
9@@ 8
Abstimmung 8
All@@ 8
An 8
Angaben 8
Armee 8
Aus 8
Außenpolitik 8
Beamten 8
Beginn 8
Behörde 8
Bekan@@ 8
Besitz 8
Bezeichnung 8
Beziehung 8
Beziehungen 8
Bezirk 8
Bra@@ 8
Deshalb 8
Dieser 8
Donnerstag 8
Dorf 8
Dr. 8
Drogen@@ 8
Du 8
Durch@@ 8
Ehe@@ 8
Einige 8
Erde 8
Erfolg 8
Euro@@ 8
Familien 8
Fernsehen 8
Freu@@ 8
Gaz@@ 8
Generation 8
Ger@@ 8
Gesetzgebung 8
Gipfeltreffen 8
Gründung 8
HIV 8
Ham@@ 8
Handels@@ 8
Her@@ 8
Heute 8
Höhen@@ 8
Interessen 8
Israelis 8
Kar@@ 8
Karriere 8
Kin@@ 8
Krise 8
Kurs 8
Käufer 8
Lar@@ 8
Leiter 8
Letz@@ 8
Licht 8
Mensch 8
Menschenrechte 8
Mus@@ 8
Männer 8
Nacht 8
Natürlich 8
Netzwerk 8
Ob@@ 8
Obama 8
Oktober 8
Palästinenser 8
Parteien 8
Persönlichkeiten 8
Peters@@ 8
Physi@@ 8
Pil@@ 8
Platz 8
Polizei 8
Premierminister 8
R. 8
Realität 8
Roth@@ 8
Ru@@ 8
Saison 8
Samstag 8
Seine 8
Sicht 8
Spi@@ 8
Spre@@ 8
Straße 8
Stu@@ 8
Su@@ 8
Süden 8
Tage 8
Taus@@ 8
Tests 8
Titel 8
Tor@@ 8
Transa@@ 8
Union 8
Unternehmer 8
Vater 8
Verkehrs@@ 8
Virus 8
Wa@@ 8
Wunsch 8
Zusammenhang 8
abge@@ 8
ad 8
ado 8
ador 8
anderes 8
anders 8
ane 8
anti@@ 8
anzu@@ 8
apo@@ 8
arabischen 8
arbeitet 8
ard 8
ari@@ 8
assen 8
aten 8
ater 8
ati@@ 8
außer 8
ay 8
ba@@ 8
bahn 8
bec 8
behandelt 8
bekommen 8
bestimmten 8
bestätigt 8
bewegen 8
bietet 8
bisher 8
c@@ 8
ckt 8
darum 8
dern 8
deutlich 8
ds 8
ec@@ 8
eg@@ 8
eien 8
els 8
enn@@ 8
entgegen@@ 8
erinnert 8
erläutert 8
ern@@ 8
eter 8
f 8
fallen 8
frei 8
fü@@ 8
ga 8
gaben 8
ganze 8
gehei@@ 8
gelan@@ 8
geld 8
gelder 8
gend 8
gende 8
genommen 8
gering@@ 8
gesprochen 8
gewählt 8
glaubt 8
gleich 8
glich 8
h. 8
helfen 8
hen 8
her 8
hätten 8
ic@@ 8
ik@@ 8
il@@ 8
isen 8
islam@@ 8
ismus 8
jungen 8
ka@@ 8
kan 8
kaufen 8
kg 8
kla@@ 8
kleine 8
konnte 8
künst@@ 8
lang@@ 8
leg@@ 8
legt 8
lei@@ 8
lieb@@ 8
liegen 8
ließen 8
lin@@ 8
längst 8
meister@@ 8
miteinander 8
mo@@ 8
ni@@ 8
ob@@ 8
ome 8
ors 8
rate 8
reiche 8
reicht 8
reifen 8
res 8
richtig 8
rie@@ 8
ro 8
sa@@ 8
scheint 8
schil@@ 8
schla@@ 8
solche 8
ssen 8
stehenden 8
stre@@ 8
tausende 8
teilweise 8
tem 8
tions@@ 8
tlichen 8
treffen 8
ub@@ 8
vergleich@@ 8
verk@@ 8
verkauft 8
versichert 8
versuchen 8
veröffentlicht 8
vorsichtig 8
warten 8
warum 8
weis 8
weiterer 8
welche 8
wider@@ 8
wären 8
yes 8
zahlen 8
ze 8
zig 8
zumindest 8
Änderungen 8
ägyp@@ 8
ähnliche 8
ör@@ 8
überhaupt 8
č@@ 8
15@@ 7
16@@ 7
17 7
18 7
2009 7
2013 7
23 7
300 7
34 7
500 7
5@@ 7
6 7
60 7
Aff@@ 7
Ansicht 7
Ass@@ 7
Aufmerksamkeit 7
Aufträge 7
Ausstellung 7
Auswirkungen 7
Avi@@ 7
Beamte 7
Bereich 7
Besch@@ 7
Bild 7
Dann 7
Dokument 7
Einzel@@ 7
Eis 7
Fabri@@ 7
Fahr@@ 7
Fat@@ 7
Fisch 7
Fotos 7
Freitag 7
Fällen 7
Föder@@ 7
Förder@@ 7
Geburt 7
Gefahr 7
Gehir@@ 7
Gei@@ 7
Gel@@ 7
Gerichtshof 7
Gesch@@ 7
Gesicht 7
Gespräch 7
Gou@@ 7
Grenzen 7
H 7
Handel 7
Herr 7
Hy@@ 7
Ihr 7
Institu@@ 7
Iran 7
Islam@@ 7
Jahres 7
Jerusalem 7
Jetzt 7
Kilometer 7
Kommission 7
Kontroll@@ 7
Kontrollen 7
Korruption 7
Kr@@ 7
Lebens 7
Les@@ 7
Lim@@ 7
Lin@@ 7
Luft 7
Luft@@ 7
Meister@@ 7
Mengen 7
Min@@ 7
Mir@@ 7
Mis@@ 7
Mitglied 7
Mitte 7
Mittel 7
Monaten 7
Musik 7
Mü@@ 7
National@@ 7
Norwegen 7
Ober@@ 7
Op@@ 7
Pol@@ 7
Prag 7
Preis 7
Produkte 7
Projekte 7
Präsident@@ 7
Psych@@ 7
Rahmen 7
Rechts@@ 7
Reg@@ 7
Registrierung 7
Reihe 7
Reise 7
Restaurants 7
Roll@@ 7
Rück@@ 7
Sache 7
Sal@@ 7
Schnee 7
Schule 7
Sohn 7
Staatsan@@ 7
Studien 7
Stück 7
Super@@ 7
Sän@@ 7
Tagen 7
Te@@ 7
Tra@@ 7
Umgebung 7
Unterschied 7
Verein 7
Verfassungs@@ 7
Vul@@ 7
Warum 7
Wer@@ 7
Wäh@@ 7
X@@ 7
Zwei@@ 7
ach@@ 7
ager 7
aktion 7
aly@@ 7
amt 7
anischen 7
ant@@ 7
arbei@@ 7
ate 7
aufgenommen 7
aufzu@@ 7
ball@@ 7
bau@@ 7
bauen 7
befinden 7
bei@@ 7
betont 7
bevor 7
bezahlt 7
bs 7
da@@ 7
darunter 7
demokratische 7
denke 7
digen 7
drei@@ 7
dro@@ 7
durchgeführt 7
ebenso 7
eckt 7
ed@@ 7
ehemalige 7
ehr@@ 7
einfacher 7
eingesetzt 7
ender 7
eng@@ 7
entstehen 7
erenden 7
erhöht 7
eri@@ 7
erzählt 7
esch@@ 7
essi@@ 7
et 7
fahren 7
fern 7
fest@@ 7
ff@@ 7
fr@@ 7
fälle 7
gegangen 7
gehabt 7
gens 7
ges 7
glauben 7
größte 7
gs 7
ha@@ 7
haft 7
heiten 7
hervor 7
hervor@@ 7
ho@@ 7
höheren 7
hör@@ 7
im@@ 7
istischen 7
it@@ 7
jedes 7
ka 7
kenntnisse 7
konnten 7
lage 7
leicht 7
licher 7
log@@ 7
losen 7
länger 7
lü@@ 7
ma 7
machte 7
man@@ 7
mann@@ 7
me@@ 7
meines 7
meister 7
mel@@ 7
men@@ 7
ministerium 7
mm@@ 7
mussten 7
nennen 7
oh@@ 7
ohlen 7
ohn 7
ologie 7
one 7
ope 7
ops 7
ou@@ 7
plat@@ 7
positiv 7
pre@@ 7
private 7
ren 7
rt 7
russischen 7
ry 7
rä@@ 7
scheinen 7
schu@@ 7
schützen 7
selben 7
sichtlich 7
sieben 7
sionen 7
sische 7
sischen 7
sit@@ 7
somit 7
sorgen 7
staatliche 7
star@@ 7
starken 7
stat@@ 7
ste@@ 7
stellten 7
ster@@ 7
stor@@ 7
tatsächlich 7
terin 7
testen 7
tief@@ 7
tiger 7
tim@@ 7
tin 7
tionen 7
tlich 7
tro@@ 7
trotz 7
tsch@@ 7
tä@@ 7
und@@ 7
unternehmen 7
verdienen 7
verfügen 7
verlassen 7
verne@@ 7
vertrau@@ 7
vorher 7
weder 7
wohl 7
wollte 7
za 7
zehn 7
zige 7
zt 7
zusammen@@ 7
Öffentlichkeit 7
é@@ 7
ón 7
ün@@ 7
ř@@ 7
1,5 6
16 6
195@@ 6
1995 6
2004 6
2008 6
20@@ 6
33 6
400 6
80 6
9 6
Abkommen 6
Abschluss 6
Afghanistan 6
Alle 6
Am@@ 6
Amt 6
Andererseits 6
Anerkennung 6
Angst 6
Anteil 6
April 6
As@@ 6
Autor 6
Bedingungen 6
Beispielsweise 6
Bericht 6
Besuch 6
Bildern 6
Bildungs@@ 6
Blick 6
Brasilien 6
College 6
Da 6
Dabei 6
Dar@@ 6
Demokratie 6
Denken 6
Dol@@ 6
Dutz@@ 6
El@@ 6
Entwurf 6
Erinnerungen 6
Europäischen 6
Familien@@ 6
Fer@@ 6
Fernseh@@ 6
Fili@@ 6
Film@@ 6
Finanz@@ 6
Folgen 6
Forschung 6
Fre@@ 6
Gebur@@ 6
Gedanken 6
Gegensatz 6
Geheim@@ 6
Geld@@ 6
Ges@@ 6
Gesetzen 6
Gesetzes@@ 6
Gesundheit 6
Gewerkschaften 6
Grad 6
Großteil 6
Grund@@ 6
Ha@@ 6
Hau@@ 6
Hause 6
Hilfe 6
Hoch@@ 6
Hoffnung 6
Hub@@ 6
Ideen 6
Initiative 6
Ir@@ 6
Ist 6
Jahrhundert 6
Jahrhunderts 6
Januar 6
Kal@@ 6
Kan@@ 6
Kanada 6
Konflikt 6
Kor@@ 6
Kreis 6
Kri@@ 6
Kunst 6
Kunst@@ 6
Kurz@@ 6
König 6
Kü@@ 6
Künstler 6
Lei@@ 6
Lig@@ 6
Mai 6
Mannschaft 6
Marke 6
Martin 6
May@@ 6
Mehrheit 6
Menschheit 6
Migrations@@ 6
Mil@@ 6
Mili@@ 6
Moh@@ 6
Moment 6
Morgen 6
Männern 6
Nachdem 6
Nahen 6
Natur 6
Netzwerke 6
Ni@@ 6
Nic@@ 6
No@@ 6
Noch 6
Norwe@@ 6
Nun 6
Oder 6
Opfer 6
Pakistan 6
Petersburg 6
Pi@@ 6
Polen 6
Politiker 6
Puerto 6
Punkt 6
Rei@@ 6
Rich@@ 6
Rus@@ 6
Schluss 6
Schuld 6
Se@@ 6
Son@@ 6
Spiegel 6
Spiel 6
Spit@@ 6
Stau@@ 6
Stimmen 6
Studie 6
Stunde 6
Städten 6
Tatsache 6
Tatsächlich 6
Team 6
Technologien 6
Themen 6
To@@ 6
Tochter 6
Transaktionen 6
Tro@@ 6
Tut@@ 6
Twitter 6
Tätigkeit 6
Uhr 6
Ur@@ 6
Verbin@@ 6
Verbot 6
Verbrechen 6
Verf@@ 6
Vergleich 6
Verteidigung 6
Vielleicht 6
Vo@@ 6
War@@ 6
Webseiten 6
Welche 6
Wen@@ 6
Wich@@ 6
Wirtschafts@@ 6
Wissenschaftler 6
Wor@@ 6
Zentral@@ 6
Zäh@@ 6
abhängig 6
absolut 6
abzu@@ 6
ac@@ 6
aff@@ 6
agua 6
akzeptieren 6
akzeptiert 6
alte 6
amen 6
and 6
anderer 6
ange 6
angenehm 6
ani 6
anische 6
ann@@ 6
ans 6
ass 6
ausreichend 6
bahnen 6
bare 6
bec@@ 6
behandeln 6
beider 6
bereich 6
besitzen 6
beste 6
bestimmt 6
besuchen 6
betrug 6
bieten 6
bild 6
bit 6
blo@@ 6
brechen 6
brü@@ 6
bürgerschaft 6
ce 6
chen@@ 6
cks 6
cm 6
d.h. 6
daher 6
dar 6
deli@@ 6
derartige 6
dich 6
dicht 6
digung 6
din 6
dokum@@ 6
dunk@@ 6
durchzusetzen 6
einge@@ 6
einzelnen 6
elektro@@ 6
elten 6
emo@@ 6
emp@@ 6
endete 6
endlich 6
enthalten 6
entz@@ 6
erer 6
erhält 6
erklären 6
ernähr@@ 6
erter 6
erung 6
erwarten 6
essen 6
ester 6
fer 6
feu@@ 6
fl@@ 6
folgenden 6
for 6
fordern 6
forderten 6
form@@ 6
französischen 6
frau 6
freie 6
funktioniert 6
füh@@ 6
g. 6
gabe 6
gebaut 6
gebildet 6
gebor@@ 6
gefäl@@ 6
gelassen 6
genannt 6
genen 6
gericht 6
gesamten 6
gewal@@ 6
gewisse 6
gewissen 6
gewonnen 6
geworden 6
gh@@ 6
gingen 6
glaub@@ 6
gleichen 6
größeren 6
gten 6
gungs@@ 6
gäbe 6
hafte 6
hal@@ 6
handeln 6
hart 6
heraus 6
heutigen 6
hoffen 6
hohen 6
hä@@ 6
ieren 6
iert 6
ierte 6
igen 6
illegalen 6
inc@@ 6
inen 6
ingen 6
ings 6
inter@@ 6
isse 6
isse@@ 6
ist@@ 6
istisch 6
jenen 6
junge 6
kandi@@ 6
kin@@ 6
kl@@ 6
klagt 6
klasse 6
klein@@ 6
kontrollieren 6
kosten 6
kraft 6
ktor 6
körper@@ 6
lam@@ 6
lauf 6
leb@@ 6
leh@@ 6
ler@@ 6
letz@@ 6
leu@@ 6
lichkeiten 6
lie@@ 6
loh@@ 6
loss 6
lösen 6
mach@@ 6
magne@@ 6
messer 6
mindestens 6
mittel 6
möglicherweise 6
na 6
nachdem 6
nahe 6
neues 6
niemals 6
nis 6
no@@ 6
nor@@ 6
nüt@@ 6
of 6
offiziellen 6
organisierte 6
praktisch 6
pro@@ 6
ps 6
qu@@ 6
que 6
rat@@ 6
re 6
rechnen 6
recht@@ 6
registri@@ 6
reich@@ 6
republi@@ 6
scht 6
schw@@ 6
schwierig 6
seien 6
sen@@ 6
sexu@@ 6
spielt 6
spielte 6
spricht 6
stammen 6
stes 6
str@@ 6
stri@@ 6
strö@@ 6
ständig 6
sweise 6
sü@@ 6
tag 6
teil@@ 6
ters 6
tico 6
tieren 6
tigen 6
tiker 6
tisch 6
tliche 6
tor 6
tos 6
tr@@ 6
traum 6
tre@@ 6
trotzdem 6
trägt 6
tschech@@ 6
tu@@ 6
tw@@ 6
uch 6
ue 6
uli@@ 6
unbe@@ 6
unde 6
uner@@ 6
ungst@@ 6
unserem 6
unterwegs 6
ut@@ 6
ven 6
ven@@ 6
verbessern 6
verl@@ 6
verst@@ 6
verstehen 6
verwendet 6
vi@@ 6
virtuelle 6
voll 6
vollständig 6
vorge@@ 6
wander@@ 6
weisen 6
weiteren 6
werfen 6
wert 6
wirtschaftlichen 6
wo@@ 6
wollten 6
worfen 6
x@@ 6
zeichen 6
ziehen 6
ziert 6
zw@@ 6
Ä@@ 6
ß 6
äu@@ 6
äußerst 6
öffentliche 6
örtlichen 6
ül@@ 6
Č@@ 6
,@@ 5
0.000 5
00 5
14@@ 5
19. 5
1990 5
2007 5
23@@ 5
35 5
37 5
6. 5
6.@@ 5
7 5
A 5
Abend 5
Absch@@ 5
Ach@@ 5
Andere 5
Ansichten 5
Anstieg 5
Antwort 5
Anzahl 5
Ara@@ 5
Armut 5
Au@@ 5
Bal@@ 5
Bedeutung 5
Befürwor@@ 5
Behinderungen 5
Bei@@ 5
Bel@@ 5
Benutzer@@ 5
Berater 5
Bereits 5
Bes@@ 5
Beschwerden 5
Best@@ 5
Bewegung 5
Bibliothek 5
Bildung 5
Bisher 5
Black 5
Boh@@ 5
Branche 5
Bru@@ 5
Brüssel 5
Bu@@ 5
But@@ 5
Bücher 5
Chile 5
Chinesen 5
Co@@ 5
Cou@@ 5
D 5
Damals 5
Danach 5
Dazu 5
Dek@@ 5
Dem 5
Den@@ 5
Dokumente 5
Dre@@ 5
Dro@@ 5
Drogen 5
Du@@ 5
Durch 5
Durchschnitt 5
Ebene 5
Ebenso 5
Einrichtung 5
Einwohner 5
Energie 5
Ent@@ 5
Ereignisse 5
Erziehung 5
Essen 5
Existenz 5
Fahrer 5
Falle 5
Februar 5
Fli@@ 5
Forsch@@ 5
Fort@@ 5
Fortschritt 5
Fortschritte 5
Fragen 5
Freude 5
Funktion 5
Galax@@ 5
Gar@@ 5
Gebiet 5
Gelegenheit 5
Gespräche 5
Gläu@@ 5
Großbritannien 5
Gründe 5
Haf@@ 5
Haft@@ 5
Hand@@ 5
Hauptstadt 5
Haus@@ 5
He@@ 5
Herzen 5
Hinblick 5
Hinsicht 5
ID@@ 5
Ihrer 5
Interesse 5
Internationalen 5
Ja 5
James 5
Jed@@ 5
Jede 5
Jeder 5
Jes@@ 5
Jungen 5
Juni 5
K 5
Kampagne 5
Kat@@ 5
Ke@@ 5
Klin@@ 5
Kollegen 5
Konzerte 5
Krankenhaus 5
Krankheiten 5
Kreu@@ 5
Krimin@@ 5
Kultur@@ 5
Kä@@ 5
Kämp@@ 5
Körper@@ 5
Lab@@ 5
Labor 5
Large 5
Lauf@@ 5
Liberalen 5
Lie@@ 5
Liste 5
Löhne 5
Man@@ 5
Markt 5
Messenger 5
Mi@@ 5
Mitglieds@@ 5
Mode 5
Mu@@ 5
Mutter 5
Nas@@ 5
Net@@ 5
Nord@@ 5
O 5
On@@ 5
Pap@@ 5
Parag@@ 5
Parlament 5
Per@@ 5
Pflicht 5
Plan 5
Poli@@ 5
Pop@@ 5
Por@@ 5
Prinzip 5
Prinzipien 5
Programm 5
Prä@@ 5
Prüfung 5
Regierungen 5
Respekt 5
Ri@@ 5
Rückkehr 5
ST@@ 5
Schaffung 5
Schlüssel@@ 5
Schritte 5
Schwierigkeiten 5
Sens@@ 5
Sex@@ 5
Si@@ 5
Sicherheit 5
Sicherheits@@ 5
Sper@@ 5
Sport@@ 5
Statistik 5
Status 5
Stelle 5
Stephen 5
Sti@@ 5
Stimm@@ 5
Systems 5
Süd@@ 5
TA 5
Teh@@ 5
Tel 5
Temperaturen 5
Tob@@ 5
Tony 5
Trainer 5
Tre@@ 5
Typ 5
Türkei 5
Ukraine 5
Umfrage 5
Unsere 5
Unterschiede 5
Verantwortung 5
Verbesserung 5
Verbindung 5
Verein@@ 5
Verkauf 5
Verkaufs@@ 5
Versammlung 5
Versch@@ 5
Vertreter 5
Vorschlag 5
Vorsitzende 5
Welle 5
West@@ 5
Wiki@@ 5
Wird 5
Würde 5
Zeitraum 5
Zur 5
Zweiten 5
abgeschlossen 5
acco 5
ademi@@ 5
afgh@@ 5
age 5
ah 5
aj@@ 5
aks 5
alter 5
altung 5
amp@@ 5
analysiert 5
ang 5
angekommen 5
annen 5
anschließend 5
ap@@ 5
app@@ 5
are 5
aren 5
aria 5
asi@@ 5
asse 5
ates 5
ativ 5
ats 5
ats@@ 5
außerhalb 5
ban@@ 5
beam@@ 5
beginnt 5
behauptet 5
behörden 5
bek@@ 5
bekannten 5
bekämpfen 5
benen 5
berichtet 5
bern 5
bestehen 5
besucht 5
beteiligt 5
bewusst 5
bezeichnet 5
bist 5
ble@@ 5
boden 5
brachte 5
brauchen 5
braucht 5
chinesischen 5
chs@@ 5
chtung 5
co 5
coins 5
cope 5
cz 5
damals 5
dan@@ 5
dennoch 5
des@@ 5
dien@@ 5
dis@@ 5
discher 5
do@@ 5
dreht 5
drängt 5
dä@@ 5
ech@@ 5
eck@@ 5
eda 5
eigentliche 5
einfachen 5
einheitliche 5
eit 5
eld 5
elo@@ 5
entiert 5
ere@@ 5
erinn@@ 5
erkennen 5
erlaubt 5
ermor@@ 5
ermöglicht 5
ess@@ 5
est@@ 5
eten@@ 5
ets 5
ette 5
europäische 5
existiert 5
fahrt@@ 5
fangs 5
fe@@ 5
fel@@ 5
fik@@ 5
findet 5
fol@@ 5
folgen 5
fra@@ 5
fragt 5
fragte 5
fre@@ 5
frei@@ 5
freiheit 5
ften 5
funden 5
fung 5
fördern 5
füllt 5
gabe@@ 5
gal@@ 5
ganzen 5
geboten 5
gebracht 5
gefangen 5
gegenwärtig 5
gekauft 5
gekehrt 5
gelangt 5
gelingt 5
gelten 5
gemeinsamen 5
genie@@ 5
geschrieben 5
gesetz@@ 5
gesetzt 5
gestellt 5
gestern 5
gewöh@@ 5
gezogen 5
gr@@ 5
greifen 5
hast 5
hauptsächlich 5
hem@@ 5
herauszu@@ 5
herrscht 5
hersteller 5
herum 5
hier@@ 5
hingegen 5
hinter@@ 5
hoch 5
hoffe 5
hohe 5
hren 5
hundert 5
hängt 5
höchsten 5
hören 5
ich@@ 5
ier 5
ige 5
iger 5
igten 5
informieren 5
inge 5
internationale 5
ir 5
istische 5
iz@@ 5
j 5
jüdischen 5
kapital 5
kel@@ 5
kenn@@ 5
ket@@ 5
klar 5
krank@@ 5
kurs 5
kurz 5
könne 5
lag@@ 5
lagern 5
len@@ 5
liber@@ 5
lig@@ 5
ligen 5
lim@@ 5
lose 5
lten 5
län@@ 5
mag 5
mal@@ 5
meist 5
merkt 5
militärischen 5
ms 5
musste 5
nationale 5
neu 5
neu@@ 5
neuer 5
notwendig 5
näher 5
ober@@ 5
off@@ 5
ole 5
onen 5
ong@@ 5
ons 5
ord@@ 5
ory 5
ow 5
perfekt 5
politischen 5
ppen 5
privat 5
r 5
rechts 5
reden 5
relativ 5
rich@@ 5
rund 5
rup@@ 5
russische 5
rü@@ 5
rück@@ 5
sc@@ 5
sches 5
schlecht 5
schutz 5
schä@@ 5
sei@@ 5
sel@@ 5
seln 5
sern 5
ses 5
ses@@ 5
setzung 5
sichti@@ 5
sichts@@ 5
sigkeit 5
sorgt 5
soziale 5
spüren 5
steigen 5
stellte 5
stimmen 5
ston 5
stronom@@ 5
tags@@ 5
teilt 5
teilte 5
tende 5
tests 5
teten 5
th 5
ti 5
tigte 5
tik@@ 5
tot 5
tri@@ 5
trä@@ 5
tten@@ 5
ture 5
ul 5
unge@@ 5
untersuchen 5
unver@@ 5
ure 5
uren 5
urer 5
verantwortlich 5
verdient 5
verein@@ 5
verfahren 5
verkaufen 5
verringern 5
vers@@ 5
verschiedener 5
versuchte 5
verwaltung 5
voller 5
vollkommen 5
vorhanden 5
völlig 5
wahlen 5
wal@@ 5
weist 5
weitaus 5
wenden 5
wenige 5
westlichen 5
wichtige 5
wichtigen 5
wie@@ 5
wil@@ 5
win@@ 5
wirkt 5
wissenschaftliche 5
woh@@ 5
wood 5
wäh@@ 5
wälte 5
wär@@ 5
wür@@ 5
würfe 5
z.B. 5
zeichnet 5
zeitgenös@@ 5
ziemlich 5
zigen 5
zogen 5
zunächst 5
zus@@ 5
zweite 5
zäh@@ 5
Ägyp@@ 5
Ú@@ 5
ßt 5
ähn@@ 5
ähnlich 5
äl@@ 5
ó@@ 5
überall 5
übertrag@@ 5
überzeugt 5
ühm@@ 5
ür@@ 5
.com 4
0,@@ 4
11 4
12@@ 4
13 4
13@@ 4
1956 4
1988 4
1991 4
1994 4
20. 4
2000 4
2001 4
2006 4
200@@ 4
2@@ 4
31 4
46 4
50@@ 4
Adresse 4
Alles 4
American 4
Amts@@ 4
Amtszeit 4
Anfrage 4
Angel@@ 4
Anhörung 4
Annahme 4
Aqu@@ 4
Arbeiter 4
Ari@@ 4
Arten 4
Aspekt 4
Atmosphäre 4
Auflösung 4
Aufnahme 4
Auge 4
Aussch@@ 4
Ausschuss 4
Austausch 4
Australien 4
Autob@@ 4
B 4
Bay@@ 4
Bedenken 4
Beein@@ 4
Beg@@ 4
Beim 4
Beitrag 4
Ben 4
Beruf@@ 4
Beste 4
Beweise 4
Bier 4
Bio@@ 4
Bis 4
Blo@@ 4
Bot@@ 4
Br@@ 4
British 4
Buch 4
Can@@ 4
Chance 4
Chaos 4
Char@@ 4
Chef 4
Dafür 4
Dec@@ 4
Deli@@ 4
Demon@@ 4
Dennoch 4
Des@@ 4
Direk@@ 4
Dor@@ 4
Dra@@ 4
Dunk@@ 4
Durchführung 4
ES@@ 4
Einsatz 4
Eli@@ 4
England 4
Englisch 4
Erachtens 4
Erhöhung 4
Erkenn@@ 4
Erst@@ 4
Eröffnung 4
Europäische 4
Facebook 4
Fein@@ 4
Fi@@ 4
Fig@@ 4
Finger@@ 4
Fleisch 4
Flu@@ 4
Flug@@ 4
Frem@@ 4
Freund 4
Friday 4
Fäl@@ 4
Führung 4
Führungs@@ 4
Geb@@ 4
Gebieten 4
Geburts@@ 4
Gefängnis 4
Gefühl 4
Gegner 4
Geh@@ 4
Gemeinde 4
Gemeinden 4
Gemäß 4
Geschäft 4
Geschäfts@@ 4
Gest@@ 4
Gewerk@@ 4
Gewicht 4
Gipfel@@ 4
Glas@@ 4
Gleich@@ 4
Gri@@ 4
Größe 4
Heidelberg 4
Herbst 4
Hu@@ 4
Hunder@@ 4
Hälfte 4
Händler 4
Identität 4
Immun@@ 4
Insel 4
Integration 4
Interpre@@ 4
Jesus 4
John 4
José 4
Journ@@ 4
Juden 4
Jugendliche 4
Jun@@ 4
Kab@@ 4
Kameras 4
Kapital 4
Kapitel 4
Kil@@ 4
Kinder@@ 4
Kleidung 4
Klein@@ 4
Kn@@ 4
Kom@@ 4
Kompetenzen 4
Konkurrenz 4
Konzer@@ 4
Kranken@@ 4
Kreuz@@ 4
Kriegs@@ 4
Kritik 4
Ku@@ 4
Kurse 4
Land@@ 4
Lateinamerika 4
Lau@@ 4
Leben@@ 4
Lebensqualität 4
Leg@@ 4
Leuten 4
Lu@@ 4
Lö@@ 4
Mal@@ 4
Mand@@ 4
Marken 4
Maschine 4
Masse 4
Material 4
Mehr 4
Mehrere 4
Meinungen 4
Meinungs@@ 4
Meister 4
Menschen@@ 4
Mindest@@ 4
Minuten 4
Mio. 4
Mitarbeitern 4
Mittel@@ 4
Museen 4
Mädchen 4
Mö@@ 4
Nam@@ 4
Neben 4
Nieder@@ 4
Norden 4
Not@@ 4
Nur 4
Objek@@ 4
Objekte 4
Ohne 4
Orten 4
PR@@ 4
Pat@@ 4
Pflege 4
Pierre 4
Plan@@ 4
Pres@@ 4
Presse@@ 4
Provinz 4
Präsidentschafts@@ 4
Pu@@ 4
Punkten 4
Reaktionen 4
Rechte 4
Rechts 4
Rechtsan@@ 4
Rechtsprechung 4
Regierungs@@ 4
Reise@@ 4
Reisen 4
Rek@@ 4
Ret@@ 4
Richter 4
Ring 4
Sam@@ 4
Schla@@ 4
Schu@@ 4
Schulen 4
Schweden 4
Schwellen@@ 4
Schwier@@ 4
Sek@@ 4
Sem@@ 4
September 4
Sieg 4
Singap@@ 4
Sk@@ 4
So@@ 4
Sol@@ 4
Sonn@@ 4
Spiegel@@ 4
Spiele 4
Spielen 4
Start@@ 4
Stellen 4
Sterne 4
Stimme 4
Städte 4
Suche 4
Texas 4
The@@ 4
Theater 4
Traum 4
Trotz 4
Trä@@ 4
Unterstützung 4
Ursache 4
Venezuela 4
Verabschiedung 4
Verbün@@ 4
Vereinten 4
Verhalten 4
Verk@@ 4
Verständnis 4
Verteidigungs@@ 4
Veröffentlichung 4
Voraussetzung 4
Vorfeld 4
Wahl 4
Wahrheit 4
Wettbewerb 4
Win@@ 4
Wohnung 4
Währung 4
Währungen 4
Yor@@ 4
YouTube 4
Zahlungs@@ 4
Zehn@@ 4
Zeiten 4
Zeu@@ 4
Zweck 4
ack@@ 4
aden 4
ahn@@ 4
aktive 4
alisiert 4
alisierung 4
allgemeinen 4
amm@@ 4
and@@ 4
ands 4
angeblich 4
angeboten 4
angefangen 4
angegriffen 4
angesichts 4
annehmen 4
annte 4
ansehen 4
ant 4
ante 4
antwor@@ 4
antwortet 4
aqu@@ 4
ara 4
arab@@ 4
argum@@ 4
aro@@ 4
ass@@ 4
ater@@ 4
ative 4
atoren 4
atorium 4
aufen 4
ausgaben 4
ausgeschlossen 4
ausgestellt 4
auslän@@ 4
ausschließlich 4
auswirken 4
ausüben 4
aut 4
außen 4
avi@@ 4
bau 4
bedeu@@ 4
bedingungen 4
befassen 4
begannen 4
behaupten 4
beide 4
beitragen 4
bekam 4
beliebt 4
bemühen 4
ben@@ 4
bereitet 4
berühmt 4
bes 4
beschlossen 4
beschreibt 4
beschäftigt 4
besetz@@ 4
besonderen 4
bessere 4
best@@ 4
bestimmte 4
bestä@@ 4
bestätigen 4
bet@@ 4
bezeichnen 4
bilden 4
bildet 4
birgt 4
ble 4
bra@@ 4
brau@@ 4
bungen 4
bür@@ 4
ca. 4
cal 4
cel@@ 4
che@@ 4
chern 4
co@@ 4
dachte 4
dagegen 4
dank 4
deckt 4
demokratischen 4
dent 4
dez 4
di 4
dia 4
dienen 4
dienst 4
dient 4
digt 4
direkt 4
dlich 4
don 4
done@@ 4
dorthin 4
dr@@ 4
druck 4
druckt 4
drängen 4
drücken 4
dung 4
echte 4
eh@@ 4
ehemaligen 4
eht 4
ei 4
einander 4
einfache 4
eingeführt 4
eingesch@@ 4
einiger 4
eins 4
einsch@@ 4
einschließlich 4
einzu@@ 4
eiten 4
ele 4
engen 4
enger 4
entlang 4
entschieden 4
entspricht 4
enz 4
enz@@ 4
eres 4
erfolgt 4
erfolgte 4
erhielt 4
erhoben 4
erhöhte 4
erkannt 4
erlebt 4
erre@@ 4
ersch@@ 4
erscheint 4
erschien 4
erwar@@ 4
est 4
ev@@ 4
ex@@ 4
ey 4
falschen 4
feh@@ 4
fei@@ 4
feld 4
fes@@ 4
fiel 4
fin@@ 4
finanziert 4
fiziert 4
flo@@ 4
fordert 4
freien 4
frü@@ 4
fuhr 4
fähigkeit 4
fän@@ 4
förder@@ 4
fühlen 4
führende 4
führten 4
führung 4
ganzes 4
garde 4
gebenden 4
gebir@@ 4
geboren 4
gebühren 4
gefallen 4
gefällt 4
geführt 4
geh@@ 4
gehenden 4
gehören 4
gehörige 4
gehörte 4
gel 4
gelungen 4
gem 4
gemeldet 4
gemä@@ 4
geplant 4
gerich@@ 4
gerne 4
gert 4
geschaffen 4
geschickt 4
geschäf@@ 4
geseh@@ 4
gesellschaftlichen 4
gesetzlich 4
gesp@@ 4
gespielt 4
get@@ 4
getötet 4
gewis@@ 4
gkeit 4
gliche 4
glichen 4
glücklich 4
greif@@ 4
guter 4
hand@@ 4
haupt 4
heraus@@ 4
heutzutage 4
hielt 4
hoch@@ 4
hor@@ 4
hr 4
ht 4
hte 4
ier@@ 4
igkeit 4
ik 4
illegale 4
ina 4
indert 4
inf@@ 4
ink@@ 4
innerhalb 4
interessante 4
interessiert 4
interpre@@ 4
isches 4
italienischen 4
ität 4
izi@@ 4
jemals 4
jener 4
jährigen 4
kali@@ 4
kamen 4
kamp@@ 4
kapit@@ 4
ke@@ 4
keiner 4
keinerlei 4
kleiner 4
klingt 4
km 4
kn@@ 4
konto 4
konzentrieren 4
krise 4
kulturellen 4
kum@@ 4
kämpfen 4
kümmern 4
lad@@ 4
laden 4
ladimir 4
langer 4
langfristig 4
lars 4
lat@@ 4
lau@@ 4
laufen 4
lebt 4
legal 4
leiden 4
leider 4
leistung 4
les@@ 4
ley 4
lich@@ 4
lieben 4
lief 4
liefert 4
lik@@ 4
lische 4
lo 4
low 4
luss@@ 4
ländern 4
mark@@ 4
mat@@ 4
medizin@@ 4
medizinischen 4
menschlichen 4
min@@ 4
mittlerweile 4
modernen 4
mond 4
mt 4
mut@@ 4
mächtigen 4
mögen 4
müsse 4
nahmen 4
nde 4
nennt 4
nice 4
no 4
nom@@ 4
noten 4
nung 4
nutzen 4
nächste 4
offenen 4
offiziell 4
organisiert 4
ote 4
our@@ 4
ovi@@ 4
pack@@ 4
palästinensischen 4
pan@@ 4
pe@@ 4
persönlich 4
pflan@@ 4
physi@@ 4
plan@@ 4
politik 4
positive 4
pper 4
raten 4
rati@@ 4
rau@@ 4
raum 4
rechte 4
regierung 4
regionalen 4
reguli@@ 4
reichen 4
retten 4
rief 4
ruft 4
römischen 4
sage 4
sahen 4
sam@@ 4
sammeln 4
schafts@@ 4
schauen 4
schei@@ 4
schließen 4
schreiben 4
schrieb 4
schul@@ 4
schwarzen 4
schwere 4
schweren 4
schwierige 4
schön 4
selts@@ 4
serie 4
servative 4
servativen 4
set 4
setzte 4
sich@@ 4
sierten 4
signi@@ 4
sing@@ 4
sisch 4
sischer 4
sm@@ 4
smus 4
spann@@ 4
sparen 4
spek@@ 4
spezi@@ 4
spiegel 4
spiel@@ 4
ss 4
ssig 4
staatlichen 4
stammt 4
stanzen 4
starke 4
statt@@ 4
stattdessen 4
stelle 4
stens 4
still@@ 4
stimmt 4
strafrech@@ 4
strah@@ 4
stärker 4
stützt 4
sz@@ 4
ta 4
tak@@ 4
teile 4
teln 4
tes@@ 4
theit 4
tigten 4
tiven 4
tra@@ 4
trag@@ 4
treff@@ 4
tritt 4
trug 4
trägen 4
tschaft 4
tsp@@ 4
tungen 4
ulation 4
umgeben 4
una 4
unbesch@@ 4
uneingeschränkt 4
unzählige 4
ura 4
uri@@ 4
urs 4
verabschie@@ 4
verbreitet 4
verfü@@ 4
verfügt 4
verhindern 4
verkauf@@ 4
verlangen 4
vermutlich 4
verringert 4
verschieden@@ 4
versprochen 4
versuche 4
vertei@@ 4
vertreten 4
verändern 4
vez 4
voll@@ 4
voraus 4
vorbereitet 4
vorherigen 4
wa 4
wachsende 4
wahr@@ 4
wahren 4
wan@@ 4
weiter@@ 4
welchen 4
welcher 4
weren 4
werte 4
wesentlich 4
weshalb 4
wichtigste 4
wing 4
wirken 4
wis@@ 4
wuchs 4
zahlreiche 4
zen@@ 4
zent 4
zieh@@ 4
zieht 4
zio 4
zugän@@ 4
zung 4
zustand 4
zustellen 4
zuvor 4
zwangsläufig 4
zweifellos 4
zählen 4
zählt 4
zü@@ 4
° 4
Ü@@ 4
ähr@@ 4
ähri@@ 4
ältesten 4
ände 4
äng@@ 4
äre 4
übernahm 4
übernehmen 4
überzeugen 4
übt 4
ück@@ 4
ücken 4
üh@@ 4
ě@@ 4
1.@@ 3
1962 3
1965 3
197@@ 3
2,5 3
200 3
2014 3
26 3
27 3
3,@@ 3
3. 3
36 3
45 3
5000 3
62 3
65 3
75 3
8.@@ 3
90 3
A. 3
AS@@ 3
Abend@@ 3
Abendessen 3
Absicht 3
Absol@@ 3
Abstand 3
Abweich@@ 3
Ad@@ 3
Africa 3
Afrikas 3
Aktivitäten 3
Aktu@@ 3
Alkohol 3
Alltag 3
Also 3
Ameri@@ 3
Andr@@ 3
Angelegenheit 3
Anträge 3
Apo@@ 3
Arbeitslosigkeit 3
Argentinien 3
Arzt 3
At@@ 3
Atom@@ 3
Aufhebung 3
Aufnahmen 3
Ausdruck 3
Aussage 3
Auto 3
Außen@@ 3
Av@@ 3
Az@@ 3
BBC 3
Bab@@ 3
Bank 3
Bauern 3
Beau@@ 3
Begeisterung 3
Bene@@ 3
Beobach@@ 3
Bergen 3
Beschäftigten 3
Bestand 3
Bestimmungen 3
Betrug 3
Bevölkerungs@@ 3
Beweis 3
Bewohner 3
Boden 3
Bor@@ 3
Bord 3
Brenn@@ 3
Bron@@ 3
Brüder 3
Burg 3
Bus 3
Ca@@ 3
Cann@@ 3
Center 3
Cer@@ 3
Chancen 3
Christ@@ 3
Christi@@ 3
Ci@@ 3
Clo@@ 3
Com@@ 3
Compu@@ 3
Computer@@ 3
Con@@ 3
DS 3
Daniel 3
Darauf 3
Dass 3
Datei 3
Datum 3
Derzeit 3
Details 3
Diagnose 3
Dienst 3
Dikt@@ 3
Dis@@ 3
Dum@@ 3
ED 3
EM 3
EZB 3
Ehr@@ 3
Ehre 3
Eigen@@ 3
Eigentums 3
Eindruck 3
Einen 3
Eink@@ 3
Einkommen 3
Einladung 3
Einwanderer 3
End@@ 3
Engli@@ 3
Ep@@ 3
Erfahrung 3
Ergebnisse 3
Erwachsene 3
Erwachsenen 3
Europas 3
Exper@@ 3
Extre@@ 3
F 3
Fa@@ 3
Fahrt 3
Fal@@ 3
Farb@@ 3
Farbe 3
Farben 3
Fei@@ 3
Fel@@ 3
Fern@@ 3
Festival 3
Festung 3
Filme 3
Finanzierung 3
Fisch@@ 3
Flo@@ 3
Flug 3
Flughafen 3
Flü@@ 3
Folge 3
Forderung 3
Form@@ 3
Formul@@ 3
Formulierung 3
Forschungs@@ 3
Franzö@@ 3
Französisch 3
Frieden 3
Frühjahr 3
Frühling 3
Föderation 3
Führer 3
Für@@ 3
Ganze 3
Gas 3
Gebäude 3
Gefühle 3
Gemein@@ 3
Gemüse 3
Gen@@ 3
General@@ 3
Gericht@@ 3
Gerichten 3
Gerichtshofs 3
Gesamt@@ 3
Geschäfte 3
Geschäftsführer 3
Gesetzgeber 3
Gew@@ 3
Gewal@@ 3
Gil@@ 3
Glas 3
Go@@ 3
Golf@@ 3
Grenz@@ 3
Grenze 3
Großen 3
Grundlage 3
Grundlagen 3
Gründen 3
Gültigkeit 3
Hab@@ 3
Haben 3
Haftung 3
Hal@@ 3
Haup@@ 3
Hav@@ 3
Heimat 3
Hel@@ 3
Herkunft 3
Herrn 3
Hersteller 3
Hil@@ 3
Hilfen 3
Hinweis 3
Ho@@ 3
Holl@@ 3
Holz@@ 3
Hom@@ 3
Hotel@@ 3
House 3
Hunderte 3
Hän@@ 3
Händen 3
Höhepunkt 3
IG@@ 3
Identi@@ 3
Indien 3
Information 3
Ingenie@@ 3
Inhalt 3
Internet@@ 3
Isa@@ 3
Italien 3
Jag@@ 3
Jahrzehnte 3
Jahrzehnten 3
Japan 3
Je 3
Jedoch 3
Jer@@ 3
Jor@@ 3
Juli 3
Kamera 3
Kampagnen 3
Kampf@@ 3
Kanal 3
Kandi@@ 3
Kann 3
Kari@@ 3
Karls@@ 3
Kau@@ 3
Kauf 3
Kei@@ 3
Kein 3
Ken@@ 3
Kl@@ 3
Kolumbien 3
Kombination 3
Kongres@@ 3
Konkur@@ 3
Kontakt 3
Konz@@ 3
Kraft@@ 3
Kuba 3
Kul@@ 3
Kunden 3
Kö@@ 3
Kör@@ 3
Kürz@@ 3
Kürze 3
La 3
Lad@@ 3
Lager 3
Lang@@ 3
Laufe 3
Lebensmittel@@ 3
Legen@@ 3
Legitimität 3
Leider 3
Liber@@ 3
Liebe 3
Linie 3
Liter@@ 3
Literatur 3
Lizenz@@ 3
Los 3
Luxus@@ 3
Lyon 3
Lösungen 3
Madrid 3
Mail 3
Mak@@ 3
Manchmal 3
Mark@@ 3
Mat@@ 3
Maße 3
Meeres@@ 3
Meinungsäußerung 3
Men@@ 3
Mes@@ 3
Milch@@ 3
Militär 3
Minderheiten 3
Mitgliedern 3
Modell 3
Museums 3
Mut 3
Mutter@@ 3
März 3
Möglichkeiten 3
Na@@ 3
Nachweis 3
Nat@@ 3
Nation 3
Ner@@ 3
Netz 3
Netz@@ 3
Nich@@ 3
Normen 3
Notwendigkeit 3
Nutz@@ 3
Nähe 3
Oberfläche 3
Offizi@@ 3
Opposition 3
Ord@@ 3
Organ@@ 3
Organisationen 3
Orienti@@ 3
Ost@@ 3
Pa@@ 3
Palästina 3
Palästinen@@ 3
Paris 3
Partei@@ 3
Pe@@ 3
Periode 3
Persönlichkeit 3
Pfle@@ 3
Phot@@ 3
Pit@@ 3
Pla@@ 3
Plätze 3
Post 3
Pr@@ 3
Praxis 3
Pre@@ 3
Press 3
Privatsphäre 3
Problematik 3
Prof. 3
Projekten 3
Prop@@ 3
Prü@@ 3
Pum@@ 3
Ra@@ 3
Radi@@ 3
Rechnungs@@ 3
Referendum 3
Regel 3
Regime 3
Regulierung 3
Reichtum 3
Religions@@ 3
Republi@@ 3
Residenz 3
Ress@@ 3
Rest 3
Richtlinien 3
Risi@@ 3
Risiken 3
Rober@@ 3
Rollen 3
Ros@@ 3
San 3
Sand@@ 3
Schatten 3
Schauspieler 3
Schi@@ 3
Schmi@@ 3
Schnit@@ 3
Schon 3
Schritt 3
Schwar@@ 3
Schwäche 3
Sein 3
Serie 3
Sex 3
Sh@@ 3
Situationen 3
Sitz 3
Sitzung 3
Skand@@ 3
Som@@ 3
Sommer 3
Sonne 3
Sowohl 3
Space 3
Spanisch 3
Spielern 3
Spitze 3
Später 3
Staats- 3
Stad@@ 3
Standard 3
Standard@@ 3
Star 3
Stattdessen 3
Stell@@ 3
Stre@@ 3
Streben 3
Stress 3
Stur@@ 3
Stä@@ 3
Sub@@ 3
Sur@@ 3
Sy@@ 3
Säu@@ 3
Südafrika 3
Südo@@ 3
Taliban 3
Techni@@ 3
Technologie 3
Teilnehmer 3
Terroristen 3
Tiefe 3
Tit@@ 3
Tod 3
Toi@@ 3
Trotzdem 3
Truppen 3
Tschechischen 3
Tür 3
Universitäten 3
Uns 3
Unternehmens@@ 3
Untersuchung 3
V 3
Valle 3
Ven@@ 3
Veranstaltungs@@ 3
Vereinigung 3
Verfasser 3
Verfügung 3
Vergangenheit 3
Verhandlungen 3
Verkehr 3
Verkäufer 3
Vermö@@ 3
Verordnung 3
Verordnungen 3
Verringerung 3
Vers@@ 3
Versuch 3
Vertei@@ 3
Verwaltung 3
Verwand@@ 3
Verwendung 3
Veränderungen 3
Video 3
Video@@ 3
Viel@@ 3
Vier@@ 3
Viertel 3
Vir@@ 3
Vol@@ 3
Volks@@ 3
Voll@@ 3
Voraus 3
Vorbild 3
Vorhaben 3
Vorstellung 3
Vorteil 3
Vorteile 3
Vulkan@@ 3
Wachstum 3
Wahrscheinlichkeit 3
War 3
Wasser@@ 3
Wege 3
Wegen 3
Weitere 3
Wert 3
Wesen 3
Wettbewerbs 3
Widerspruch 3
Wieder@@ 3
Winter@@ 3
Wirkung 3
Wochenende 3
Wohnungen 3
Worten 3
Währ@@ 3
Zahlen 3
Zeitpunkt 3
Zeitung 3
Zentralbank 3
Zentralbanken 3
Zer@@ 3
Ziel@@ 3
Zimmer 3
Zul@@ 3
Zur@@ 3
abend 3
abgehalten 3
absol@@ 3
achte 3
ack 3
adal@@ 3
ade 3
ados 3
af@@ 3
ag 3
ahl 3
ahnen 3
ai@@ 3
airo 3
ak 3
aktiv 3
aktuelle 3
aktuellen 3
ald 3
alis@@ 3
allzu 3
amb@@ 3
amerika 3
amin 3
anderem 3
anen 3
anfangen 3
angekündigt 3
angenommen 3
angewendet 3
anmelden 3
ans@@ 3
anzugehen 3
anzunehmen 3
arbeitete 3
arch@@ 3
archi@@ 3
area 3
arien 3
ario 3
armen 3
art@@ 3
arten 3
artiges 3
ash@@ 3
asser 3
assi@@ 3
ast 3
aterie 3
ation 3
atives 3
att 3
atur@@ 3
auer 3
aufs 3
auftreten 3
aum 3
auseinander@@ 3
ausgegangen 3
ausländischen 3
ausmachen 3
aussch@@ 3
aut@@ 3
ax@@ 3
az@@ 3
bald 3
barkeit 3
bedeuten 3
bedeutende 3
beeindruck@@ 3
beeinflussen 3
beeinflusst 3
beendet 3
beginn 3
begrenzen 3
behalten 3
behand@@ 3
behindern 3
benutzen 3
benötigen 3
beobachtet 3
ber 3
berücksichtigen 3
berücksichtigt 3
berühmte 3
beschei@@ 3
beschränkt 3
beschäftigen 3
besitz@@ 3
besitzt 3
bestand 3
bet 3
betei@@ 3
beteiligung 3
betrachtet 3
bevorstehenden 3
bevölkerung 3
bewer@@ 3
bewerten 3
bezahlen 3
bezieht 3
bezüglich 3
biger 3
bik 3
billi@@ 3
bin@@ 3
binden 3
bislang 3
blau@@ 3
blieben 3
blä@@ 3
bot 3
br@@ 3
bru@@ 3
buch 3
bung 3
bürger@@ 3
bürgerlichen 3
cent 3
ches 3
chine@@ 3
chn@@ 3
christlichen 3
cht@@ 3
chti@@ 3
chtig 3
ci@@ 3
cia 3
cke 3
cz@@ 3
dad 3
daraus 3
darstellen 3
darstellt 3
dauerhaft 3
davor 3
deck@@ 3
decke 3
deckung 3
derart 3
ders 3
derten 3
deter 3
deut@@ 3
diente 3
dierung 3
diger 3
digte 3
dimension@@ 3
diplomatischen 3
dir 3
direk@@ 3
dische 3
dischen 3
dom 3
dre@@ 3
dreißig 3
dritte 3
dritten 3
dungen 3
dur@@ 3
durchführen 3
dy 3
dün@@ 3
ean 3
echten 3
ect 3
ef 3
ef@@ 3
ehen 3
ehr 3
eigenes 3
einf@@ 3
einhalb 3
einheit 3
einheiten 3
einzigartige 3
einziges 3
elen 3
ells 3
ely 3
ember@@ 3
empf@@ 3
endes 3
ener 3
enes 3
enge 3
enheit 3
enk@@ 3
enorm 3
ensu@@ 3
entgegen 3
enth@@ 3
entieren 3
entierte 3
ents 3
entsch@@ 3
entscheidet 3
entstanden 3
entwickelte 3
entwurf 3
ep@@ 3
era 3
erfahren 3
erfor@@ 3
ergriffen 3
erhöhen 3
erinnere 3
erische 3
erkrank@@ 3
ermöglichen 3
erneut 3
erscheinen 3
erungs@@ 3
erweisen 3
erweiterte 3
erwerben 3
erzählen 3
esenen 3
eta 3
eth@@ 3
eti@@ 3
euch 3
europäischer 3
extrem 3
fachen 3
facto 3
falsch 3
fand 3
fanden 3
fehlen 3
fehlt 3
fen@@ 3
festgestellt 3
ffen 3
fia 3
finde 3
fiz@@ 3
flächen 3
fortgesetzt 3
fotogra@@ 3
frage 3
fragen 3
freies 3
fremden 3
früh@@ 3
früher 3
früheren 3
fs 3
funktionieren 3
fähig 3
fäl@@ 3
führ@@ 3
füll@@ 3
gangen 3
gangs 3
gare@@ 3
gearbeitet 3
geber 3
gebiet 3
gebieten 3
gebrochen 3
gegründet 3
gehalten 3
gehe 3
gehend 3
geisti@@ 3
gek@@ 3
gelegt 3
gelernt 3
gelingen 3
geln 3
gemeinsame 3
gender 3
gene 3
genießen 3
genießt 3
genossen 3
geraten 3
gerei@@ 3
gerer 3
gerichtet 3
gerichteten 3
gerin 3
gering 3
geschafft 3
geschlossen 3
geschützt 3
gesellschaftliche 3
gesetz 3
gestiegen 3
gestärkt 3
getan 3
getr@@ 3
getreten 3
gewann 3
gewicht 3
gewidmet 3
gewiesen 3
gewisser 3
gewöhnliche 3
gewöhnlichen 3
geändert 3
gif@@ 3
gleich@@ 3
gleiche 3
gleichermaßen 3
globale 3
globalen 3
gon 3
gra@@ 3
größer 3
größtenteils 3
gründen 3
handelte 3
har@@ 3
has@@ 3
haus 3
he@@ 3
hel@@ 3
herausge@@ 3
herrschaft 3
hilfe 3
hilft 3
hinaus@@ 3
historischen 3
hoben 3
hol@@ 3
hr@@ 3
hunder@@ 3
hung@@ 3
hän@@ 3
hängen 3
häufiger 3
häuser 3
hö@@ 3
hör 3
ices 3
icht 3
ichts@@ 3
icul@@ 3
identi@@ 3
ids 3
iens 3
iere 3
ierten 3
ierung 3
ig 3
igrant 3
il 3
illeg@@ 3
ilom@@ 3
immt 3
ine 3
infolge 3
ini@@ 3
inia 3
iniert 3
inische 3
inmitten 3
internationaler 3
irgendwann 3
irgendwie 3
ise 3
israelischen 3
issen 3
istan 3
iten 3
jah@@ 3
junger 3
juristischen 3
jü@@ 3
kam@@ 3
kanern 3
kas 3
kehr@@ 3
keinem 3
kennt 3
ker@@ 3
kern 3
ketball 3
kleinere 3
klär@@ 3
kol@@ 3
konkret 3
konkrete 3
kontrolle 3
kontrolliert 3
kop@@ 3
krieg@@ 3
krimin@@ 3
ks 3
kti@@ 3
ku@@ 3
kurze 3
kämp@@ 3
kämpft 3
kümmert 3
kürz@@ 3
kürzlich 3
la 3
land@@ 3
latein@@ 3
lautet 3
lay 3
lebi@@ 3
lebte 3
legi@@ 3
legten 3
legungs@@ 3
leich@@ 3
leichter 3
les 3
licherweise 3
liebt 3
lieferungen 3
lies 3
lieu 3
lige 3
ligkeit 3
ligt 3
line 3
lingen 3
links 3
listen 3
live 3
ll@@ 3
ller 3
lokale 3
lokalen 3
los@@ 3
lossen 3
länder 3
läufigen 3
macher 3
malerweise 3
massiv 3
mehrerer 3
mei@@ 3
mein@@ 3
meint 3
meisterschaft 3
menschliche 3
mer@@ 3
merken 3
mes 3
ministeri@@ 3
mis@@ 3
miss@@ 3
mithilfe 3
mittel@@ 3
moderne 3
mon 3
mor@@ 3
mord 3
mus@@ 3
mächti@@ 3
mäßig 3
mögliche 3
möglichen 3
möglichkeiten 3
möglichst 3
mün@@ 3
nah@@ 3
nahme 3
nationaler 3
nd 3
neben 3
nete 3
nette 3
neun 3
nieder@@ 3
niedri@@ 3
niedrig@@ 3
nien 3
nischen 3
norm@@ 3
normalerweise 3
ns 3
nungen 3
nutzt 3
offen 3
offer 3
offizielle 3
ologen 3
ologischen 3
omp@@ 3
ord 3
organisation 3
orten 3
pa@@ 3
passen 3
perman@@ 3
persönlichen 3
pfe 3
politi@@ 3
polnische 3
polnischen 3
posi@@ 3
position@@ 3
pp@@ 3
ppt 3
privaten 3
produkte 3
professor 3
progno@@ 3
prozess 3
ras 3
rat 3
realisieren 3
rech@@ 3
regelmäßig 3
registrieren 3
reib@@ 3
reiben 3
reicher 3
reisen 3
religiösen 3
repar@@ 3
respek@@ 3
ret@@ 3
rich 3
rieren 3
riesigen 3
ris@@ 3
rist@@ 3
rit@@ 3
ritt 3
ron@@ 3
rufen 3
rum 3
rump@@ 3
rums 3
ränkte 3
rö@@ 3
sab@@ 3
sache 3
sagten 3
san@@ 3
schafft 3
schien 3
schlag 3
schlechte 3
schlimmer 3
schlimmsten 3
schlug 3
schn@@ 3
schnit@@ 3
schnitte 3
schrieben 3
schwedische 3
schwerer 3
schwä@@ 3
schö@@ 3
schöne 3
sech@@ 3
seh@@ 3
sehe 3
seite 3
selbstverständlich 3
serviert 3
sexuelle 3
shand@@ 3
sheit 3
sicherzustellen 3
sicht 3
siert 3
sign@@ 3
sil@@ 3
sion@@ 3
sis 3
situation 3
sitz@@ 3
ski 3
sol@@ 3
solchen 3
sonst 3
soren 3
sowje@@ 3
sozi@@ 3
spektakul@@ 3
spor@@ 3
sprech@@ 3
spruch 3
spür@@ 3
sse 3
sta@@ 3
staates 3
staats@@ 3
stag 3
stan@@ 3
standen 3
star 3
starb 3
stattfinden 3
steck@@ 3
stehe 3
stein 3
stellung 3
stet 3
stets 3
steuerung 3
stir@@ 3
stischen 3
sto@@ 3
stoßen 3
strahlt 3
stran@@ 3
straße 3
strich 3
studi@@ 3
städ@@ 3
stände 3
stör@@ 3
such@@ 3
sum 3
sur@@ 3
systeme 3
systems 3
tausend 3
tender 3
tent@@ 3
teuer 3
thilfe 3
tierte 3
tig@@ 3
tigste 3
tigt 3
tive 3
tives 3
tiz 3
tliches 3
tlichkeit 3
tlinie 3
to@@ 3
tom@@ 3
toren 3
tradition@@ 3
trifft 3
trinken 3
trächti@@ 3
tungs@@ 3
ty@@ 3
typ@@ 3
täglich 3
täten 3
tätig 3
tö@@ 3
u.a. 3
unabhängig 3
unden 3
ungere@@ 3
ungs 3
ungser@@ 3
ungsp@@ 3
unken 3
unseres 3
unterscheidet 3
unterstützen 3
unterzeichnet 3
usw 3
utz@@ 3
utzutage 3
va 3
ver 3
verbunden 3
vereinen 3
verfassungs@@ 3
vergessen 3
vergleichbar 3
verglichen 3
verhandeln 3
verkün@@ 3
verlangt 3
verlieren 3
verloren 3
vermu@@ 3
verstanden 3
verteilt 3
verwaltet 3
verwenden 3
verändert 3
veröffentlichen 3
viel@@ 3
vieles 3
vir@@ 3
vit@@ 3
vo@@ 3
vollen 3
voraus@@ 3
vorher@@ 3
vorsch@@ 3
wach@@ 3
wagen 3
wahr 3
wahrscheinlich 3
wand 3
wechsel@@ 3
weg@@ 3
weiten 3
wendet 3
werke 3
wichtiger 3
wieder@@ 3
wiederholen 3
wies 3
wirtschaft 3
wissenschaftlichen 3
wohl@@ 3
wohn@@ 3
wohnern 3
wur@@ 3
wus@@ 3
www.@@ 3
wäs@@ 3
würdig 3
yn@@ 3
yst@@ 3
ze@@ 3
zeit@@ 3
zent@@ 3
zerstört 3
zes 3
zeug@@ 3
ziehung 3
zip@@ 3
ziplin 3
zivi@@ 3
zo@@ 3
zog 3
zone 3
zten 3
zufrieden 3
zugunsten 3
zugute 3
zukünf@@ 3
zurückzu@@ 3
zusätzliche 3
zwei@@ 3
zweifel@@ 3
zy@@ 3
Är@@ 3
Ö@@ 3
Öl@@ 3
Ú 3
Überleben 3
Überprüfung 3
Überwachung 3
Übri@@ 3
ßen@@ 3
á 3
äh@@ 3
älter 3
äm@@ 3
än@@ 3
är 3
äufe 3
äum@@ 3
ín 3
ñ@@ 3
öffentlich 3
öffentlicher 3
öffnet 3
örung 3
öse 3
übergeben 3
übertragen 3
überwiegend 3
üblichen 3
übrig 3
ürz@@ 3
ütz@@ 3
ý 3
š@@ 3
0 2
05 2
1. 2
1000 2
11.@@ 2
12.@@ 2
160 2
180 2
1960 2
1964 2
1967 2
1970 2
1971 2
1973 2
1975 2
1978 2
1979 2
1990er 2
1996 2
1998 2
2,@@ 2
2003 2
2005 2
22 2
22. 2
220 2
25@@ 2
27@@ 2
29 2
30@@ 2
41 2
42 2
47 2
48 2
5.000 2
53 2
6,@@ 2
7,@@ 2
700 2
76 2
77 2
79 2
8,@@ 2
81 2
83 2
85 2
89 2
900 2
97 2
99 2
AB@@ 2
AC@@ 2
ASA 2
Ab 2
Abgeordnete 2
Abgeordneten 2
Ablehnung 2
Abschnitt 2
Absichten 2
Acht 2
Af@@ 2
Agentur 2
Aktionen 2
Allgem@@ 2
Allgemein@@ 2
Altstadt 2
Amat@@ 2
Anbetracht 2
Ander@@ 2
Anfragen 2
Angebot 2
Ank@@ 2
Anna 2
Anti@@ 2
Antrag 2
Antworten 2
Anwendungen 2
Anzeichen 2
Apa@@ 2
Apar@@ 2
App@@ 2
Appartements 2
Architekten 2
Architektur 2
Argument 2
Arm@@ 2
Armen 2
Art@@ 2
Artikeln 2
Ash@@ 2
Associ@@ 2
Asyl 2
Auffassung 2
Aufforderung 2
Aufgrund 2
Aufsicht 2
Aufsichts@@ 2
Aufstieg 2
Ausbildung 2
Ausgabe 2
Ausland 2
Ausmaß 2
Ausnahme 2
Aussagen 2
Ausschusses 2
Austra@@ 2
Australia 2
Auszeichnung 2
Ausübung 2
Autoren 2
BC 2
Bad 2
Bak@@ 2
Bali 2
Barack 2
Barcelona 2
Basis 2
Bedarf 2
Befugnisse 2
Befürchtungen 2
Begri@@ 2
Begriff 2
Begriffe 2
Behin@@ 2
Beide 2
Beitritt 2
Beobachtungs@@ 2
Bereichen 2
Berg 2
Berge 2
Berlin 2
Beru@@ 2
Beruf 2
Beschluss 2
Beschlüsse 2
Besonder@@ 2
Besonders 2
Bestellungen 2
Besuchen 2
Besucher 2
Beteiligung 2
Beton@@ 2
Betre@@ 2
Betroffenen 2
Bett 2
Bevor 2
Bewegungen 2
Bezahlung 2
Bil@@ 2
Bild@@ 2
Bin@@ 2
Bis@@ 2
Blan@@ 2
Blei@@ 2
Bli@@ 2
Blut 2
Blut@@ 2
Boden@@ 2
Boli@@ 2
Boston 2
Botschafter 2
Brand@@ 2
Bre@@ 2
Brie@@ 2
Bro@@ 2
Budget 2
Bun@@ 2
Bur@@ 2
Bürokratie 2
CD@@ 2
CO@@ 2
Cal@@ 2
Cam@@ 2
Car@@ 2
Carlo 2
Carlos 2
Cav@@ 2
Champ@@ 2
Chi@@ 2
Chief 2
Chin@@ 2
Chr. 2
Computer 2
County 2
Cro@@ 2
Cyber@@ 2
Da@@ 2
Dach 2
Daher 2
Dal@@ 2
De 2
De@@ 2
Deb@@ 2
Definition 2
Demokraten 2
Demokratien 2
Design@@ 2
Deutsche 2
Deutschlands 2
Dev@@ 2
Dienstes 2
Diesen 2
Dingen 2
Diplom@@ 2
Direktor 2
Dok@@ 2
Dou@@ 2
Drei@@ 2
Dritt@@ 2
Durchbruch 2
E 2
ER@@ 2
ESA 2
Ebenfalls 2
Ecke 2
Ei@@ 2
Eig@@ 2
Eigentum 2
Einer 2
Eines 2
Einführung 2
Eing@@ 2
Eingang 2
Einhaltung 2
Einheit 2
Einheiten 2
Einschränkungen 2
Eintritt 2
Eintritts@@ 2
Einwanderungs@@ 2
Einzelheiten 2
El 2
Eleganz 2
Elemente 2
Em@@ 2
Emo@@ 2
Endes 2
Energien 2
Engagement 2
Entfernung 2
Enth@@ 2
Enttäuschung 2
Epo@@ 2
Erd@@ 2
Erdbe@@ 2
Erhalt 2
Erholungs@@ 2
Erkrankungen 2
Ermitt@@ 2
Ernährung 2
Ersatz@@ 2
Erwäh@@ 2
Erwärmung 2
Europäer 2
FC 2
Fakten 2
Falls 2
Fassa@@ 2
Fehlen 2
Fest 2
Feuer@@ 2
Fil@@ 2
Fin@@ 2
Fische 2
Fl@@ 2
Flach@@ 2
Fle@@ 2
Fluss 2
Flusses 2
Flüchtlinge 2
Fo@@ 2
Fol@@ 2
Fonds 2
For@@ 2
Forderungen 2
Fort 2
Fortsetzung 2
Forum 2
Foto@@ 2
Fotografi@@ 2
Frankreich 2
Frauen@@ 2
Frei@@ 2
Freien 2
Freiheit 2
Freilassung 2
Freit@@ 2
Freiwil@@ 2
Freizeit 2
Freunden 2
Friedens@@ 2
Frist 2
Fru@@ 2
Fund 2
Funktionsweise 2
Fußball 2
Fähigkeit 2
Fü@@ 2
Führ@@ 2
Füßen 2
Gal@@ 2
Ganzen 2
Gas@@ 2
Gaza 2
Gebiete 2
Gebir@@ 2
Gedan@@ 2
Gefahren 2
Gegenden 2
Gehen 2
Gemeinschaft 2
Genau 2
Generationen 2
Gerade 2
Gerichte 2
Geschlech@@ 2
Geschmack 2
Geschwindigkeit 2
Geschäften 2
Gesetz@@ 2
Gesundheitsversorgung 2
Gesundheitswesen 2
Getrei@@ 2
Gewinn 2
Gewinne 2
Gewinner 2
Gewis@@ 2
Gibt 2
Gipfel 2
Glei@@ 2
Gleichgewicht 2
Gleichstellung 2
Gleichzeitig 2
Glück 2
Glücks@@ 2
Gn@@ 2
Gold 2
Gold@@ 2
Gonzá@@ 2
Google 2
Gottes 2
Gr@@ 2
Gran 2
Gre@@ 2
Griechenland 2
Gro@@ 2
Grunde 2
Grundsätze 2
Gründer 2
Gästen 2
Han@@ 2
Handlung 2
Handlungen 2
Hard@@ 2
Harry 2
Hat 2
Haushalts@@ 2
Heil@@ 2
Heim@@ 2
Herausforderungen 2
Herr@@ 2
Herren 2
Herstellung 2
Herz 2
Hier@@ 2
Himmel 2
Hinter@@ 2
Hintergrund 2
Hir@@ 2
Hit@@ 2
Hochschul@@ 2
Hochzei@@ 2
Hof 2
Hollywood 2
Holo@@ 2
Hon@@ 2
Hop@@ 2
Hor@@ 2
Hot@@ 2
Hä@@ 2
Hände 2
Hö@@ 2
Höchst@@ 2
Hü@@ 2
I. 2
II@@ 2
IT@@ 2
Ide@@ 2
Ih@@ 2
Ihren 2
Il@@ 2
Illu@@ 2
Im@@ 2
Ima@@ 2
Image 2
Imm@@ 2
Immobilien@@ 2
Indi@@ 2
Inhaber 2
Inn@@ 2
Innerhalb 2
Insbesondere 2
Insgesamt 2
Inst@@ 2
Instanz 2
Institutionen 2
Instrument 2
Interess@@ 2
Intern@@ 2
Interview 2
Irak 2
Iran@@ 2
Islam 2
J. 2
Jacques 2
Jahrhunderten 2
Jan 2
Jan@@ 2
Java 2
Jeden 2
Jedes 2
Ji@@ 2
Juan 2
Jugend 2
Justiz 2
Kalender 2
Kamp@@ 2
Kampfes 2
Kandidaten 2
Kanäle 2
Kap@@ 2
Kapit@@ 2
Kapital@@ 2
Karten 2
Kategorien 2
Kauf@@ 2
Keine 2
Ker@@ 2
Kilom@@ 2
Kindes 2
King 2
Kir@@ 2
Klaren 2
Koch@@ 2
Kohle 2
Kol@@ 2
Kolle@@ 2
Komm@@ 2
Komp@@ 2
Konflikt@@ 2
Konsum 2
Konsumenten 2
Kontakte 2
Konto 2
Kontrol@@ 2
Konzent@@ 2
Konzern 2
Konzert 2
Kop@@ 2
Kopf@@ 2
Kosten@@ 2
Krank@@ 2
Kreativität 2
Krieg@@ 2
Kriege 2
Kriterien 2
Kro@@ 2
Kräfte 2
Kup@@ 2
Kurz 2
L. 2
Labor@@ 2
Laden 2
Lan@@ 2
Landwirtschaft 2
Laser 2
Last@@ 2
Le 2
League 2
Lehr@@ 2
Leistung 2
Leistungen 2
Life 2
Lis@@ 2
Liter 2
Lobby 2
Louis 2
Luf@@ 2
Lust 2
Lü@@ 2
M 2
M. 2
Macht@@ 2
Mad@@ 2
Mahl@@ 2
Management 2
Manche 2
Mandat 2
Mani@@ 2
Manuel 2
Marketing@@ 2
Mars 2
Mary 2
Mas@@ 2
Massen@@ 2
Materialien 2
Mauer 2
Max@@ 2
Medikam@@ 2
Medikamente 2
Meeres 2
Megapi@@ 2
Mehr@@ 2
Mel@@ 2
Menge 2
Menschenrechts@@ 2
Mess@@ 2
Methode 2
Microsoft 2
Milch 2
Minderheit 2
Ministeri@@ 2
Mir 2
Miss@@ 2
Mitgliedsländer 2
Mitteln 2
Mobiltelef@@ 2
Mod@@ 2
Modi@@ 2
Mont@@ 2
Montag 2
Mosk@@ 2
Muse@@ 2
Musik@@ 2
Musiker 2
My 2
My@@ 2
Mäd@@ 2
Mängel 2
Möglich@@ 2
NATO 2
NT 2
Nachbar@@ 2
Nachbarn 2
Nachmittag 2
Nachteil 2
Nah@@ 2
Name 2
Nein 2
Nichts 2
Niemand 2
Niveau 2
Nutzen 2
Nutzung 2
Obst 2
Ok@@ 2
Optim@@ 2
Optionen 2
Organis@@ 2
Original@@ 2
PA 2
Pack@@ 2
Pad 2
Palast 2
Pan@@ 2
Park@@ 2
Pass 2
Pass@@ 2
Passwort 2
Patri@@ 2
Pau@@ 2
Pay@@ 2
Peking 2
Personal@@ 2
Perspektive 2
Pes@@ 2
Pet@@ 2
Peter 2
Phase 2
Philipp@@ 2
Philosophie 2
Pho@@ 2
Phänomen 2
Play@@ 2
Plenum 2
Po@@ 2
Politik@@ 2
Polizei@@ 2
Polo 2
Potenzial 2
Preisen 2
Pri@@ 2
Proble@@ 2
Produ@@ 2
Produkten 2
Produktion 2
Produktions@@ 2
Prof@@ 2
Profil 2
Progno@@ 2
Projek@@ 2
Prophe@@ 2
Protokoll 2
Prov@@ 2
Prozess@@ 2
Prävention 2
Punkte 2
Q@@ 2
Quelle 2
R 2
RA@@ 2
Raf@@ 2
Rechen@@ 2
Rechnung 2
Rechten 2
Rede 2
Reformen 2
Regelung 2
Regelungen 2
Regi@@ 2
Regierung@@ 2
Regimes 2
Regional@@ 2
Rem@@ 2
Richard 2
Richtlinie 2
Risiko@@ 2
Rob@@ 2
Rol@@ 2
Roten 2
Rotter@@ 2
Rou@@ 2
Ruf 2
Rücken 2
SA 2
SA@@ 2
SM 2
SP@@ 2
SS@@ 2
Sab@@ 2
Salz@@ 2
Sammlung 2
Sar@@ 2
Satur@@ 2
Schaden 2
Schauspiel@@ 2
Schil@@ 2
Schlag 2
Schlussfolgerung 2
Schmu@@ 2
Schnell@@ 2
Schuh@@ 2
Schutz@@ 2
Schwä@@ 2
Schäden 2
Schönheit 2
Schüler 2
Science 2
Seb@@ 2
Seele 2
Sehen 2
Sei@@ 2
Seitdem 2
Sel@@ 2
Selbstverständlich 2
Senkung 2
Server 2
Sho@@ 2
Sied@@ 2
Sit@@ 2
Ski@@ 2
Skulp@@ 2
Smart@@ 2
Smith 2
Solange 2
Sollte 2
Somm@@ 2
Sonnen@@ 2
Souven@@ 2
Sow@@ 2
Spanien 2
Spannung 2
Spek@@ 2
Spezi@@ 2
Spezial@@ 2
Spielraum 2
Spiri@@ 2
Spr@@ 2
Spuren 2
Sta@@ 2
Stadium 2
Stamm@@ 2
Standort 2
Star@@ 2
Start 2
Station 2
Stefan 2
Stein 2
Stern 2
Steuer@@ 2
Steuern 2
Stil 2
Stra@@ 2
Straf@@ 2
Straftaten 2
Strah@@ 2
Street 2
Streitigkeiten 2
Studien@@ 2
Stärke 2
Stütz@@ 2
Summe 2
Sydney 2
Symbol 2
Symp@@ 2
Syn@@ 2
Syrien 2
Systeme 2
Szen@@ 2
Sä@@ 2
Säulen 2
T 2
TV@@ 2
Tab@@ 2
Tak@@ 2
Tal 2
Tat@@ 2
Taten 2
Tee 2
Tei@@ 2
Teilen 2
Telefon 2
Temperatur 2
Temple 2
Ter@@ 2
Territ@@ 2
Thyssen@@ 2
Tie@@ 2
Tief@@ 2
Tiere 2
Tieren 2
Times 2
Tisch 2
Todes@@ 2
Tom@@ 2
Toten 2
Touristen@@ 2
Tradition 2
Tran@@ 2
Transpor@@ 2
Treff@@ 2
Trend 2
Tsch@@ 2
Tu@@ 2
Tur@@ 2
Turk@@ 2
Turni@@ 2
Typen 2
Tä@@ 2
UN@@ 2
Ultra@@ 2
Umfang 2
Umständen 2
Unabhängigkeit 2
Uni@@ 2
Univer@@ 2
Universitäts@@ 2
Unrecht 2
Unser 2
Unterdrückung 2
Unterlagen 2
Unternehmens 2
Untersuchungen 2
Ursprungs@@ 2
Val@@ 2
Ve@@ 2
Verantwortlichen 2
Verb@@ 2
Verband 2
Verbindungen 2
Verbreitung 2
Vergabe 2
Verhaf@@ 2
Verletzung 2
Verletzungen 2
Verluste 2
Version 2
Verstöße 2
Verteilung 2
Vertrauen 2
Vertretern 2
Verträge 2
Verträgen 2
Verz@@ 2
Via 2
Vier 2
Vil@@ 2
Vision 2
Vizeprä@@ 2
Vizepräsident 2
Volkes 2
Volkswirtschaften 2
Volumen 2
Vom 2
Vorbeu@@ 2
Vorrang 2
Vorsicht 2
Vorstellungen 2
Völker@@ 2
Wach@@ 2
Wand@@ 2
Wander@@ 2
Ware 2
Werbung 2
Werk 2
Werk@@ 2
Werken 2
Westen 2
Wetter 2
Widerstand 2
Will 2
Will@@ 2
Willen 2
Willi@@ 2
Wind 2
Winter 2
Wirklichkeit 2
Wirtschaf@@ 2
Wit@@ 2
Wo 2
Wochen@@ 2
Woh@@ 2
Wohlstand 2
Wur@@ 2
Wör@@ 2
Wü@@ 2
X 2
Yu@@ 2
Zar@@ 2
Zeh@@ 2
Zei@@ 2
Zeichen 2
Zen@@ 2
Zentrum 2
Zertifik@@ 2
Zeug@@ 2
Zi@@ 2
Ziele 2
Zir@@ 2
Zivil@@ 2
Zivilgesellschaft 2
Zivilisten 2
Zucker@@ 2
Zuerst 2
Zugangs 2
Zum 2
Zurück@@ 2
Zusammen@@ 2
Zuschau@@ 2
Zuschauer 2
Zuver@@ 2
Zweifel 2
Zü@@ 2
abe@@ 2
abgelehnt 2
abgesehen 2
abhängt 2
absch@@ 2
abschluss 2
ach 2
achtung 2
ación 2
ada 2
ade@@ 2
adet 2
ael 2
aggres@@ 2
agieren 2
agne 2
agnen 2
agten 2
aktu@@ 2
ali 2
alisi@@ 2
alisieren 2
alisierungs@@ 2
alleine 2
altet 2
ambi@@ 2
ame 2
amerikanischer 2
ammern 2
ams 2
analy@@ 2
anbieten 2
ando 2
anerkannt 2
anfän@@ 2
angeb@@ 2
angebracht 2
angegeben 2
angel@@ 2
angen@@ 2
ann 2
anne 2
annehm@@ 2
anony@@ 2
anschließ@@ 2
anstreben 2
antes 2
anwes@@ 2
anwesend 2
any@@ 2
aper 2
appen 2
arbeit 2
archä@@ 2
ardo 2
are@@ 2
arf 2
ari 2
artige 2
artiger 2
artik@@ 2
artikel 2
ary 2
ase 2
asen 2
asien 2
assungen 2
ated 2
ath@@ 2
ation@@ 2
ations@@ 2
atische 2
ativer 2
ato@@ 2
ators 2
atten 2
atur 2
aturen 2
aufgebaut 2
aufgefordert 2
aufgeführt 2
aufgezeigt 2
aufhören 2
aufmerksam 2
aufnahme 2
aufnehmen 2
aufrechterhalten 2
auft 2
aufweist 2
augen@@ 2
ausgehend 2
ausgezeichnet 2
ausländische 2
aussieht 2
außergewöhn@@ 2
ba 2
bad 2
balls 2
barer 2
bean@@ 2
bedauere 2
bedingt 2
bedro@@ 2
beeinträchtigen 2
beeinträchtigt 2
befre@@ 2
beg@@ 2
begangen 2
begeben 2
begegnen 2
begonnen 2
begrenzt 2
begrün@@ 2
begrüßen 2
behandlung 2
behin@@ 2
behinderten@@ 2
beigetragen 2
belast@@ 2
belieb@@ 2
bemerkt 2
benachbar@@ 2
benannt 2
benden 2
bene 2
benutzt 2
benötigt 2
beobach@@ 2
berechti@@ 2
berei@@ 2
bereit 2
bereit@@ 2
bereiten 2
berühmten 2
besagt 2
beschrieben 2
beschädigt 2
beschäf@@ 2
besondere 2
bestanden 2
bestra@@ 2
bestraft 2
besuchte 2
betrachten 2
betrag 2
betreffen 2
betreibt 2
betrieb 2
betrieb@@ 2
betro@@ 2
beträgt 2
beugen 2
bevor@@ 2
bewaff@@ 2
bewahrt 2
beweist 2
bewirkt 2
bewundern 2
bewus@@ 2
bewähr@@ 2
beziehen 2
bies 2
big 2
bil@@ 2
bildung 2
biologische 2
bir@@ 2
bis@@ 2
bisschen 2
bitte 2
blas@@ 2
bliche 2
blicke 2
block 2
bon@@ 2
bot@@ 2
box 2
breit@@ 2
breite 2
breiten 2
bte 2
bul@@ 2
bus 2
by@@ 2
can@@ 2
cc@@ 2
cer@@ 2
champ@@ 2
char@@ 2
chel@@ 2
chem 2
chem@@ 2
chil@@ 2
chner 2
chs 2
chten@@ 2
chter 2
chtet 2
cker 2
cker@@ 2
ckte 2
cky 2
dacht 2
dahin 2
dahingehend 2
damali@@ 2
danken 2
dasselbe 2
dat 2
dat@@ 2
daten 2
dau@@ 2
definieren 2
del@@ 2
demonstri@@ 2
demselben 2
denselben 2
derartigen 2
derartiger 2
dert 2
derung 2
derzeitige 2
dest 2
desto 2
deu@@ 2
diagno@@ 2
dien 2
dieselben 2
dige 2
digten 2
digungen 2
direkte 2
direkten 2
direkter 2
disch 2
diskutiert 2
dlern 2
dom@@ 2
doppel@@ 2
doppelt 2
dor@@ 2
dose 2
dramati@@ 2
dri@@ 2
drit@@ 2
drücke 2
dul@@ 2
durchgesetzt 2
durchschnittlich 2
durchsetzen 2
dynam@@ 2
e- 2
eben 2
ebene 2
ec 2
echnik 2
ecks 2
eger 2
ehemali@@ 2
ehm@@ 2
ehren 2
ehrt 2
ehrten 2
eig@@ 2
eigentlichen 2
eignet 2
eindeutige 2
eingehalten 2
eingeladen 2
eingestellt 2
einst 2
einzelstaatlichen 2
einzigen 2
einziger 2
ektion 2
elektrischen 2
elf 2
elles 2
els@@ 2
elte 2
ema 2
emandem 2
eme 2
emen 2
emis@@ 2
empfehle 2
empfehlen 2
empfiehlt 2
endem 2
engagiert 2
enix 2
enst@@ 2
enswert 2
entdeckt 2
entfer@@ 2
enthält 2
entlassen 2
entlich 2
entscheiden 2
entscheidend 2
entsp@@ 2
entsprechenden 2
entstand 2
entsteht 2
entwickelten 2
entwicklung 2
erend 2
erfol@@ 2
erforderlichen 2
erg@@ 2
ergibt 2
ergänzt 2
erhielten 2
erho@@ 2
erhol@@ 2
eri 2
eria 2
erinnern 2
erkan@@ 2
erkennt 2
erklär@@ 2
erlauben 2
erledigt 2
erlei 2
ernsthaft 2
ero@@ 2
erschienen 2
erschüt@@ 2
ersetzen 2
erster 2
erstes 2
ertem 2
erweise 2
erweiterten 2
erwähnt 2
erzielt 2
eröffnet 2
esi@@ 2
esp@@ 2
este 2
ester@@ 2
ests 2
etern 2
ett@@ 2
etten 2
etz 2
etz@@ 2
etzen 2
eu@@ 2
eur 2
eure 2
ex 2
exper@@ 2
explo@@ 2
eß 2
fa 2
fa@@ 2
fahrer 2
fall@@ 2
falsche 2
fan@@ 2
far@@ 2
fassten 2
fehler 2
fehler@@ 2
ferenz 2
fes 2
festgehalten 2
feststellen 2
festzustellen 2
fig@@ 2
fil@@ 2
fing 2
firma 2
fliegen 2
flucht 2
flug 2
flü@@ 2
folg 2
folgende 2
folglich 2
folgte 2
forder@@ 2
formen 2
forsch@@ 2
fort@@ 2
fot@@ 2
four@@ 2
französische 2
frau@@ 2
frem@@ 2
freu@@ 2
freundlich 2
fri@@ 2
fru@@ 2
frühen 2
ft 2
ft@@ 2
fter 2
ftung 2
fu@@ 2
fungen 2
funktion@@ 2
fördert 2
förmi@@ 2
fühlt 2
füllen 2
fün@@ 2
für@@ 2
gangene 2
gar@@ 2
garantiert 2
gebe 2
gebiete 2
geblieben 2
gebnis 2
gebung 2
gefordert 2
gefragt 2
gefähr 2
gefähr@@ 2
gefördert 2
geführte 2
geg@@ 2
gegenseitigen 2
gegenwärtigen 2
gehalt 2
gehandelt 2
geheim@@ 2
gehör@@ 2
geistigen 2
geklärt 2
gelang 2
gelangen 2
gelt 2
gelöst 2
gemeinsames 2
gemeinschaft 2
gemütlich 2
genann@@ 2
genauer 2
gend@@ 2
genden 2
gendes 2
genehm@@ 2
gent@@ 2
geordnete 2
gepf@@ 2
gere 2
gerechnet 2
gerechten 2
geringer 2
gerweise 2
gesam@@ 2
gesamte 2
geschei@@ 2
geschichte 2
geschieht 2
gescho@@ 2
geschätzt 2
gesetze 2
gestalten 2
gestartet 2
gestattet 2
gestimmt 2
gesunden 2
geteilt 2
getä@@ 2
getö@@ 2
gewachsen 2
gewinnt 2
gewöhnlich 2
gezahlt 2
geäußert 2
gig 2
gik 2
giving 2
gl@@ 2
gli@@ 2
glichkeit 2
gn@@ 2
go@@ 2
gri@@ 2
gro@@ 2
groß 2
groß@@ 2
grund@@ 2
gruppen 2
größter 2
grüne 2
günstig 2
günstiger 2
habt 2
halt 2
halten@@ 2
halts@@ 2
ham 2
haupt@@ 2
hause 2
heben 2
hebt 2
heil@@ 2
heiligen 2
heit@@ 2
hell 2
herrsch@@ 2
herum@@ 2
herunter 2
hetero@@ 2
hierfür 2
hierzu 2
hilfreich 2
hindern 2
hingewiesen 2
hinterlassen 2
hinzu@@ 2
hochrangi@@ 2
hochwertige 2
hoff@@ 2
hohes 2
holen 2
hten 2
hundert@@ 2
hung 2
hypo@@ 2
häl@@ 2
höchste 2
höh@@ 2
höher 2
höhere 2
hört 2
hü@@ 2
ia 2
ian 2
id 2
iell 2
ielle 2
ignoriert 2
igranten 2
ihrerseits 2
ill@@ 2
ille 2
illegal 2
imp@@ 2
ind 2
iner 2
ingham 2
inierten 2
initi@@ 2
inne 2
ino@@ 2
ins@@ 2
insel 2
institu@@ 2
institutionelle 2
intellektu@@ 2
intensiv 2
inter 2
interess@@ 2
interessanten 2
interessen 2
investiert 2
ion 2
ions 2
irgendwelche 2
irgendwo 2
isa 2
ischem 2
isine 2
islamischen 2
iso@@ 2
isode 2
israeli@@ 2
isti@@ 2
istischer 2
ita 2
iti@@ 2
ito 2
jahr 2
jemanden 2
jenem 2
jenseits 2
jer@@ 2
jet@@ 2
jetzigen 2
karten 2
kas@@ 2
katastrop@@ 2
kauf@@ 2
keln 2
kennen@@ 2
kette 2
ketten 2
ki 2
klar@@ 2
klare 2
klassische 2
kleines 2
klim@@ 2
klärung 2
ko 2
kohär@@ 2
komme 2
kommerzielle 2
kommun@@ 2
konfigu@@ 2
konfli@@ 2
konver@@ 2
konz@@ 2
konzer@@ 2
kos 2
kov@@ 2
kreis 2
krieg 2
kritisch 2
kritisiert 2
kräf@@ 2
kräfte 2
kräften 2
kten 2
kul@@ 2
kur@@ 2
kurse 2
kurzen 2
ky 2
kä@@ 2
kör@@ 2
künftig 2
lager 2
lan 2
landes 2
landwirtschaftlichen 2
langfris@@ 2
langsam 2
laration 2
las@@ 2
lassen@@ 2
latt 2
lauten 2
law 2
leben@@ 2
lebens 2
lebens@@ 2
lech@@ 2
legung 2
lehnt 2
lehr@@ 2
lei 2
leidung 2
leistungs@@ 2
leiter 2
lern@@ 2
lesen 2
let@@ 2
lette 2
letztendlich 2
letztes 2
lez 2
lichung 2
liebe 2
lieber 2
liefern 2
liegenden 2
lien 2
liert 2
limm@@ 2
lin 2
liner 2
linge 2
linken 2
lis 2
liste 2
lli@@ 2
lock@@ 2
lon@@ 2
loser 2
lu@@ 2
lub 2
lug 2
lungs@@ 2
ly@@ 2
lying 2
läge 2
ländischen 2
ländlichen 2
länge 2
lässlich 2
läu@@ 2
lö@@ 2
lösung 2
machten 2
mad 2
mail 2
malen 2
mangel@@ 2
manip@@ 2
mari@@ 2
markt@@ 2
mas 2
masch@@ 2
massiven 2
maximale 2
maßgeblich 2
mechan@@ 2
mehr@@ 2
meldungen 2
mende 2
ment 2
merk@@ 2
mern 2
mess@@ 2
messen 2
met 2
militär@@ 2
milli@@ 2
minister 2
mische 2
mischen 2
mitglieder 2
mitteln 2
mittels 2
mitten 2
mittleren 2
mium 2
mm 2
mmen 2
modell 2
mol@@ 2
mord@@ 2
morgens 2
motivi@@ 2
mp@@ 2
mu@@ 2
muslim@@ 2
my 2
män@@ 2
männ@@ 2
mäßige 2
mäßigkeit 2
müsste 2
müssten 2
namen 2
natur@@ 2
natür@@ 2
natürlichen 2
nden 2
negativ 2
nehm@@ 2
nehme 2
nes 2
net@@ 2
neten 2
neuesten 2
neut@@ 2
niedrige 2
niedrigen 2
nig 2
nis@@ 2
nische 2
niveau 2
normal 2
normale 2
notwendi@@ 2
nungs@@ 2
nutz@@ 2
näh@@ 2
oben 2
objek@@ 2
offen@@ 2
offensichtlich 2
ola 2
oll@@ 2
ologische 2
olz 2
om 2
ona 2
oni@@ 2
online 2
oper@@ 2
ophi@@ 2
ora 2
ordnung 2
ore 2
orien 2
orientieren 2
orientiert 2
ories 2
orte 2
ose 2
ov 2
pal@@ 2
par@@ 2
parks 2
partei@@ 2
passiert 2
patri@@ 2
pe 2
pen@@ 2
perfek@@ 2
personen 2
persönliche 2
pes 2
pfei@@ 2
pfen 2
pflanzen 2
pft 2
ph 2
phone 2
pi@@ 2
pl@@ 2
pler 2
plötzlich 2
pol 2
politischer 2
popul@@ 2
por@@ 2
port@@ 2
positiven 2
pot 2
pot@@ 2
potenzi@@ 2
probleme 2
problemlos 2
prochenen 2
produkten 2
produziert 2
profession@@ 2
programm 2
projekt 2
promin@@ 2
präsen@@ 2
prüfen 2
psych@@ 2
pu@@ 2
pum@@ 2
punkten 2
quali@@ 2
quelle 2
racht 2
rachte 2
rad 2
ran 2
rang 2
rank@@ 2
ranken 2
rations@@ 2
rauch 2
reagi@@ 2
realen 2
rechn@@ 2
rechtlichen 2
rechts@@ 2
reduzieren 2
reg@@ 2
regelmäßige 2
regeln 2
regi@@ 2
register 2
registriert 2
reit@@ 2
rel@@ 2
reli@@ 2
rent 2
rer 2
richten 2
richtet 2
richtungen 2
riesi@@ 2
rift 2
riften 2
ritt@@ 2
roman@@ 2
ron 2
ror@@ 2
rou@@ 2
rts 2
rägern 2
ränken 2
ränkten 2
räum@@ 2
s. 2
saf@@ 2
sat@@ 2
satelli@@ 2
satz@@ 2
schaf@@ 2
schal@@ 2
schalten 2
schau 2
schau@@ 2
schein@@ 2
schem 2
scheu@@ 2
schie@@ 2
schir@@ 2
schlagen 2
schlech@@ 2
schließt 2
schlim@@ 2
schlimm@@ 2
schlägt 2
schlü@@ 2
schmer@@ 2
schneller 2
schnitt 2
scho@@ 2
schreibt 2
schrift 2
schuldig 2
schule 2
schung 2
schungen 2
schwerwie@@ 2
schwier@@ 2
schwieriger 2
schwächen 2
schätze 2
sed@@ 2
seg@@ 2
sein@@ 2
seinerzeit 2
seiten 2
sek@@ 2
sektor 2
selbst@@ 2
sem@@ 2
senden 2
sequ@@ 2
setzbar 2
setzungs@@ 2
sexuellen 2
sey 2
sicher@@ 2
sicht@@ 2
sieb@@ 2
sieren 2
sig@@ 2
sitz 2
sitzen 2
sitzt 2
siv 2
sive 2
sle@@ 2
smo@@ 2
sn@@ 2
sobald 2
sodass 2
sofern 2
sofort 2
sogenannten 2
solange 2
solch 2
solcher 2
solches 2
sole 2
solle 2
sons 2
sorgfältig 2
spati@@ 2
sper@@ 2
spezialisiert 2
spieler 2
spit@@ 2
spr@@ 2
sprach@@ 2
sprachen 2
spreche 2
sprü@@ 2
sprüch@@ 2
spä@@ 2
ss@@ 2
ssigen 2
staat@@ 2
stab 2
stab@@ 2
stag@@ 2
stahl 2
stamm@@ 2
station 2
status 2
staun@@ 2
stecken 2
steh@@ 2
stehende 2
stei@@ 2
steine 2
stellvertre@@ 2
sten@@ 2
stete 2
steuer@@ 2
stil 2
stock 2
stoffen 2
stolz 2
stoppen 2
stoß 2
strafe 2
strahlung 2
strei@@ 2
streit@@ 2
stren@@ 2
streng 2
strenge 2
strengere 2
strik@@ 2
strikt 2
strit@@ 2
stritten 2
stron@@ 2
strä@@ 2
student 2
stuhl 2
stung 2
stur@@ 2
stän@@ 2
ständi@@ 2
ständige 2
stärksten 2
stätte 2
stö@@ 2
stürzen 2
sucht 2
sung 2
sur 2
symboli@@ 2
sympath@@ 2
sä@@ 2
süd@@ 2
südlichen 2
tag@@ 2
tation 2
tchen 2
technische 2
teien 2
teils 2
teilten 2
teilung 2
tend 2
tene 2
tenen 2
tener 2
terer 2
teres 2
terie 2
termin@@ 2
terstat@@ 2
terten 2
terung 2
test 2
than@@ 2
the 2
the@@ 2
thei@@ 2
theore@@ 2
theti@@ 2
thos 2
thri@@ 2
thropo@@ 2
tiefe 2
tiefer 2
tierten 2
tierung 2
tiges 2
tigkeit 2
tigung 2
timm@@ 2
tion 2
tis 2
tischer 2
tival 2
tol@@ 2
ton 2
tran@@ 2
transportiert 2
trat 2
traums 2
trav@@ 2
trei@@ 2
treiben 2
trieben 2
träge 2
trü@@ 2
tschechischen 2
tter 2
tums 2
turen 2
tut 2
ty 2
typisch 2
typischen 2
tzeit 2
tzent@@ 2
tät 2
täts@@ 2
türk@@ 2
u.@@ 2
ukra@@ 2
uliert 2
ums@@ 2
unabhängi@@ 2
under@@ 2
une 2
unglaub@@ 2
ungsh@@ 2
unmöglich 2
unten 2
untergraben 2
unterhalten 2
unterliegen 2
unternimmt 2
unterrichtet 2
unterschiedlichen 2
unterstützte 2
unvergess@@ 2
unweit 2
ups 2
urban@@ 2
ursprünglich 2
ursprüngliche 2
usamment@@ 2
usern 2
uss 2
uss@@ 2
usw. 2
utes 2
utzt 2
var@@ 2
ve@@ 2
veaus 2
vel@@ 2
verab@@ 2
verabschieden 2
veranstal@@ 2
veranstaltungen 2
verantwor@@ 2
verantwortungs@@ 2
verband 2
verbessert 2
verbieten 2
verbinden 2
verbindliche 2
vereinbaren 2
verfasst 2
vergleichen 2
verhindert 2
verkauf 2
verkehr 2
verleihen 2
verliert 2
vermittelt 2
vermögen 2
vern@@ 2
verpflichten 2
vers 2
verschiedene 2
versehen 2
versprechen 2
verständlich 2
verstärkt 2
verteidigen 2
vertre@@ 2
vertritt 2
verträge 2
verurteilt 2
verwal@@ 2
verwand@@ 2
verwandelt 2
verweigern 2
verz@@ 2
verzeichnen 2
veröffentlichte 2
veröffentlichten 2
vic 2
vie 2
vielmehr 2
vieren 2
vierte 2
views 2
vil@@ 2
virtu@@ 2
virtuellen 2
volles 2
voran@@ 2
vorberei@@ 2
vorgelegt 2
vorgenommen 2
vorliegt 2
vorsitz@@ 2
vorstellen 2
vorzu@@ 2
vorüber@@ 2
völk@@ 2
wachsen 2
waffen 2
wahl 2
wahrschein@@ 2
wait 2
wan 2
wandern 2
warme 2
we 2
we@@ 2
web@@ 2
wechseln 2
wechselt 2
wege 2
weilen 2
weisung 2
weit@@ 2
weiterzu@@ 2
weitgehend 2
weißen 2
welchem 2
welt 2
welt@@ 2
weltweiten 2
wenigen 2
werk@@ 2
werken 2
werten 2
wesen 2
western 2
wichti@@ 2
widri@@ 2
wiederholt 2
wiederum 2
will@@ 2
willkommen 2
winkel 2
wirft 2
wirst 2
wirtschafts@@ 2
wissenschaftlicher 2
wns 2
wofür 2
wohnt 2
wom@@ 2
wonach 2
woods 2
wu@@ 2
wägen 2
wählen 2
wäsche 2
wöch@@ 2
wünscht 2
würdigen 2
xel 2
xis 2
xis@@ 2
ye@@ 2
yle 2
ystems 2
za@@ 2
zahl@@ 2
zed@@ 2
zeichnete 2
zeichneten 2
zel@@ 2
zentrali@@ 2
zentrum 2
zerstör@@ 2
zeugen 2
zeugt 2
zh@@ 2
ziger 2
zin@@ 2
zir@@ 2
zona 2
zugrunde 2
zukünftigen 2
zuletzt 2
zun@@ 2
zunehmen@@ 2
zunehmend 2
zur@@ 2
zurufen 2
zusehen 2
zusetzen 2
zwan@@ 2
zwanzig 2
zweier 2
zweimal 2
zza 2
Ära 2
Ärzte 2
Öl 2
Über 2
Überlegungen 2
án 2
äder 2
äf@@ 2
ähnlichen 2
ährt 2
änder 2
ändert 2
ären 2
äumen 2
äußert 2
è@@ 2
öffnen 2
ölle 2
ön@@ 2
ört 2
ös@@ 2
ösen 2
östlich 2
üb@@ 2
überflü@@ 2
überlassen 2
überleben 2
überprüfen 2
übersch@@ 2
übersetzen 2
überwäl@@ 2
üblich 2
ühr@@ 2
ühren 2
ür 2
üt@@ 2
č 2
ď@@ 2
Ş@@ 2
ž@@ 2
$ 1
&#124; 1
&#91; 1
&#93; 1
+ 1
.. 1
0.@@ 1
000@@ 1
02 1
07 1
08 1
1.000 1
10. 1
10.000 1
100@@ 1
105 1
10@@ 1
110 1
12. 1
120 1
13. 1
13.@@ 1
130 1
137 1
14. 1
140 1
142 1
15. 1
150 1
16. 1
17@@ 1
18. 1
19 1
1948 1
1957 1
1958 1
1963 1
1966 1
1968 1
1969 1
196@@ 1
1972 1
1976 1
1980 1
1981 1
1982 1
1983 1
1986 1
198@@ 1
1992 1
1997 1
2. 1
20.@@ 1
230 1
24 1
24. 1
24@@ 1
250 1
28 1
29@@ 1
3,5 1
32 1
36@@ 1
39 1
3D 1
4,@@ 1
4. 1
4.@@ 1
400@@ 1
40@@ 1
43 1
44 1
450 1
48@@ 1
49 1
5,@@ 1
51 1
52 1
55 1
59 1
69 1
7.@@ 1
70@@ 1
71 1
72 1
78 1
80@@ 1
86 1
88 1
9,@@ 1
9. 1
92 1
93 1
95 1
98 1
A6 1
AG 1
AL@@ 1
AR 1
AR@@ 1
Abent@@ 1
Abenteuer 1
Abfall@@ 1
Abgeord@@ 1
Abgeordneter 1
Abhängigkeit 1
Abra@@ 1
Abreise 1
Absatz 1
Abschaffung 1
Abteilung 1
Abu 1
Academy 1
Acc@@ 1
Administ@@ 1
Adressen 1
Afri@@ 1
African 1
Afrika 1
Ag@@ 1
Again 1
Age 1
Agenda 1
Agrar@@ 1
Agre@@ 1
Agreement 1
Ah@@ 1
Aires 1
Airways 1
Akt 1
Akte@@ 1
Akteure 1
Aktien 1
Aktion 1
Aktiv@@ 1
Aktivi@@ 1
Aktivität 1
Aktualität 1
Al 1
Alan 1
Albert 1
Ale@@ 1
Alexander 1
Ali 1
Ali@@ 1
Alic@@ 1
Allein 1
Aller@@ 1
Allgemeine 1
Allgemeinen 1
Alli@@ 1
Alpen 1
Alt 1
Alters@@ 1
Ambi@@ 1
Ambiente 1
America 1
Amerika 1
Analy@@ 1
Anbau 1
Anders 1
Andro@@ 1
Angabe 1
Ange@@ 1
Angehörigen 1
Angelegenheiten 1
Angeles 1
Angestellten 1
Angriffe 1
Anhän@@ 1
Ankara 1
Ankunft 1
Ankündigung 1
Anmeldung 1
Anmerkungen 1
Annehmlichkeiten 1
Annäherung 1
Ansehen 1
Anspruch 1
Ansprüche 1
Anstatt 1
Anstrengungen 1
Ant@@ 1
Anth@@ 1
Antonio 1
Anweisungen 1
Anwesenheit 1
Anzeigen 1
Ap@@ 1
Appar@@ 1
Arbeit@@ 1
Arbeitgeber 1
Arbeitnehmer 1
Arbeitnehmer@@ 1
Arbeitsbedingungen 1
Arbeitskräfte 1
Arbeitsmarkt 1
Arbeitsplatz 1
Arbeitsplätze 1
Arch@@ 1
Archit@@ 1
Architek@@ 1
Arena 1
Artikels 1
Arts 1
Arznei@@ 1
Asi@@ 1
Audi@@ 1
Audio 1
Aufbau 1
Aufenthalts@@ 1
Auff@@ 1
Aufgaben 1
Aufmerk@@ 1
Aufruf 1
Auftrag 1
Auftreten 1
Aufzug 1
Augen@@ 1
Augu@@ 1
Ausarbeitung 1
Ausbildungs@@ 1
Ausbruch 1
Auseinandersetzungen 1
Ausführung 1
Ausführungen 1
Ausgaben 1
Ausgang 1
Ausgangspunkt 1
Auslands@@ 1
Auslegung 1
Auslieferung 1
Ausnahmen 1
Ausrüstung 1
Aussicht 1
Aussichten 1
Ausstattung 1
Ausstellungen 1
Austau@@ 1
Auswahl 1
Auswahl@@ 1
Auswei@@ 1
Aut@@ 1
Authenti@@ 1
Autobahn 1
Autorität 1
Autos 1
Avenue 1
Award 1
B.@@ 1
BB@@ 1
BMW 1
BR@@ 1
BS 1
Baby 1
Baby@@ 1
Bade@@ 1
Bahn@@ 1
Ball@@ 1
Banken 1
Baron@@ 1
Bauern@@ 1
Bearbeitungs@@ 1
Bedrohung 1
Bedrohungen 1
Befehl 1
Befreiung 1
Befür@@ 1
Beh@@ 1
Behandlungen 1
Behandlungs@@ 1
Behinderung 1
Beispiele 1
Bek@@ 1
Belast@@ 1
Bell@@ 1
Bemühen 1
Bemühungen 1
Benutzern 1
Benutzung 1
Beobachtung 1
Beratungs@@ 1
Berechn@@ 1
Berechnung 1
Berei@@ 1
Bereitschaft 1
Berichte 1
Berichten 1
Berichts 1
Bern@@ 1
Beschluss@@ 1
Beschreibung 1
Beschäf@@ 1
Besetzung 1
Besitz@@ 1
Besitzer 1
Besorgnis 1
Best 1
Bestes 1
Bestände 1
Bestätigung 1
Beteiligten 1
Betra@@ 1
Betrach@@ 1
Betracht 1
Betrag 1
Betreiber 1
Betrü@@ 1
Betten 1
Bevölkerungsgruppen 1
Bewegungs@@ 1
Bi@@ 1
Bibliotheken 1
Bilanz 1
Bildschir@@ 1
Bildschirm 1
Bill 1
Biotechnologie 1
Bir@@ 1
Bl@@ 1
Bla@@ 1
Blu@@ 1
Blä@@ 1
Bol@@ 1
Bom@@ 1
Books 1
Bran@@ 1
Branchen 1
Brem@@ 1
Brief 1
Britain 1
Brot 1
Bruder 1
Brun@@ 1
Brut@@ 1
Brü@@ 1
Buchstaben 1
Buenos 1
Bul@@ 1
Bulgarien 1
Bus@@ 1
Busin@@ 1
Börsen@@ 1
Büro 1
Büros 1
CE 1
CIA 1
CL@@ 1
CM@@ 1
CO 1
CR 1
CR@@ 1
Cafés 1
Cambridge 1
Camp 1
Cancún 1
Capital 1
Cash 1
Cel@@ 1
Cha@@ 1
Chal@@ 1
Charakter 1
Charta 1
Che@@ 1
Chem@@ 1
Cher@@ 1
Chicago 1
Chil@@ 1
Cho@@ 1
Chr@@ 1
Cir@@ 1
City 1
Civil 1
Claude 1
Clu@@ 1
Club 1
Clubs 1
Code 1
Comm@@ 1
Committee 1
Common 1
Community 1
Conver@@ 1
Coo@@ 1
Cre@@ 1
Crist@@ 1
Cu@@ 1
D. 1
DE@@ 1
DF 1
Dadurch 1
Daim@@ 1
Dam@@ 1
Dank 1
Darin 1
Das@@ 1
Dat@@ 1
Dateien 1
Datenbank 1
Dauer 1
Dauer@@ 1
David 1
Davon 1
Debatte 1
Defin@@ 1
Deine 1
Del@@ 1
Delegation 1
Dem@@ 1
Demokratisierung 1
Denk@@ 1
Depression 1
Der@@ 1
Designer 1
Designs 1
Detail 1
Deutsch 1
Develop@@ 1
Dez@@ 1
Diagno@@ 1
Dialog 1
Dien@@ 1
Dienst@@ 1
Dienstag 1
Dienste 1
Dienstleistungs@@ 1
Dies@@ 1
Differenzen 1
Digit@@ 1
Digital 1
Digital@@ 1
Diktatur 1
Dimension 1
Dimensionen 1
Dir 1
Diskussion 1
Distri@@ 1
Dokument@@ 1
Dokumentation 1
Dokumenten 1
Domini@@ 1
Don@@ 1
Drittel 1
Dritten 1
Dru@@ 1
Dun@@ 1
Durchschnit@@ 1
Durchsetzung 1
Dutch 1
Dynam@@ 1
E. 1
EA 1
EL 1
EN@@ 1
ET@@ 1
Ed@@ 1
Eden 1
Effektivität 1
Eh@@ 1
Ehren@@ 1
Eigenschaft 1
Eigenschaften 1
Eigentümer 1
Ein- 1
Einfach 1
Eingabe 1
Eingan@@ 1
Einigung 1
Einklang 1
Einkommens@@ 1
Einmischung 1
Einrichtungen 1
Einsch@@ 1
Einschränkung 1
Einstellung 1
Einwanderung 1
Eisen@@ 1
Eisenbahn@@ 1
Ele@@ 1
Element 1
Elite 1
Embry@@ 1
Emissionen 1
Empfang 1
Empfehlung 1
Empfehlungen 1
Empfänger 1
Eng@@ 1
Entdeckung 1
Entscheidungen 1
Entscheidungsfindung 1
Entwick@@ 1
Entwickler 1
Entwicklungs@@ 1
Ereignis 1
Ereignissen 1
Erfahrungen 1
Erfahrungs@@ 1
Erfol@@ 1
Erfolge 1
Erfolgs@@ 1
Erforschung 1
Erfüllung 1
Ergebnissen 1
Erinnerung 1
Erkenntnis 1
Erklärungen 1
Erlaubnis 1
Erleichterung 1
Ern@@ 1
Erreichen 1
Erreichung 1
Errichtung 1
Ersatz 1
Erste 1
Ersten 1
Erwachsen@@ 1
Erwar@@ 1
Erwartungen 1
Erwerb 1
Erz@@ 1
Establi@@ 1
Et@@ 1
Eu@@ 1
European 1
Euros 1
Exempl@@ 1
Exist@@ 1
Exp@@ 1
Explo@@ 1
Export 1
F. 1
Fachleute 1
Fahrrad@@ 1
Fak@@ 1
Faktor 1
Famili@@ 1
Familienz@@ 1
Far@@ 1
Fas@@ 1
Fassung 1
Fast 1
Fe@@ 1
Federal 1
Fehler 1
Feli@@ 1
Felsen 1
Feri@@ 1
Fernseher 1
Fertig@@ 1
Fertigung 1
Fes@@ 1
Feu@@ 1
Fif@@ 1
Finanzen 1
Finanzi@@ 1
Finger 1
Firma 1
Firmen 1
Firmen@@ 1
Fitness@@ 1
Fleisch@@ 1
Flora 1
Florida 1
Flugzeug 1
Fok@@ 1
Folgendes 1
Folter 1
Ford 1
Form 1
Formen 1
Formular 1
Fortsch@@ 1
Fot@@ 1
Fox 1
Fra@@ 1
Francisco 1
Frank 1
Freie 1
Freizei@@ 1
Fri@@ 1
Fried@@ 1
Friedensprozess 1
Fro@@ 1
Fron@@ 1
Front 1
Fun@@ 1
Fuß 1
Fußball@@ 1
Fußgänger@@ 1
Fün@@ 1
Fünf@@ 1
GB@@ 1
Gabri@@ 1
Galerie 1
Gali@@ 1
Galile@@ 1
Galileo 1
Gall@@ 1
Ganz 1
Ganzes 1
Gebiet@@ 1
Geburtstag 1
Gebäudes 1
Gebühren 1
Ged@@ 1
Gedäch@@ 1
Gefangenen 1
Gefähr@@ 1
Gefäng@@ 1
Gegebenheiten 1
Gegen 1
Gegend 1
Gegenteil 1
Gegenwärtig 1
Gelder 1
Gelegenheiten 1
Genauigkeit 1
General 1
Gepäck 1
Gepäckraum 1
Gerechtigkeit 1
Gerichts@@ 1
German 1
Gerne 1
Geräte 1
Gerü@@ 1
Gesamtheit 1
Gescheh@@ 1
Geschen@@ 1
Geschenk 1
Geschäf@@ 1
Gesellschaften 1
Gesetzgeb@@ 1
Gesprächen 1
Gestaltung 1
Gestern 1
Gewer@@ 1
Gewährung 1
Gi@@ 1
Giov@@ 1
Gipfels 1
Gitar@@ 1
Gl@@ 1
Glaub@@ 1
Glauben 1
Gleichheit 1
Glück@@ 1
Go 1
Gol@@ 1
Gon@@ 1
Goo@@ 1
Good 1
Got@@ 1
Gott 1
Grafi@@ 1
Gran@@ 1
Grand 1
Griff 1
Group 1
Großbritanni@@ 1
Große 1
Grupp@@ 1
Gut@@ 1
Gute 1
Gäste 1
Gö@@ 1
HC 1
HR 1
Halb@@ 1
Halle 1
Haltung 1
Handels 1
Handlungs@@ 1
Hans 1
Har@@ 1
Hart@@ 1
Haupts@@ 1
Hauses 1
Hear@@ 1
Heb@@ 1
Heiligen 1
Heimat@@ 1
Hein@@ 1
Heran@@ 1
Herausforderung 1
Here 1
Herrschaft 1
Herzlich 1
Hierzu 1
Hilfs@@ 1
Hin@@ 1
Hindernisse 1
His@@ 1
History 1
Hitler 1
Hob@@ 1
Hochschulen 1
Hoh@@ 1
Hol@@ 1
Homo@@ 1
Hongkong 1
Hospital 1
Hotel 1
Hotels 1
Human 1
Hung@@ 1
Hur@@ 1
Hus@@ 1
Hydro@@ 1
Häufi@@ 1
Hügel 1
IA@@ 1
IF 1
IL@@ 1
IM@@ 1
IN@@ 1
IO 1
IR@@ 1
IS@@ 1
Ideal 1
Immobili@@ 1
Immobilien 1
Imperial 1
Import 1
Indonesien 1
Industri@@ 1
Inflation 1
Information@@ 1
Informations@@ 1
Infrastruktur 1
Infrastrukturen 1
Inhalte 1
Inkrafttreten 1
Innenstadt 1
Inneren 1
Instand@@ 1
Institute 1
Institution 1
Instrument@@ 1
Instrumente 1
Instrumenten 1
Intel@@ 1
Intelli@@ 1
Internetseite 1
Internetseiten 1
Interpretation 1
Investi@@ 1
Investitionen 1
Investitions@@ 1
Isol@@ 1
Isra@@ 1
Israeli@@ 1
Itali@@ 1
Italiens 1
Iz@@ 1
Jac@@ 1
Jack@@ 1
Jahr@@ 1
Jahre@@ 1
Jahresbericht 1
Jahrhunderte 1
Je@@ 1
Jo@@ 1
Jobs 1
Jord@@ 1
Jordan 1
Joseph 1
Journal 1
Jub@@ 1
Jubil@@ 1
Juli@@ 1
Junior 1
Jury 1
Justiz@@ 1
Jür@@ 1
K. 1
KL@@ 1
Kaffe@@ 1
Kais@@ 1
Kam@@ 1
Kamer@@ 1
Kanz@@ 1
Karte 1
Katastrophen 1
Katastrophen@@ 1
Kategorie 1
Kaz@@ 1
Kenntnisse 1
Kind@@ 1
Kla@@ 1
Klar@@ 1
Klassen 1
Kli@@ 1
Klima 1
Klimawandel 1
Kloster 1
Kno@@ 1
Kok@@ 1
Kollegin 1
Koloni@@ 1
Kolum@@ 1
Komfort 1
Komit@@ 1
Komment@@ 1
Kommentar 1
Kommentare 1
Kommunik@@ 1
Kommunismus 1
Komplex@@ 1
Kompon@@ 1
Kompromiss 1
Kompromisse 1
Konferenz 1
Konflikte 1
Kongress 1
Konkurren@@ 1
Konsens 1
Konsequenzen 1
Konservativen 1
Konsolidierung 1
Konsu@@ 1
Kontinent 1
Kontinents 1
Kontra@@ 1
Konzentration 1
Konzep@@ 1
Konzept 1
Kooperations@@ 1
Kosme@@ 1
Kost@@ 1
Kra@@ 1
Kredite 1
Kreditkarte 1
Kris@@ 1
Krisen 1
Kriterium 1
Kron@@ 1
Krä@@ 1
Kuli@@ 1
Kulturen 1
Kunde 1
Kunststoff@@ 1
Kur@@ 1
Kyoto 1
Kön@@ 1
König@@ 1
Königreichs 1
Können 1
Körper 1
Küche 1
Kühl@@ 1
Kühlschrank 1
Künstler@@ 1
Künstlern 1
Kürzungen 1
Küste 1
L 1
Lac@@ 1
Lam@@ 1
Landes@@ 1
Landschaft 1
Landschaften 1
Landwirte 1
Landwirtschafts@@ 1
Las 1
Las@@ 1
Laser@@ 1
Lat@@ 1
Lav@@ 1
Law 1
Leb@@ 1
Lebensbedingungen 1
Lebensmittel 1
Lebensmitteln 1
Lec@@ 1
Legal 1
Legisl@@ 1
Lehre 1
Leid 1
Leiden 1
Leit@@ 1
Leitung 1
Len@@ 1
Lernen 1
Leser 1
Lett@@ 1
Libanon 1
Liberalisierung 1
Library 1
Libyen 1
Lieb@@ 1
Lieferanten 1
Lieferung 1
Liga 1
Limited 1
Lit@@ 1
Live 1
Lizenz 1
Lo@@ 1
Lob@@ 1
Lobby@@ 1
Loch 1
Logo 1
Logos 1
Lohn@@ 1
Lor@@ 1
Lord 1
Ltd 1
Luftfahrt@@ 1
Lun@@ 1
Luxem@@ 1
Luxemburg 1
Luxus 1
Lärm 1
Lösungs@@ 1
MAS@@ 1
Macedonia 1
Mach@@ 1
Mag@@ 1
Maga@@ 1
Magaz@@ 1
Magazine 1
Mail@@ 1
Mails 1
Maison 1
Maj@@ 1
Manager 1
Manchester 1
Manhattan 1
Mar 1
Marc 1
Marina 1
Mario 1
Mark 1
Marketing 1
Markt@@ 1
Marktan@@ 1
Marokko 1
Mass@@ 1
Master@@ 1
Mau@@ 1
Mazedonien 1
Maß@@ 1
Maßnahme 1
Maßstab 1
Me@@ 1
Mechanismus 1
Medium 1
Medizin 1
Medizin@@ 1
Meg@@ 1
Meilen 1
Meilenst@@ 1
Meiner 1
Meines 1
Mensch@@ 1
Menschenrechten 1
Ment@@ 1
Mer@@ 1
Merc@@ 1
Metro@@ 1
Mich@@ 1
Micro@@ 1
Miet@@ 1
Mikro@@ 1
Milli@@ 1
Milliarde 1
Million 1
Minder@@ 1
Miner@@ 1
Minister 1
Minister@@ 1
Ministerpräsidenten 1
Mischung 1
Mitgli@@ 1
Mitgliedschaft 1
Mitt@@ 1
Mittagessen 1
Mitteilung 1
Mittelme@@ 1
Mittelmeer@@ 1
Mittelpunkt 1
Mittwoch 1
Modell@@ 1
Moder@@ 1
Mol@@ 1
Mono@@ 1
Monta@@ 1
Monte@@ 1
Mount 1
Mountains 1
Mr@@ 1
Musli@@ 1
Mä@@ 1
Märkte 1
Märkten 1
Mün@@ 1
München 1
NL 1
Nachfol@@ 1
Nachfrage 1
Nachricht 1
Nachteile 1
Nahrungs@@ 1
Napole@@ 1
National 1
Natur@@ 1
Naturkatastrophen 1
Nau@@ 1
Nav@@ 1
Neb@@ 1
Nehmen 1
Nep@@ 1
Neue 1
New@@ 1
Nichol@@ 1
Nicht@@ 1
Nichtregierungs@@ 1
Nicol@@ 1
Niederlande 1
Niederlanden 1
Nikol@@ 1
Nob@@ 1
Nordi@@ 1
Not 1
Note 1
Nov@@ 1
Null 1
Nä@@ 1
ON@@ 1
Obst@@ 1
Ocean 1
Offen@@ 1
Office 1
Oft 1
Olymp@@ 1
Oper@@ 1
Operation 1
Operationen 1
Option 1
Ordner 1
Ordnung 1
Orientierung 1
Orte 1
Oslo 1
Ox@@ 1
Oz@@ 1
P 1
PT 1
Paar 1
Pacific 1
Pack 1
Paket 1
Pakete 1
Pakist@@ 1
Palma 1
Papier 1
Parks 1
Parlam@@ 1
Partner 1
Partnern 1
Pas@@ 1
Patent 1
Pati@@ 1
Pazi@@ 1
Pel@@ 1
Pent@@ 1
Pep@@ 1
Perf@@ 1
Peri@@ 1
Personal 1
Personen@@ 1
Pfei@@ 1
Pflanzen 1
Ph@@ 1
Phasen 1
Phili@@ 1
Philos@@ 1
Phän@@ 1
Piazza 1
Pic@@ 1
Pilot 1
Pilot@@ 1
Planet 1
Plans 1
Plat@@ 1
Platten 1
Plattform 1
Plattformen 1
Ple@@ 1
Plu@@ 1
Pläne 1
Plätzen 1
Poker@@ 1
Politikern 1
Poly@@ 1
Pom@@ 1
Pon@@ 1
Port@@ 1
Porto 1
Posi@@ 1
Positionen 1
Potential 1
Praktiken 1
Preis@@ 1
Preise 1
Pressemit@@ 1
Prim@@ 1
Priorität 1
Prioritäten 1
Priv@@ 1
Private 1
Privatisierung 1
Privi@@ 1
Prix 1
Pro 1
Problemen 1
Produkt 1
Profession@@ 1
Program@@ 1
Programme 1
Programms 1
Projekt@@ 1
Projekts 1
Prote@@ 1
Provin@@ 1
Prozent@@ 1
Prozess 1
Präsentation 1
Präsenz 1
Präsidentin 1
Präsidentschaft 1
Präsidi@@ 1
Prüf@@ 1
Prüfungen 1
Publi@@ 1
Publikum 1
Pul@@ 1
Punk@@ 1
Put@@ 1
Py@@ 1
Quadrat@@ 1
Quali@@ 1
Qualität 1
Quellen 1
Quer@@ 1
Qui@@ 1
RE@@ 1
ROM 1
Rad@@ 1
Ram@@ 1
Ran@@ 1
Rande 1
Rap@@ 1
Rassismus 1
Rat@@ 1
Rate 1
Rath@@ 1
Reaktion 1
Realisierung 1
Reb@@ 1
Rechn@@ 1
Rechnung@@ 1
Recht@@ 1
Rechtsvorschriften 1
Recy@@ 1
Red 1
Red@@ 1
Reden 1
Reform 1
Regel@@ 1
Regierungschefs 1
Region@@ 1
Regionalpolitik 1
Regionen 1
Registri@@ 1
Regulierungs@@ 1
Reich 1
Reihen@@ 1
Rel@@ 1
Religion 1
Ren@@ 1
Renovi@@ 1
Renten@@ 1
Republic 1
Research 1
Ressourcen 1
Ric@@ 1
Riesen@@ 1
Right 1
Rights 1
Rindfleisch 1
Robert 1
Rock 1
Rock@@ 1
Rom 1
Ron@@ 1
Room 1
Rub@@ 1
Ruhe 1
Rund 1
Runde 1
Russen 1
Russlands 1
Ry@@ 1
Rä@@ 1
Räume 1
Rö@@ 1
Rücksicht 1
Rüstungs@@ 1
SI 1
SS 1
ST 1
Saal 1
Sachen 1
Samm@@ 1
Sanktionen 1
Santiago 1
Sard@@ 1
Sark@@ 1
Sat@@ 1
Satelli@@ 1
Satelliten 1
Satz 1
Sav@@ 1
Sax@@ 1
Schaf@@ 1
Schatten@@ 1
Schei@@ 1
Schicksal 1
Schie@@ 1
Schlaf@@ 1
Schlag@@ 1
Schle@@ 1
Schließlich 1
Schloss 1
Schluss@@ 1
Schn@@ 1
Scho@@ 1
Schreib@@ 1
Schri@@ 1
Schrif@@ 1
Schriftsteller 1
Schritten 1
Schuld@@ 1
Schulden 1
Schw@@ 1
Schwach@@ 1
Schwei@@ 1
Schwein@@ 1
Schwi@@ 1
Schwimm@@ 1
Schö@@ 1
Schön@@ 1
Sci@@ 1
Scott 1
Screen@@ 1
Search 1
Seattle 1
Sebas@@ 1
See@@ 1
Seeh@@ 1
Segment 1
Sektoren 1
Sekunden 1
Sender 1
Sensibili@@ 1
Sept@@ 1
Seri@@ 1
Service 1
Service@@ 1
Sha@@ 1
Sharon 1
Shi@@ 1
Shopping 1
Sicht@@ 1
Sign@@ 1
Signal 1
Sil@@ 1
Sili@@ 1
Sind 1
Sinn 1
Sinn@@ 1
Sis@@ 1
Skep@@ 1
Ski 1
Skla@@ 1
Skype 1
Snow@@ 1
Sobald 1
Software@@ 1
Sogar 1
Soldaten 1
Solidarität 1
Sollten 1
Song 1
Songs 1
Sonntag 1
Sorge 1
Sorgen 1
Sorgfalt 1
South 1
Southern 1
Souveränität 1
Sowjetunion 1
Sozi@@ 1
Sozial@@ 1
Spannungen 1
Spar@@ 1
Spaß 1
Spe@@ 1
Speci@@ 1
Spei@@ 1
Speise@@ 1
Speisen 1
Spekul@@ 1
Spezialisten 1
Spitzen@@ 1
Spon@@ 1
Spor@@ 1
Sport 1
Sports 1
Square 1
Stabilität 1
Stadtzentrum 1
Stahl 1
Stahl@@ 1
Stand@@ 1
Standpunkt 1
Stars 1
Stat@@ 1
State 1
Statistiken 1
Stei@@ 1
Steigerung 1
Stellungnahme 1
Steph@@ 1
Steuerung 1
Steuerzahler 1
Stil@@ 1
Still@@ 1
Stimmung 1
Stoff@@ 1
Strafe 1
Straft@@ 1
Strategie 1
Strecke 1
Strecken 1
Streit 1
Streit@@ 1
Stri@@ 1
Stro@@ 1
Student@@ 1
Stufe 1
Stufen 1
Sty@@ 1
Städ@@ 1
Stör@@ 1
Such@@ 1
Sum@@ 1
Support 1
Sus@@ 1
Sw@@ 1
Sym@@ 1
Szene 1
TA@@ 1
TO@@ 1
Tabak 1
Tag@@ 1
Tages@@ 1
Tam@@ 1
Tamp@@ 1
Tar@@ 1
Technologie@@ 1
Teile 1
Teilnahme 1
Telefon@@ 1
Telefonnummer 1
Temp@@ 1
Ten@@ 1
Tepp@@ 1
Termin@@ 1
Terms 1
Terror@@ 1
Tex@@ 1
Texte 1
Theater@@ 1
Themas 1
Themen@@ 1
Theorie 1
These 1
Thomas 1
Thy@@ 1
Ti@@ 1
Tier@@ 1
Time 1
Tisch@@ 1
Tol@@ 1
Toleranz 1
Ton 1
Tonnen 1
Top@@ 1
Tor 1
Tour@@ 1
Tourismus 1
Tr@@ 1
Trade 1
Tradi@@ 1
Traditionen 1
Tragen 1
Training 1
Training@@ 1
Transport@@ 1
Trau@@ 1
Trink@@ 1
Trock@@ 1
Trop@@ 1
Tru@@ 1
Turnier 1
Two 1
Ty@@ 1
Typ@@ 1
Tätigkeiten 1
Tö@@ 1
Tür@@ 1
Türen 1
UN 1
UR 1
Uhr@@ 1
Ul@@ 1
Umgang 1
Umsetzung 1
Umstand 1
Umstrukturierung 1
Umwand@@ 1
Umwel@@ 1
Umweltsch@@ 1
Unabhängi@@ 1
Ungar@@ 1
Univers@@ 1
University 1
Unsicherheit 1
Unterhaltungs@@ 1
Untern@@ 1
Unterricht 1
Untersuch@@ 1
Urlaub@@ 1
Urspr@@ 1
Ursprung 1
Ursprün@@ 1
Uru@@ 1
VI@@ 1
Vaku@@ 1
Vali@@ 1
Van 1
Variante 1
Vegas 1
Veranstalter 1
Veranstaltungen 1
Verantwortungs@@ 1
Verbündeten 1
Vereinig@@ 1
Verfahrens 1
Verfas@@ 1
Verfol@@ 1
Verfolgung 1
Vergan@@ 1
Vergleich@@ 1
Verhand@@ 1
Verhinderung 1
Verhältnis 1
Verhältnisse 1
Verkauf@@ 1
Verkehrsmittel 1
Verknüpfung 1
Verlauf 1
Verletz@@ 1
Verlu@@ 1
Verlust 1
Verlängerung 1
Vermarktung 1
Vermeidung 1
Vermitt@@ 1
Vermögen 1
Vernich@@ 1
Verpack@@ 1
Verpackung 1
Verpackungs@@ 1
Verpflichtung 1
Verschlüssel@@ 1
Versicherung 1
Versicherungs@@ 1
Versionen 1
Versorgungs@@ 1
Verstoß 1
Verstän@@ 1
Vertiefung 1
Vertretung 1
Vertrieb 1
Vertriebs@@ 1
Verwal@@ 1
Verwir@@ 1
Very 1
Verzögerung 1
Veränderung 1
Victoria 1
Videos 1
Viel 1
Vielfalt 1
Vielzahl 1
Virtu@@ 1
Visum@@ 1
Volkswirtschaft 1
Vorberei@@ 1
Vorgaben 1
Vorgehen 1
Vormittag 1
Vorsch@@ 1
Vorschläge 1
Vorsitz 1
Vorsitzenden 1
Vorsitzender 1
Vorteilen 1
Vorwand 1
Völkern 1
WM 1
Waff@@ 1
Wahr@@ 1
Wahrnehmung 1
Wald 1
Wald@@ 1
Wall 1
Wand 1
Wann 1
Waren 1
Waren@@ 1
Wart@@ 1
Wash@@ 1
Wat@@ 1
Watch 1
We 1
We@@ 1
Web@@ 1
Wechsel@@ 1
Weil 1
Wein 1
Weiter@@ 1
Weiß@@ 1
Weltbank 1
Welthandelsorganisation 1
Weltwirtschaft 1
Werbe@@ 1
Werden 1
Werke 1
Wert@@ 1
Werte 1
Werten 1
Wertpap@@ 1
West 1
Western 1
Wet@@ 1
Wettbewerbs@@ 1
Whi@@ 1
Wi@@ 1
Wie@@ 1
Wiederaufnahme 1
Wiederherstellung 1
Wil@@ 1
Wind@@ 1
Windows 1
Wir@@ 1
Wirtschaftspolitik 1
Wirtschaftswachstum 1
Wissen@@ 1
Wissenschaft 1
Wissenschaft@@ 1
Wo@@ 1
Wohlbefinden 1
Wol@@ 1
Wolf@@ 1
Woo@@ 1
WordPress 1
Worte 1
Wunder 1
Wunder@@ 1
Wählen 1
Währungs@@ 1
Wäre 1
Wünsche 1
Wünschen 1
Yo@@ 1
Young 1
Yugosla@@ 1
Zah@@ 1
Zahlung 1
Zau@@ 1
Zeile 1
Zeitalter 1
Zeitsch@@ 1
Zeitschrift 1
Zentrale 1
Zentren 1
Zerst@@ 1
Zerstörung 1
Ziels 1
Zielsetzung 1
Zins@@ 1
Zit@@ 1
Zivilisation 1
Zucker 1
Zudem 1
Zug 1
Zug@@ 1
Zuge 1
Zunächst 1
Zusammenfassung 1
Zusatz@@ 1
Zusch@@ 1
Zut@@ 1
Zw@@ 1
Zwangs@@ 1
Zwar 1
Zwecke 1
Zwecken 1
Zwei 1
Zweitens 1
Zwischen 1
Zwischenzeit 1
Züge 1
aba 1
abel@@ 1
abends 1
abgeben 1
abgegeben 1
abgeschafft 1
abhängi@@ 1
abkommen 1
ablehnen 1
about 1
abschließend 1
absichti@@ 1
absolute 1
absoluten 1
abstimmung 1
abstra@@ 1
absur@@ 1
absurd 1
abzielen 1
abzielt 1
ache 1
acher 1
aches 1
acht@@ 1
achten 1
achtet 1
aci@@ 1
aco 1
acqu@@ 1
add@@ 1
aden@@ 1
adi 1
ado@@ 1
ads 1
ae 1
affen 1
affung 1
afri@@ 1
aga@@ 1
agan 1
aganda 1
agen 1
agentur 1
agi@@ 1
agna 1
ago 1
agt 1
aher 1
ail@@ 1
aim@@ 1
aire 1
akt 1
akte 1
akter@@ 1
aktiven 1
aku@@ 1
album 1
alco@@ 1
alem 1
alisierte 1
alisierten 1
alist 1
alisten 1
alities 1
aller@@ 1
allgemein 1
allgemeiner 1
alls 1
alog@@ 1
alt@@ 1
ama 1
ame@@ 1
amed 1
analysieren 1
anas 1
anbietet 1
ancen 1
andelt 1
ander 1
ander@@ 1
anderswo 1
andt 1
ane@@ 1
anerkannten 1
ang@@ 1
angeben 1
angehen 1
angem@@ 1
angemessen 1
angemessene 1
angemessenen 1
angenehme 1
angenehmen 1
anges@@ 1
angeschlossen 1
angrenz@@ 1
anhalten@@ 1
ania 1
anien 1
anim@@ 1
anlässlich 1
annt 1
anschauen 1
anscheinend 1
anstal@@ 1
ansä@@ 1
anten 1
anten@@ 1
anter 1
anwen@@ 1
any 1
anya 1
anz 1
anzubieten 1
anzupassen 1
appar@@ 1
aran@@ 1
arbeitenden 1
arbeiteten 1
arbeits@@ 1
arbeitungs@@ 1
arch 1
arer 1
ark@@ 1
arm 1
arm@@ 1
aro 1
arre@@ 1
ars 1
art 1
arta 1
arte 1
artig 1
artigen 1
asiatischen 1
asis 1
asp@@ 1
assen@@ 1
asser@@ 1
asso 1
assungs@@ 1
asten 1
astronom@@ 1
asts 1
ata 1
ate@@ 1
aters 1
ationale 1
atischen 1
ator@@ 1
atori@@ 1
attra@@ 1
attraktive 1
atum 1
atus 1
atz 1
aufbauen 1
aufeinander 1
auff@@ 1
auffor@@ 1
aufgaben 1
aufgegeben 1
aufgestellt 1
aufmerk@@ 1
aufrechtzuerhalten 1
aufweisen 1
aul@@ 1
aup@@ 1
ausch 1
ausdrück@@ 1
ausdrücklich 1
ause 1
ausführen 1
ausführlich 1
ausgebaut 1
ausgeführt 1
ausgegeben 1
ausgehen 1
ausgeht 1
ausgeliefert 1
ausgenommen 1
ausgerichtet 1
ausgesetzt 1
ausgesprochen 1
ausgeübt 1
aush@@ 1
ausschuss 1
ausschusses 1
ausstattung 1
auto@@ 1
autom@@ 1
aux 1
außer@@ 1
aven@@ 1
aw@@ 1
aya 1
az 1
azz@@ 1
back 1
baden 1
bah@@ 1
bal@@ 1
balan@@ 1
band 1
bank 1
bank@@ 1
bar@@ 1
bara 1
bares 1
barri@@ 1
bat 1
bat@@ 1
bauer 1
baum 1
baut 1
baute 1
beantragen 1
beantworten 1
bearbeitet 1
beauf@@ 1
beauftragt 1
bed@@ 1
bedarf 1
bedau@@ 1
bedauer@@ 1
bedauern 1
bedeutend 1
bedienen 1
bedürf@@ 1
beein@@ 1
beenden 1
befasst 1
befindlichen 1
befreien 1
befriedi@@ 1
befür@@ 1
befürchten 1
befürwor@@ 1
befürworte 1
begeg@@ 1
begehen 1
begeist@@ 1
begeistert 1
beglei@@ 1
beglück@@ 1
begriffen 1
begünsti@@ 1
beha@@ 1
behar@@ 1
behaup@@ 1
beherbergt 1
beherrscht 1
beispiel@@ 1
beit 1
beizu@@ 1
beizutragen 1
bekann@@ 1
bekannte 1
bekistan 1
bekommt 1
bekräftigt 1
bekämpfung 1
belastet 1
belastung 1
belegen 1
belegt 1
beloh@@ 1
belt 1
bemerk@@ 1
bemü@@ 1
benachtei@@ 1
bende 1
benö@@ 1
bequ@@ 1
bequem 1
berat@@ 1
beraten 1
berau@@ 1
berech@@ 1
berechtigt 1
berechtigte 1
berechtigten 1
berechtigung 1
bereitstellen 1
bereitung 1
berg@@ 1
berich@@ 1
berichten 1
bert 1
beruht 1
berührt 1
beschleun@@ 1
beschleunigen 1
beschleunigt 1
beschränken 1
beschä@@ 1
beseitigen 1
beseitigt 1
besetzt 1
besseren 1
bestehende 1
bestellen 1
bestimm@@ 1
bestimmen 1
bestimmter 1
bestimmtes 1
beteiligen 1
beteiligten 1
betonen 1
betra@@ 1
betre@@ 1
betreff@@ 1
betreffenden 1
betreut 1
betroffen 1
betroffenen 1
beträch@@ 1
beunruhi@@ 1
beunruhigt 1
beurteilen 1
beurteilt 1
bevorzugen 1
bevölk@@ 1
bewe@@ 1
bewegt 1
bewegung 1
beweisen 1
bewertet 1
bewiesen 1
bewusstsein 1
bewältigen 1
bezahl@@ 1
bezauber@@ 1
bezir@@ 1
bie 1
biets 1
bige 1
bigen 1
bildungen 1
bing 1
bio@@ 1
bisherigen 1
bit@@ 1
bitten 1
blauen 1
bles 1
blichen 1
blicken 1
blockiert 1
blu@@ 1
blü@@ 1
bo 1
bollah 1
bor@@ 1
bou@@ 1
brachten 1
brand 1
bre@@ 1
brech@@ 1
breit 1
bri@@ 1
bricht 1
bring@@ 1
britischen 1
bro@@ 1
bruch 1
brut@@ 1
bräu@@ 1
buchs 1
bud@@ 1
bum@@ 1
bungs@@ 1
bur@@ 1
business 1
but 1
by 1
bö@@ 1
bör@@ 1
büh@@ 1
bürger 1
büro 1
bürokrati@@ 1
büros 1
ca@@ 1
café 1
camp@@ 1
car@@ 1
cau@@ 1
ce@@ 1
cer 1
cha@@ 1
chan@@ 1
charakter@@ 1
charman@@ 1
chemische 1
chers 1
chinesische 1
chni@@ 1
chno@@ 1
cho 1
christ@@ 1
chterung 1
chtest 1
chteten 1
chtigen 1
chtigkeit 1
cial 1
cip@@ 1
ción 1
cket 1
cl@@ 1
cli@@ 1
club 1
com 1
cop@@ 1
cot@@ 1
court 1
ction 1
cu@@ 1
cular 1
cur@@ 1
curi@@ 1
cus 1
dachten 1
dafri@@ 1
dago@@ 1
dah@@ 1
dam@@ 1
damaligen 1
damer 1
dank@@ 1
dargelegt 1
dargestellt 1
das@@ 1
dauerhafte 1
dauern 1
dec 1
decken 1
defin@@ 1
definiert 1
definition 1
deh@@ 1
dehnen 1
dein 1
deinem 1
deiner 1
dek@@ 1
della 1
dem@@ 1
demonstration 1
dend 1
dende 1
denden 1
dene 1
denk@@ 1
dens 1
denschaft 1
dent@@ 1
denten 1
dep@@ 1
derjenigen 1
derselben 1
derte 1
designer 1
dest@@ 1
deswegen 1
determin@@ 1
deutet 1
deutscher 1
dh@@ 1
diagra@@ 1
dic@@ 1
did@@ 1
die@@ 1
dienst@@ 1
diensten 1
diert 1
dies@@ 1
diesbezüglich 1
diesmal 1
dig 1
dig@@ 1
digitalen 1
din@@ 1
dio@@ 1
diplom@@ 1
dire@@ 1
diskutieren 1
distingu@@ 1
dliche 1
dlicher 1
dlichkeit 1
dner 1
do 1
dol@@ 1
don@@ 1
dor 1
dou@@ 1
dow 1
drastisch 1
drehen 1
dringend 1
droht 1
dru@@ 1
druck@@ 1
drän@@ 1
drück@@ 1
drückt 1
dsch@@ 1
dum 1
dun@@ 1
durchaus 1
durchgeführten 1
durchschnittliche 1
dus 1
dürfte 1
dürften 1
ea 1
eb 1
ebe 1
eben@@ 1
ebo@@ 1
echo@@ 1
echtes 1
eder 1
eder@@ 1
edern 1
eds 1
ee 1
eff@@ 1
effizient 1
effiziente 1
eg 1
egel@@ 1
egeln 1
egen 1
egen@@ 1
egenen 1
ego 1
ego@@ 1
egt 1
ehe 1
ehme 1
ehmer 1
ehrlich 1
ehrte 1
eigenem 1
eigener 1
eil 1
einbringen 1
eindeutig 1
eindeutigen 1
eindrucks@@ 1
einerseits 1
einfaches 1
eingeb@@ 1
eingebracht 1
eingegangen 1
eingehen 1
eingenommen 1
eingereicht 1
eingerichtet 1
einhalten 1
einhei@@ 1
einheitlichen 1
einher@@ 1
einig 1
einig@@ 1
einiges 1
einigt 1
einnahmen 1
einnehmen 1
einrichtung 1
einrichtungen 1
einschlä@@ 1
einsei@@ 1
einsetzen 1
einstellen 1
einstimmig 1
eintreten 1
eintritt 1
einwand@@ 1
einzel@@ 1
einzeln 1
einzi@@ 1
einzigartiges 1
einzuführen 1
einzurichten 1
eits@@ 1
ek 1
eken 1
ekt 1
eland 1
eldet 1
eleg@@ 1
elegant 1
eleganten 1
elek@@ 1
elektron@@ 1
elektronischen 1
elem@@ 1
element@@ 1
eli@@ 1
ella 1
ellers 1
elli 1
elli@@ 1
ello 1
elson 1
elung 1
emand 1
emanden 1
ember 1
embers 1
ement 1
emm@@ 1
empfangen 1
empfin@@ 1
empfängt 1
en- 1
ende@@ 1
endet 1
endgültige 1
ends 1
endy 1
energ@@ 1
energie@@ 1
eng 1
engaged 1
engli@@ 1
englische 1
englischen 1
engruppen 1
enken 1
enn 1
ennen 1
ennt 1
enor@@ 1
enorme 1
enswer@@ 1
entdeckte 1
enters 1
entfernten 1
entin 1
entlichen 1
entnehmen 1
entre@@ 1
entscheidende 1
entschied 1
entspannen 1
entsprech@@ 1
entsprechen 1
entsprechende 1
enttäuscht 1
entweder 1
entwick@@ 1
entwickeln 1
entziehen 1
eras 1
erbar 1
erbaut 1
erbringen 1
erei 1
erem 1
erende 1
erender 1
erfahr@@ 1
erfassen 1
erfasst 1
erfolgen 1
erfolgreich 1
erfolgreich@@ 1
erfolgreichen 1
erforderliche 1
erfüllen 1
ergeben 1
ergreifen 1
ergänzen 1
erheblich 1
erhebliche 1
erhebt 1
erhältlich 1
erie 1
erien 1
erischen 1
erkenn@@ 1
erkt 1
erlangen 1
erledigen 1
ermittelt 1
ermu@@ 1
ernde 1
ernden 1
erneu@@ 1
ernst 1
ernsthaften 1
ernt 1
erreichte 1
errichtet 1
ers@@ 1
erschwert 1
ersetzt 1
erst@@ 1
erstaun@@ 1
erstellen 1
erstmals 1
ertes 1
erungen 1
erweitern 1
erweitert 1
erwer@@ 1
erworben 1
erwäh@@ 1
erwähnte 1
erwähnten 1
erzeugen 1
erzeugt 1
erzi@@ 1
erzielte 1
eröffnen 1
erörtert 1
esa 1
esische 1
essing 1
esten 1
esti@@ 1
etabli@@ 1
ethischen 1
ethnischen 1
eto@@ 1
ett 1
etwa@@ 1
euer 1
eur@@ 1
ever@@ 1
evo 1
exakt 1
exist@@ 1
exo@@ 1
experim@@ 1
extern@@ 1
extra@@ 1
extre@@ 1
extreme 1
exzell@@ 1
ey@@ 1
f. 1
fabri@@ 1
fabrik 1
fache 1
fahrzeugen 1
fair 1
fak@@ 1
faktor 1
faktoren 1
falls 1
famili@@ 1
familie 1
fang 1
fangen 1
fantas@@ 1
fas@@ 1
fass@@ 1
fassung 1
fassungs@@ 1
faszini@@ 1
fehl@@ 1
fehlende 1
fehlenden 1
fein@@ 1
ferenzen 1
fern@@ 1
fertig@@ 1
fertigen 1
fertigung 1
festen 1
festgelegt 1
festgelegten 1
ff 1
ffe 1
ffekt 1
ffern 1
ffs 1
field 1
fikation 1
fikations@@ 1
film 1
fin 1
finanziellen 1
finanzieren 1
firmen 1
fizi@@ 1
fizierte 1
fizierten 1
flexi@@ 1
fli@@ 1
flich 1
flicht 1
fließen 1
flu@@ 1
fluss 1
fluss@@ 1
fläche 1
fo@@ 1
folge 1
folgedessen 1
forderte 1
form 1
formuliert 1
forschung 1
fort 1
fortgeschrit@@ 1
forts 1
fortsch@@ 1
fortzusetzen 1
four 1
fr 1
frag@@ 1
franzö@@ 1
freih@@ 1
freiwillig 1
frequ@@ 1
freuen 1
freund@@ 1
freut 1
fried@@ 1
friedliche 1
fro@@ 1
früh 1
fts@@ 1
fuhren 1
fun@@ 1
funk@@ 1
funktionier@@ 1
funktions@@ 1
fur@@ 1
fut@@ 1
fähige 1
fähigen 1
fänger 1
föder@@ 1
fügen 1
fühle 1
führend 1
führenden 1
führungen 1
fünf@@ 1
fürchte 1
ga@@ 1
gab@@ 1
galt 1
gam@@ 1
gan@@ 1
gangs@@ 1
garage 1
garanti@@ 1
garantieren 1
gasse 1
gast@@ 1
gebenen 1
geber@@ 1
gebeten 1
gebil@@ 1
gebnisse 1
gebraucht 1
gebunden 1
gedacht 1
gefahren 1
gefasst 1
gefährlicher 1
gefügt 1
geführten 1
gegenseitig 1
gegenseitige 1
gegrün@@ 1
gehand@@ 1
gehende 1
geholfen 1
geholt 1
gehöri@@ 1
geist 1
geladen 1
gelegene 1
gelegentlich 1
gelegte 1
geleistet 1
geleitet 1
gelesen 1
gelö@@ 1
gemeint 1
gemon@@ 1
genannte 1
genau@@ 1
genauso 1
gence 1
gener@@ 1
genommenen 1
genten 1
genutz@@ 1
genutzt 1
genügend 1
geord@@ 1
geordneten 1
geplante 1
geplanten 1
geprüft 1
gerecht 1
geren 1
gericht@@ 1
geringe 1
geringen 1
gerufen 1
gerung 1
geräten 1
geschehen 1
geschlagen 1
geschlossen@@ 1
geschlossenen 1
geschm@@ 1
geschn@@ 1
geschul@@ 1
geschäft 1
geschäfte 1
geschütz@@ 1
gesellschaften 1
gesendet 1
gesetzte 1
gesorgt 1
gessen 1
gestal@@ 1
gestaltung 1
gestellten 1
gesti@@ 1
gesucht 1
gesundhei@@ 1
gesundheits@@ 1
get 1
getre@@ 1
getroffen 1
getroffenen 1
gewahrt 1
gewer@@ 1
gewi@@ 1
gewöhn@@ 1
gezielte 1
gg@@ 1
gi 1
gie@@ 1
gigan@@ 1
gigen 1
gin 1
gipfel 1
gkeiten 1
gla@@ 1
glas 1
gliches 1
glob@@ 1
globaler 1
glän@@ 1
glück@@ 1
gorith@@ 1
gos 1
graf@@ 1
grafische 1
gram@@ 1
gran@@ 1
graus@@ 1
gre@@ 1
greift 1
grenzüberschreit@@ 1
gres@@ 1
griech@@ 1
griechische 1
griechischen 1
griffen 1
großem 1
großes 1
großzügi@@ 1
großzügig 1
grund 1
grundsätzlich 1
grä@@ 1
größeres 1
gründe 1
gründet 1
gründete 1
grünen 1
gst 1
gster 1
gter 1
gu@@ 1
gutem 1
gutes 1
gy@@ 1
gyp@@ 1
gän@@ 1
gänge 1
gäste 1
gültigen 1
günstige 1
günstigen 1
hab@@ 1
haf@@ 1
haften 1
halb@@ 1
halben 1
half 1
halte 1
haltenden 1
haltenen 1
halts 1
haltung 1
ham@@ 1
han 1
han@@ 1
handel 1
handels 1
handels@@ 1
hang 1
harmonisi@@ 1
harte 1
hase 1
hau@@ 1
haup@@ 1
haush@@ 1
health 1
heb@@ 1
hef@@ 1
heik@@ 1
heim@@ 1
heißen 1
herbei@@ 1
heres 1
herkömm@@ 1
herkömmlichen 1
herrlichen 1
herrschen 1
herstellen 1
herunter@@ 1
heruntergeladen 1
hervorra@@ 1
hervorragend 1
heutige 1
hi 1
hielten 1
hierarch@@ 1
hil@@ 1
hinsichtlich 1
hinweg 1
hinweisen 1
hinzugefügt 1
hinzuweisen 1
hinzuzufügen 1
historische 1
hl 1
hne 1
hof 1
hohem 1
hoher 1
hold 1
homo@@ 1
horizontal 1
http 1
human@@ 1
humanitären 1
hungen 1
händler 1
hängi@@ 1
här@@ 1
häre 1
häufi@@ 1
häufigsten 1
häusern 1
höhe 1
höher@@ 1
höherer 1
hüb@@ 1
ic 1
ica 1
ical 1
icht@@ 1
ichten 1
ichtet 1
ide@@ 1
ideale 1
iden 1
identifizieren 1
ieden 1
iegel 1
iel 1
iel@@ 1
ielt 1
ierter 1
iev@@ 1
if 1
ignori@@ 1
ignorieren 1
igrants 1
igration 1
igt 1
igte 1
igung 1
iler 1
ili@@ 1
ilit@@ 1
ill 1
illa 1
ils 1
immense 1
implemen@@ 1
impor@@ 1
ination 1
ind@@ 1
inde@@ 1
indi@@ 1
indu@@ 1
industri@@ 1
ine@@ 1
inea 1
inen@@ 1
inform@@ 1
informationen 1
informiert 1
inger 1
ingt 1
ington 1
ini 1
inien 1
inieren 1
inierte 1
inklusive 1
inn 1
inn@@ 1
inner 1
inos 1
inson 1
installieren 1
institute 1
int@@ 1
integrieren 1
integrierte 1
intelligente 1
intensi@@ 1
interessant 1
interessieren 1
international 1
internen 1
intim@@ 1
investi@@ 1
investieren 1
investig@@ 1
inwieweit 1
inzwischen 1
io 1
ira 1
iran@@ 1
irgend@@ 1
irgendeine 1
ischerweise 1
iser 1
ises 1
isi@@ 1
isiert 1
isierung 1
ism@@ 1
ismus@@ 1
isons 1
israelische 1
iss@@ 1
ital 1
ital@@ 1
itali@@ 1
italienische 1
itation 1
ite 1
iter 1
iti 1
its 1
itäten 1
itäts@@ 1
jan 1
jar@@ 1
je@@ 1
jegliche 1
jenige 1
jeweiligen 1
jeweils 1
jo 1
ju@@ 1
jub@@ 1
jur@@ 1
jähri@@ 1
jähriger 1
jährlich 1
jährlichen 1
jün@@ 1
jüngsten 1
kamera 1
kampf 1
kanal 1
kandidaten 1
kann@@ 1
kanz@@ 1
kar@@ 1
karte 1
kat@@ 1
katastrophal@@ 1
kehren 1
kehrt 1
kehrungen 1
keits@@ 1
kel 1
kenne 1
kes 1
ki@@ 1
kin 1
kirche 1
klares 1
kle@@ 1
klein 1
klären 1
klärt 1
knapp 1
kohol@@ 1
kom@@ 1
kommende 1
kommens 1
kommens@@ 1
kommerziellen 1
kommission 1
kommunistischen 1
kompet@@ 1
komple@@ 1
komplett 1
komplette 1
komplexen 1
komplizi@@ 1
kompliziert 1
kompon@@ 1
konferenz 1
konkre@@ 1
kontinuierlich 1
kontrol@@ 1
kontrolli@@ 1
konzentri@@ 1
konzentriert 1
konzept 1
konzipiert 1
koordiniert 1
kor@@ 1
korrigieren 1
korrigiert 1
kostenlos 1
kr@@ 1
krati@@ 1
kredi@@ 1
krie@@ 1
kriti@@ 1
kt@@ 1
ktion@@ 1
ktions@@ 1
ktoren 1
kultur 1
kulturelle 1
kunde 1
kunft 1
kunst 1
kurz@@ 1
kurzem 1
kurzer 1
kurzfris@@ 1
kurzfristig 1
kus 1
kus@@ 1
kö@@ 1
kömm@@ 1
könnt 1
küh@@ 1
kün@@ 1
künf@@ 1
künftige 1
künstlerischen 1
kür@@ 1
labor 1
ladi@@ 1
lag 1
laggeb@@ 1
lamp@@ 1
landschaft 1
langem 1
langes 1
langfristige 1
lans 1
lar@@ 1
las 1
laser 1
lassungen 1
last 1
last@@ 1
lastung 1
later@@ 1
laubnis 1
lauf@@ 1
laufend 1
ld@@ 1
lea@@ 1
leg 1
legte 1
leidet 1
leisch 1
leisch@@ 1
leistet 1
leistungen 1
lektu@@ 1
lender 1
lenken 1
lers 1
letzter 1
li 1
lian 1
liberal 1
liberale 1
liberalen 1
lic@@ 1
lichten 1
lie 1
liebe@@ 1
lied 1
liefer@@ 1
lieferung 1
liegende 1
lierung 1
ließ@@ 1
liger 1
ling@@ 1
linie 1
linien 1
lischen 1
lit@@ 1
liter@@ 1
lity 1
liv@@ 1
lobby 1
logi@@ 1
logos 1
losigkeit 1
lossenen 1
lot@@ 1
loud 1
lov@@ 1
lst 1
luft@@ 1
lungen 1
lv@@ 1
lägen 1
läne 1
lässi@@ 1
läufi@@ 1
läuft 1
löst 1
lüssen 1
m. 1
mache 1
mag@@ 1
magaz@@ 1
mah@@ 1
mali@@ 1
managed 1
manche 1
manchen 1
maritime 1
marken 1
mary 1
mas@@ 1
maschinen 1
master 1
materi@@ 1
mati@@ 1
mau@@ 1
maxim@@ 1
maß 1
maß@@ 1
maßnahmen 1
mehrfach 1
mehrmals 1
meistens 1
melden 1
melten 1
mengen 1
ment@@ 1
mentierung 1
ments 1
met@@ 1
mi 1
migration 1
mil@@ 1
milit@@ 1
min 1
mine 1
mini@@ 1
minimal 1
minimum 1
minist@@ 1
misch 1
mischung 1
mission 1
mitgeteilt 1
mitgli@@ 1
mitglied 1
mitgliedern 1
mittlere 1
mittlung 1
mitzu@@ 1
mmer 1
mn@@ 1
mobili@@ 1
mod@@ 1
moder@@ 1
modern 1
moderner 1
modernes 1
modi@@ 1
mom@@ 1
momentan 1
monat@@ 1
mono@@ 1
monum@@ 1
morgen 1
multi@@ 1
multinationalen 1
mung 1
mus 1
musik 1
musikali@@ 1
mut 1
mäh@@ 1
märkte 1
märkten 1
mäß@@ 1
müs@@ 1
nachdenken 1
nachdrück@@ 1
nachhaltig 1
nachhaltigen 1
nachkommen 1
nachzu@@ 1
nachzudenken 1
nahmen@@ 1
namens 1
nament@@ 1
nan@@ 1
national 1
natürliche 1
nec@@ 1
neg@@ 1
negativen 1
nei@@ 1
nein 1
nen@@ 1
net 1
neter 1
netz@@ 1
nfalls 1
nic@@ 1
nicht@@ 1
niedrig 1
niedriger 1
nieren 1
nigen 1
nochmals 1
nord@@ 1
normalen 1
notwendigen 1
nu@@ 1
nur@@ 1
ny 1
näch@@ 1
nördlichen 1
nötig 1
nötigen 1
o.@@ 1
obgleich 1
obligator@@ 1
od@@ 1
of@@ 1
offene 1
offener 1
offensich@@ 1
oftmals 1
ogra@@ 1
ograf@@ 1
ois 1
ol 1
olen 1
olle 1
olo@@ 1
olog@@ 1
ologi@@ 1
ological 1
ologien 1
ologischer 1
omen 1
omm@@ 1
ommen 1
ommission 1
onal 1
once 1
ond 1
onder@@ 1
one@@ 1
ones 1
onia 1
onie 1
ont 1
onto 1
ony 1
ony@@ 1
onym 1
ood 1
operi@@ 1
operieren 1
oph@@ 1
opho@@ 1
opport@@ 1
oration 1
order 1
ordnen 1
ordnungsgemäß 1
ore@@ 1
org@@ 1
organisationen 1
organisator@@ 1
organisieren 1
oria 1
orientierten 1
origin@@ 1
orium 1
orts 1
ost@@ 1
ot 1
otel 1
oten 1
oter 1
oth@@ 1
ots 1
ott@@ 1
out@@ 1
ow@@ 1
p.@@ 1
packt 1
parall@@ 1
park@@ 1
part 1
partnern 1
pas@@ 1
pass 1
passen@@ 1
passende 1
passi@@ 1
passieren 1
passt 1
pause 1
pedia 1
pend@@ 1
per 1
perio@@ 1
permanent 1
person 1
personal 1
persönlicher 1
persönliches 1
pet@@ 1
petit 1
pfer@@ 1
pfli@@ 1
pflicht 1
ph@@ 1
phi@@ 1
philos@@ 1
philosoph@@ 1
pin@@ 1
plan 1
planen 1
planet 1
plans 1
plant 1
plastic 1
plau@@ 1
plätzen 1
plötz@@ 1
poin@@ 1
pol@@ 1
pole 1
poli@@ 1
pool 1
position 1
post@@ 1
potenti@@ 1
potenzielle 1
ppe 1
pra@@ 1
pragmati@@ 1
prakti@@ 1
praktische 1
praktischen 1
preis 1
preis@@ 1
pren@@ 1
pri@@ 1
prin@@ 1
priv@@ 1
probieren 1
problematisch 1
problemen 1
prochen 1
produkt 1
produktion 1
professionellen 1
profitieren 1
programme 1
programmen 1
projek@@ 1
prot@@ 1
proto@@ 1
provin@@ 1
proz@@ 1
prozesses 1
pru@@ 1
prä@@ 1
präsentiert 1
prü@@ 1
pt 1
pul@@ 1
pun@@ 1
punk@@ 1
punkte 1
pä@@ 1
q@@ 1
qualifizi@@ 1
qualitativ 1
quer 1
quote 1
quoten 1
ra 1
radik@@ 1
rak@@ 1
rale 1
rami@@ 1
rand 1
rapi@@ 1
rasch 1
rassi@@ 1
ration 1
rats@@ 1
raums 1
reagieren 1
reale 1
reali@@ 1
reb@@ 1
rechnet 1
rechten 1
rechtfertigen 1
rechtzeitig 1
reci@@ 1
reduziert 1
ref@@ 1
refle@@ 1
regen 1
region 1
regionale 1
reibung 1
reibungen 1
reibungs@@ 1
reich 1
reiches 1
reih@@ 1
rein 1
reiten 1
rek@@ 1
religi@@ 1
religion 1
ren@@ 1
res@@ 1
respektieren 1
respektiert 1
respon@@ 1
rest@@ 1
restau@@ 1
restlichen 1
retro@@ 1
rey 1
rh@@ 1
ri 1
richten@@ 1
richtete 1
richtung 1
rieb 1
riebenen 1
riere 1
ries 1
riesige 1
riff 1
riffen 1
right 1
ring@@ 1
ris 1
risen 1
risiko 1
ritte 1
rix 1
rl@@ 1
rob@@ 1
rolle 1
rom 1
rot@@ 1
rout@@ 1
row 1
ru 1
ruf 1
rufe 1
ruhiger 1
run@@ 1
runde 1
rung 1
ruppe 1
ruppen 1
rus@@ 1
rut@@ 1
ränk@@ 1
ränkungen 1
ré@@ 1
sa 1
saal 1
sachen 1
sah 1
sal@@ 1
samen 1
samer 1
sammlung 1
sand@@ 1
satlan@@ 1
satz 1
sauber 1
say 1
sburg 1
scanner 1
schaden 1
schaff@@ 1
schafter 1
schaftlich 1
schaftlichen 1
schaftsp@@ 1
sche@@ 1
scheinbar 1
schicht 1
schicken 1
schieben 1
schied 1
schied@@ 1
schieden 1
schlage 1
schle@@ 1
schlechten 1
schlechter 1
schlicht 1
schließe 1
schließend 1
schlä@@ 1
schm@@ 1
schmerz@@ 1
schnell@@ 1
schnellen 1
schrau@@ 1
schriften 1
schriftlich 1
schriftliche 1
schrittweise 1
schulden 1
schuldigen 1
schutz@@ 1
schwach 1
schwan@@ 1
schwar@@ 1
schwe@@ 1
schwei@@ 1
schwer@@ 1
schwi@@ 1
schwieri@@ 1
schär@@ 1
schätzen 1
schätzt 1
schütz@@ 1
schützt 1
screening 1
seitdem 1
seitigkeit 1
seits 1
sel 1
selbe 1
selten 1
sender 1
senken 1
sensor 1
ser 1
serklärung 1
sert 1
servi@@ 1
set@@ 1
sets 1
setz@@ 1
seu@@ 1
sha@@ 1
shall 1
shaush@@ 1
shes 1
shof 1
shofes 1
shot 1
sicheren 1
sichern 1
sicherungen 1
sichten 1
sidenten 1
sidentin 1
sied@@ 1
siehe 1
sien 1
sierte 1
sierung 1
sin 1
sinn@@ 1
sinnvoll 1
sion 1
sional 1
sions@@ 1
sition 1
sitzung 1
siven 1
ski@@ 1
sla@@ 1
slowak@@ 1
soci@@ 1
sofortige 1
sogenannte 1
soli@@ 1
solide 1
soll@@ 1
sonstige 1
sorge 1
sorts 1
sos 1
sozial 1
sozial@@ 1
sozialer 1
sozio@@ 1
sozusagen 1
spar@@ 1
spartei 1
spec@@ 1
speich@@ 1
speziellen 1
spezif@@ 1
sphere 1
spie@@ 1
spiele 1
spiritu@@ 1
splan@@ 1
spon@@ 1
sport 1
spot@@ 1
sprache 1
sprechende 1
sprin@@ 1
spru@@ 1
sprung 1
sprüche 1
späten 1
sta 1
staatlicher 1
stabilen 1
stad@@ 1
stadium 1
stak@@ 1
stal@@ 1
stam@@ 1
stamp@@ 1
stand@@ 1
standards 1
standes 1
stands@@ 1
stanz 1
starker 1
starkes 1
start 1
stattet 1
stattfand 1
stattfindet 1
stattgefunden 1
stattung 1
stau@@ 1
stausch 1
stechnologie 1
steckt 1
stehung 1
steigende 1
steigern 1
steigt 1
stel@@ 1
stell@@ 1
stellbar 1
steller 1
stellungen 1
stellungs@@ 1
sters 1
stieg 1
stieg@@ 1
stim@@ 1
stimm@@ 1
stimme 1
stische 1
stischer 1
stitu@@ 1
stitutes 1
stitution 1
stoff 1
stoff@@ 1
strategie 1
stration 1
strationen 1
straßen 1
streben 1
strebt 1
strecken 1
streiten 1
streng@@ 1
strichen 1
stru@@ 1
struktion 1
strukturi@@ 1
studios 1
stufe 1
stufen 1
stunden 1
städtischen 1
ständigen 1
stärk@@ 1
stärke 1
stärken 1
stärkere 1
stätten 1
stößt 1
stück 1
stück@@ 1
stücke 1
stützen 1
su@@ 1
sum@@ 1
sums 1
sun@@ 1
sy@@ 1
symb@@ 1
system@@ 1
systemati@@ 1
systematisch 1
systemen 1
sätzlich 1
t- 1
t.@@ 1
tab@@ 1
tagon@@ 1
tags 1
taine 1
takt 1
tal@@ 1
tali@@ 1
tan@@ 1
tas 1
tat 1
tatsächlichen 1
tau@@ 1
tauchen 1
taus@@ 1
tauschen 1
techn@@ 1
teilnehmen 1
teilnehmenden 1
teilzunehmen 1
tell 1
tem@@ 1
temperat@@ 1
tenden 1
tens 1
tention 1
terien 1
terns 1
terror@@ 1
tert 1
teu@@ 1
teure 1
text 1
tha 1
thal@@ 1
them@@ 1
then 1
ther 1
ther@@ 1
therapie 1
thin 1
thro@@ 1
tic 1
ticle 1
tie@@ 1
tief 1
tiefen 1
tien@@ 1
tiere 1
tigsten 1
tigungen 1
tiken 1
til 1
tiles 1
till@@ 1
tim 1
timent 1
ting 1
titel 1
tiv 1
tivitäten 1
tlin@@ 1
tn@@ 1
tnis 1
tnismäßig 1
toff@@ 1
toll 1
ton@@ 1
tot@@ 1
touristischen 1
tra 1
traf 1
trag 1
tragene 1
trags 1
transatlan@@ 1
transatlantischen 1
transp@@ 1
transpar@@ 1
tration 1
trau@@ 1
tre 1
treibt 1
trieb 1
trieb@@ 1
tritts 1
trium@@ 1
trol@@ 1
trolle 1
tru@@ 1
trum 1
träglich 1
tsch 1
tsprech@@ 1
tsprü@@ 1
tt 1
ttaus@@ 1
tum 1
tum@@ 1
tur@@ 1
tweit 1
tz 1
täu@@ 1
tü@@ 1
tür@@ 1
türkischen 1
uel 1
uen 1
ufen 1
ular 1
ular@@ 1
ulen 1
ulieren 1
ume 1
umfangreiche 1
umfas@@ 1
umfassen 1
umfassend 1
umfassenden 1
umgehen 1
umgesetzt 1
umin@@ 1
unab@@ 1
unabhängiger 1
unbedingt 1
unberühr@@ 1
undes@@ 1
uneingesch@@ 1
unen 1
unglaublich 1
ungsphase 1
uni@@ 1
unia 1
uniform 1
univer@@ 1
univers@@ 1
unmittelbare 1
unsch@@ 1
unsten 1
unterbrochen 1
unteren 1
untern@@ 1
unternehmen@@ 1
unternommen 1
unterricht 1
untersagt 1
unterscheiden 1
unterschiedliche 1
unterstreichen 1
unterstreicht 1
unterstütze 1
unterstützten 1
untersucht 1
unterzeichnen 1
unum@@ 1
unvermei@@ 1
unverzicht@@ 1
urlaub 1
uro 1
usammen@@ 1
use 1
use@@ 1
ust 1
ute 1
utely 1
uten@@ 1
uter 1
utor 1
utt@@ 1
utzen 1
uung 1
val 1
vali@@ 1
vas 1
vely 1
vent 1
ventions@@ 1
venture 1
veran@@ 1
veranstaltet 1
verarbeiten 1
verbesserte 1
verbindet 1
verbot 1
verbot@@ 1
verbreit@@ 1
verbreiten 1
verbreitete 1
verbringen 1
verbundenen 1
verbände 1
vereinbar@@ 1
vereinbart 1
vereint 1
verfol@@ 1
verfolgt 1
verfügbar 1
vergeben 1
verhaftet 1
verhandlungen 1
verknü@@ 1
verknüpft 1
verkörper@@ 1
verlang@@ 1
verlaufen 1
verlei@@ 1
verletzen 1
verletzungen 1
verlängert 1
verläss@@ 1
vermehr@@ 1
vermei@@ 1
vermieden 1
vermis@@ 1
vernich@@ 1
vernünf@@ 1
vernünftige 1
vernünftigen 1
verpflichtet 1
verschied@@ 1
verschwinden 1
verschärfen 1
versichern 1
versicherung 1
versicherungs@@ 1
verstoßen 1
verstän@@ 1
verständ@@ 1
verstärken 1
verstärkten 1
versu@@ 1
verteilung 1
verti@@ 1
vertiefen 1
vertrag 1
vertreter 1
verurs@@ 1
verursachen 1
verursacht 1
verursachten 1
verw@@ 1
verwendeten 1
verwiesen 1
verwirklichen 1
verzichten 1
verzö@@ 1
veter@@ 1
vi 1
vier@@ 1
viert 1
viertel 1
vierten 1
vierung 1
view@@ 1
vig@@ 1
viol@@ 1
vis@@ 1
vision 1
vol@@ 1
vollkomm@@ 1
vollständige 1
volumen 1
von@@ 1
voneinander 1
voran 1
vorange@@ 1
voranzu@@ 1
vorausgesetzt 1
vorbei 1
vorbereiten 1
vorgesch@@ 1
vorgestellt 1
vorherseh@@ 1
vorlegen 1
vorliegen 1
vorne 1
vornehmen 1
vorschlagen 1
vorschläge 1
vorschlägt 1
vorwiegend 1
vorzuschlagen 1
völ@@ 1
wache 1
wachsen@@ 1
wachsenden 1
wag@@ 1
wage 1
wahl@@ 1
wahre 1
wahrgenommen 1
wahrnehmen 1
wai@@ 1
wald 1
wanderung 1
wann 1
wasser 1
wat@@ 1
wehr@@ 1
weich@@ 1
weichen 1
weis@@ 1
weisungen 1
weite 1
weitem 1
weitergegeben 1
weitet 1
weitreich@@ 1
welches 1
wen@@ 1
wende 1
wendi@@ 1
wendungen 1
wenigsten 1
werk 1
werks 1
wes@@ 1
wesent@@ 1
westen 1
wich 1
wickelt 1
wider 1
wiegend 1
wiesen 1
wild 1
win 1
winden 1
wing@@ 1
wir@@ 1
wirk@@ 1
wirkliche 1
wirklichen 1
wirksam@@ 1
wirkung 1
wirtschaf@@ 1
wirtschaftlich 1
wirtschaftliche 1
wirtschaftlicher 1
wissenschaft@@ 1
wissenschaften 1
wn 1
wodurch 1
wohin 1
wohnen 1
wohner 1
wol@@ 1
woll@@ 1
womit 1
wood@@ 1
worth 1
wovon 1
wozu 1
wski 1
wurfs 1
wä@@ 1
wäch@@ 1
wächst 1
wäl@@ 1
wärmung 1
wärts 1
wör@@ 1
wörter 1
wü@@ 1
wünschen 1
wünschte 1
würdi@@ 1
x 1
xes 1
xi@@ 1
yal 1
yer 1
yers 1
yl@@ 1
ypen 1
ys 1
zah@@ 1
zahl 1
zahlreichen 1
zahlt 1
zahlung 1
zau@@ 1
zauber@@ 1
zeh@@ 1
zei 1
zeich@@ 1
zeichnungen 1
zeige 1
zeigte 1
zeiten 1
zeitraum 1
zellen 1
zentr@@ 1
zentrale 1
zentralen 1
zer 1
zern 1
zerstören 1
zerti@@ 1
zeu@@ 1
ziel 1
ziel@@ 1
ziele 1
zielen 1
zieren 1
zierte 1
zierten 1
zip 1
zipl@@ 1
zudem 1
zufried@@ 1
zuführen 1
zugelassen 1
zugestimmt 1
zugewiesen 1
zugänglich 1
zukünftige 1
zulassen 1
zumal 1
zunehmen 1
zurückkehren 1
zurückzuführen 1
zusagen 1
zusammengestellt 1
zusätz@@ 1
zusätzlich 1
zuver@@ 1
zuverlässi@@ 1
zwecken 1
zweiter 1
zwingen 1
zwingend 1
zwingt 1
zwungen 1
zwölf 1
zy 1
zö@@ 1
zögern 1
zügen 1
Ähn@@ 1
Änderung 1
Äu@@ 1
Äußer@@ 1
Öffent@@ 1
Ökonomen 1
Öster@@ 1
Österreich 1
Überarbeitung 1
Übergang 1
Übergangs@@ 1
Übernahme 1
Überra@@ 1
Übersetzung 1
Übertragung 1
Überzeugung 1
ßer 1
ßer@@ 1
ßes 1
ßte 1
ás 1
äck@@ 1
äfen 1
äften 1
ähnlicher 1
äle 1
älteren 1
ämlich 1
ämp@@ 1
änder@@ 1
änderung 1
ängen 1
ärer 1
ärm@@ 1
ärz@@ 1
ät 1
äter 1
ätze 1
äuft 1
äume 1
äumt 1
äuß@@ 1
äußer@@ 1
äußern 1
én 1
én@@ 1
ér@@ 1
ê@@ 1
ía 1
ï 1
ña 1
ö 1
öch@@ 1
öff@@ 1
öffnete 1
öhne 1
ökonom@@ 1
ökonomische 1
ökonomischen 1
öl@@ 1
öne 1
ös 1
ú@@ 1
übergreif@@ 1
übergreifende 1
überlegen 1
übernimmt 1
überraschend 1
übersehen 1
überwachen 1
überwinden 1
überwunden 1
überzeu@@ 1
übrigen 1
ück 1
ühle 1
ün 1
ünde 1
ünden 1
ünsti@@ 1
ürzt 1
üssen 1
ý@@ 1
ę@@ 1
ł@@ 1
ń@@ 1
ň 1
š 1
ů@@ 1
ž 1
