, 5913051
. 3989983
die 2888856
der 2773848
und 2618529
in 1410063
zu 1064711
den 1002919
von 962487
ist 832639
für 810377
@-@ 776807
das 689456
mit 678809
auf 663882
des 651828
eine 598330
nicht 534709
im 529738
werden 507101
Sie 503126
dass 502207
- 489951
es 482727
ein 469002
dem 462567
wir 460465
&quot; 449971
sich 448702
Die 437483
auch 402012
sind 367182
wird 352529
an 342054
( 323494
) 320998
ich 319948
als 319102
um 310076
oder 290382
haben 287212
: 283547
über 283384
hat 264382
einer 261967
sie 260675
wie 258422
zur 242943
einen 237300
bei 225771
Ich 225233
aus 219837
Das 215530
können 207958
einem 187145
er 186634
diese 184794
nach 179593
Wir 179193
uns 176228
zum 175793
nur 174008
durch 169387
kann 166847
dieser 164033
Kommission 161645
daß 160765
Der 156612
so 152041
vor 150400
Es 148665
noch 147671
! 145732
Herr 143240
wenn 141251
aber 139236
müssen 138851
wurde 136972
sein 134252
ver@@ 133541
/ 129160
er@@ 127420
? 125797
sehr 125214
Union 123893
Europäischen 122814
am 122814
diesem 122534
In 118414
alle 113654
ten 113133
mehr 112716
möchte 110939
man 110730
was 110574
an@@ 106492
eines 102369
ihre 98544
Präsident 98369
bis 97716
ge@@ 97312
te 97047
EU 96474
war 95674
dieses 94536
en 93426
a 92516
vom 92217
un@@ 91303
unter 90332
sowie 90223
gibt 90221
Bericht 88567
Parlament 87012
muss 86509
zwischen 86191
hier 84382
Mitgliedstaaten 84373
keine 81638
Hotel 81394
unsere 80929
ein@@ 80708
de 80102
Ver@@ 79871
Europa 79183
k@@ 79092
s 78406
ab@@ 78236
&apos; 77351
anderen 77276
; 75804
Ihnen 74938
be@@ 73732
en@@ 73586
Wenn 73447
dies 72528
gegen 71849
immer 71685
... 71538
diesen 71461
t 71330
sch@@ 71257
dann 70992
damit 70911
An@@ 70370
e 70308
Frau 69776
B@@ 69582
K@@ 69297
aus@@ 68354
t@@ 68183
da 67962
wurden 67260
Europäische 66950
habe 65470
S@@ 65329
Diese 65312
sondern 64971
ung 64906
Im 64864
s@@ 64665
Zeit 63897
unserer 63736
jedoch 62221
Menschen 61644
P@@ 61400
seine 61045
heute 60443
europäischen 60225
gen 60161
T@@ 60101
Ihre 59768
neue 59739
G@@ 58549
Ab@@ 58433
bereits 58068
H@@ 57567
zu@@ 57557
Rat 57505
mich 57463
% 57396
sollte 57260
Jahr 57210
ihrer 56978
auf@@ 56956
denen 56282
neuen 55555
vor@@ 55222
Frage 55122
Entwicklung 54956
Jahren 54799
sollten 54711
andere 54587
i 54484
ohne 54443
ter 54387
Ein@@ 54283
f@@ 53778
L@@ 53279
z@@ 52644
2 52569
ungen 52531
o 52448
finden 51755
machen 51382
D@@ 51373
ent@@ 51320
F@@ 51277
geht 51029
ganz 50916
zwei 50755
allen 50360
weil 50271
Sch@@ 49923
M@@ 49913
ungs@@ 49267
A@@ 49113
Aus@@ 49095
st@@ 48888
in@@ 48476
dazu 48324
Maßnahmen 48254
1 48213
Welt 48173
denn 48145
Unternehmen 48093
ch@@ 47993
viele 47892
jetzt 47599
d@@ 47197
sten 47007
darauf 46946
E@@ 46342
Herrn 45968
N@@ 45884
Mit 45811
bietet 45733
über@@ 45724
n@@ 45477
R@@ 45455
the 45439
Bereich 45365
dafür 45290
liegt 45256
al@@ 45138
W@@ 45059
Ein 44967
m@@ 44582
einige 44433
g@@ 44239
ge 44223
seiner 44150
wieder 43939
sagen 43860
selbst 43791
würde 43694
enden 43217
m 43190
C@@ 43118
Informationen 42940
geben 42904
Vor@@ 42582
bin 42447
Arbeit 42432
meine 42320
schon 42318
ihren 42309
ern 42198
b@@ 42133
Lage 41760
3 41737
allem 41536
Dies 41438
mir 41339
ob 41314
Länder 41278
Er@@ 41267
ihr 41252
wollen 41193
and 40914
viel 40743
Land 40718
Jahre 40203
kommen 39817
Und 39401
ische 39371
e@@ 39304
insbesondere 39233
tes 39193
ischen 39018
unseren 38960
stehen 38925
eren 38901
Eine 38710
stellen 38683
Parlaments 38496
doch 38441
um@@ 38377
während 38225
Wie 38081
nun 37894
politischen 37875
Unterstützung 37579
Ländern 37352
el@@ 37236
etwas 37220
ert 37032
&#91; 37003
ende 37002
&#93; 36881
Rahmen 36872
möglich 36839
Vorschlag 36683
l@@ 36612
wo 36608
ab 36543
Zusammenarbeit 36536
lassen 36500
liche 36321
re@@ 36298
of 36168
o@@ 36107
gut 36092
Bürger 36045
Für 35991
u@@ 35692
seit 35690
O@@ 35570
li@@ 35535
waren 35476
i@@ 35228
Z@@ 35000
Be@@ 34819
tun 34742
lich 34674
V@@ 34638
Fall 34544
wichtig 34448
erhalten 34342
also 34337
besteht 34315
wäre 34300
steht 34260
unter@@ 34174
Namen 34093
Teil 33954
soll 33884
sehen 33858
Problem 33855
Ziel 33752
d 33737
ens 33678
4 33647
ersten 33531
Kollegen 33435
ste 33393
Fragen 33211
letzten 33177
einmal 33070
deren 32934
5 32911
p@@ 32823
Recht 32804
on 32537
h@@ 32533
to 32461
Fraktion 32385
J@@ 32328
beim 32133
Art 32126
Regierung 31995
bringen 31976
Sicherheit 31922
Bedeutung 31907
Staaten 31765
drei 31762
worden 31286
dabei 31280
einfach 31094
seinen 31071
große 31033
wissen 31012
de@@ 30919
Was 30912
ts 30890
Aber 30864
großen 30845
muß 30790
Seite 30755
St@@ 30738
ti@@ 30600
könnte 30557
ar@@ 30552
weiter 30401
Re@@ 30391
lichen 30365
gehen 30351
g 30306
le 30267
Politik 30136
Kommissar 30019
Zimmer 29984
Probleme 29967
r@@ 29874
v@@ 29845
Daten 29814
Bei 29802
Thema 29782
welche 29658
darüber 29616
-@@ 29545
Möglichkeit 29507
Un@@ 29397
as 29380
I@@ 29379
davon 29372
In@@ 29344
si@@ 29176
eigenen 29161
daher 29083
Weise 28947
Verfügung 28899
Richtlinie 28870
meiner 28869
führen 28837
E 28727
es@@ 28723
Zukunft 28519
Auf 28416
Auch 28407
unterstützen 28299
aller 28285
di@@ 28272
ä@@ 28247
stellt 28132
sowohl 28014
kein 27979
System 27976
10 27954
a@@ 27890
wirklich 27830
Nach 27761
is 27664
politische 27644
Ihr 27616
ihnen 27612
USA 27554
Als 27539
Er 27506
ale 27482
chen 27481
gegenüber 27481
Rolle 27417
erte 27394
weitere 27376
or@@ 27331
st 27313
natürlich 27279
Beispiel 27257
ja 27202
Stadt 27164
alles 27138
w@@ 27119
bar 27105
europäische 27058
Frauen 27044
du 27017
Ende 27010
k 27003
zwar 26928
Euro 26925
end 26919
erreichen 26890
on@@ 26889
n 26867
innerhalb 26855
l 26851
besonders 26778
schen 26632
y@@ 26600
internationalen 26593
bieten 26347
Weg 26242
hatte 26173
erten 26104
z 26103
j@@ 26084
Ihrer 26037
&amp; 26018
Seiten 25979
verschiedenen 25932
unser 25885
le@@ 25778
vielen 25725
ger 25659
Kunden 25581
.@@ 25495
möchten 25428
ger@@ 25359
isch 25333
Meinung 25318
ter@@ 24910
kommt 24843
gesagt 24791
ere 24788
el 24745
Artikel 24702
politik 24633
Situation 24617
Zusammenhang 24600
befindet 24386
Lösung 24335
arbeiten 24220
dort 24094
Mittel 24023
entfernt 24001
Über@@ 23961
gen@@ 23918
at@@ 23914
ri@@ 23859
Auf@@ 23823
der@@ 23815
sen 23707
u 23678
b 23562
Programm 23556
zi@@ 23547
weniger 23535
all 23526
Präsidentin 23443
erste 23410
em 23325
beiden 23286
et@@ 23262
Al@@ 23245
nehmen 23238
Tag 23235
Finanz@@ 23188
Rates 23169
Um 23135
daran 23104
nämlich 23052
Ihren 23022
schaffen 22977
ins 22946
A 22941
Hilfe 22925
ei@@ 22914
erung 22845
Europas 22768
Deshalb 22691
Arbeits@@ 22686
at 22665
&#124; 22654
Millionen 22599
Schutz 22574
halten 22457
Alle 22400
6 22379
2009 22328
indem 22328
U@@ 22290
direkt 22289
Grund 22154
ser@@ 22121
pro 22097
20 22088
sogar 21947
Zu@@ 21939
Hier 21899
dessen 21882
Region 21826
Uhr 21810
unserem 21806
Dieses 21762
macht 21752
Ebene 21744
Aussprache 21710
ro@@ 21587
fen 21583
Leben 21566
jeder 21555
sk@@ 21506
30 21470
hinaus 21432
gemacht 21426
gilt 21416
ler 21350
al 21307
alen 21274
Produkte 21250
Punkt 21241
glaube 21199
darin 21195
einigen 21157
nationalen 21127
se 21063
brauchen 20988
etwa 20971
ak@@ 20964
sp@@ 20953
Gemeinschaft 20951
ch 20950
öffentlichen 20827
Wirtschaft 20796
darf 20751
unterstützt 20750
Rechte 20722
So 20707
bitte 20659
Kinder 20544
wei@@ 20468
Haus 20465
Um@@ 20465
ra@@ 20464
Abstimmung 20458
ebenfalls 20356
ellen 20317
Rechts@@ 20311
bzw. 20298
ber@@ 20275
will 20272
Dieser 20266
dürfen 20157
betrifft 20148
Unter@@ 20144
sicher 20108
che 20085
be 20072
gerade 20067
ischer 20013
nen 20011
nach@@ 20007
weiterhin 19992
ö@@ 19979
ers 19942
klar 19942
c@@ 19941
Ge@@ 19873
ene 19832
th@@ 19820
ihn 19806
zurück@@ 19799
Bezug 19792
sollen 19792
f 19786
or 19747
em@@ 19734
7 19703
ange@@ 19676
ck@@ 19657
würden 19629
Grund@@ 19609
ihm 19574
3@@ 19554
keinen 19518
te@@ 19495
ts@@ 19469
genau 19465
nichts 19435
au@@ 19427
ie 19384
Strategie 19367
seinem 19352
Menschenrechte 19331
Form 19325
y 19300
setzen 19268
wichtige 19244
meisten 19230
ihrem 19175
ne 19171
Personen 19168
gute 19139
Qualität 19119
Kon@@ 19094
Unsere 19089
deutlich 19052
solche 18998
r 18974
ü@@ 18954
elle 18939
len 18910
et 18889
sei 18862
recht 18860
bedeutet 18848
aufgrund 18843
Ansicht 18816
besch@@ 18802
Deutschland 18800
gel@@ 18777
deshalb 18767
handelt 18764
Kosten 18739
Umsetzung 18732
her@@ 18729
Internet 18680
Zugang 18677
ken 18641
besser 18613
sche 18588
ten@@ 18541
la 18512
Da 18508
zen 18503
bereich 18433
jeden 18431
x@@ 18428
licher 18423
am@@ 18376
hoffe 18360
Ziele 18343
Demokratie 18327
Gesellschaft 18294
Software 18287
Haushalts@@ 18282
weit 18279
durch@@ 18276
Hotels 18219
gemeinsamen 18219
ben 18209
Vertrag 18174
nutzen 18168
kon@@ 18165
nächsten 18157
op@@ 18152
China 18136
erst 18094
wirtschaftlichen 18062
beispielsweise 18020
Verantwortung 18009
8 18001
ur@@ 17998
I 17987
Vorschläge 17985
sozialen 17934
la@@ 17911
sprechen 17910
� 17909
Verfahren 17891
men 17886
Haupt@@ 17858
Grundlage 17832
führt 17831
zusammen 17821
is@@ 17820
Rück@@ 17818
Website 17793
werde 17789
2010 17787
Bedingungen 17745
vielleicht 17731
Richtung 17693
tern 17662
gehört 17628
Institutionen 17612
Aus 17601
Debatte 17585
mit@@ 17579
statt 17577
notwendig 17552
Dank 17468
15 17456
könnten 17456
bleiben 17450
Markt 17447
system 17426
S 17354
Herren 17337
Anwendung 17331
tung 17330
hin 17329
x 17328
allerdings 17304
os 17289
enen 17285
Interesse 17270
Ort 17258
schnell 17255
ß@@ 17254
2008 17237
Daher 17187
ung@@ 17165
besten 17149
gestellt 17124
Doch 17120
me 17082
Auswirkungen 17038
liches 17030
findet 17012
ges 17011
ziehen 16969
Hinblick 16967
Reihe 16966
alten 16948
tige 16934
Abkommen 16917
Ent@@ 16833
50 16823
gung 16753
it@@ 16744
Berichterstatter 16733
eln 16729
gemeinsame 16721
lange 16719
Sp@@ 16695
ar 16690
p 16678
ausge@@ 16627
tischen 16610
Gebiet 16589
bekannt 16574
ation 16555
Verhandlungen 16546
voll 16546
gegeben 16540
tigen 16538
erreicht 16522
us 16519
T 16513
Tatsache 16497
Möglichkeiten 16448
cht 16412
los 16401
US 16378
Regionen 16323
ko@@ 16290
Damen 16272
h 16267
Wirtschafts@@ 16229
danken 16216
Sicherheits@@ 16143
wer@@ 16126
ke 16104
zeigt 16046
Neu@@ 16019
bei@@ 16018
denke 16012
verwendet 15964
The 15947
Von 15944
gt 15876
ber 15867
wenig 15864
us@@ 15848
erforderlich 15842
Geschichte 15819
bereit 15776
Vereinigten 15764
Dienstleistungen 15755
se@@ 15733
unternehmen 15699
kleinen 15681
C 15672
ot@@ 15672
leben 15662
Mo@@ 15651
Service 15642
Änderungsanträge 15622
Entscheidung 15599
darum 15596
Ihrem 15588
Mitglieder 15581
Kolleginnen 15550
Ar@@ 15530
Krise 15517
Durch 15452
Änderungsantrag 15447
Beziehungen 15441
Schritt 15432
bi@@ 15419
helfen 15404
auszu@@ 15390
gesamten 15369
spielen 15359
Bau@@ 15358
B 15357
Mar@@ 15356
den@@ 15347
hätte 15345
ag@@ 15340
fragen 15338
Abgeordneten 15331
ebenso 15291
2@@ 15239
2007 15228
oft 15205
tragen 15205
c 15203
4@@ 15175
Ergebnis 15156
Bereichen 15155
gi@@ 15150
ationen 15147
2000 15145
Di@@ 15139
Pro@@ 15138
Verordnung 15137
Türkei 15116
lei@@ 15113
liegen 15104
hatten 15093
ermöglicht 15090
geb@@ 15087
Antwort 15031
einzelnen 15030
Nähe 15018
bel@@ 15016
ens@@ 14993
all@@ 14987
hin@@ 14986
Version 14960
weltweit 14926
D 14896
Bevölkerung 14893
Ausdruck 14870
sen@@ 14870
Förderung 14869
vier 14866
Liste 14843
Geschäfts@@ 14826
internationale 14816
verschiedene 14812
gleichen 14811
dar 14808
gebracht 14785
fast 14775
gesch@@ 14754
wichtigen 14715
chten 14708
weiß 14693
geführt 14629
wegen 14624
ieren 14568
gestimmt 14567
ges@@ 14554
as@@ 14529
Ausschusses 14527
gemeinsam 14469
Man 14460
är@@ 14457
weiteren 14425
Zu 14415
Am 14403
Außerdem 14388
verfügt 14381
Kontrolle 14335
heißt 14334
ek@@ 14326
Aufgabe 14317
Gruppe 14313
ad@@ 14283
ul@@ 14281
Behörden 14272
Geld 14271
per 14268
legen 14252
ed@@ 14251
gleichzeitig 14233
sti@@ 14218
mi@@ 14181
bleibt 14173
Erfolg 14169
Entschließung 14164
entwickelt 14157
lo@@ 14157
zeigen 14139
meinen 14128
X@@ 14127
dern 14097
ma@@ 14090
stand 14084
Ausschuss 14071
Forschung 14061
jedem 14030
00 14023
km 14018
sch 14002
9 13978
Par@@ 13949
12 13942
Bo@@ 13933
Erweiterung 13933
Jahres 13895
hei@@ 13872
Russland 13842
0@@ 13839
hinsichtlich 13828
verbunden 13813
lässt 13776
100 13757
wohl 13755
genommen 13740
je 13727
ur 13688
Beitrag 13679
Minuten 13646
lichkeit 13609
_ 13600
Schaffung 13588
ni@@ 13575
ell 13548
gab 13534
unseres 13534
18@@ 13531
jede 13497
Regierungen 13496
Preis 13488
it 13486
Verbesserung 13481
ne@@ 13427
bare 13404
tieren 13399
Nach@@ 13387
Wasser@@ 13384
bekommen 13372
einge@@ 13369
Projekt 13361
tiert 13358
enthalten 13344
konnte 13335
Ro@@ 13328
19@@ 13327
Mal 13312
EN 13296
det 13281
ta@@ 13262
befinden 13243
eg@@ 13237
derzeit 13235
Einsatz 13232
Verbraucher 13231
baren 13211
Verbindung 13192
Sozial@@ 13190
wirtschaftliche 13186
Notwendigkeit 13185
Landes 13181
tische 13172
Inter@@ 13142
5@@ 13139
zusammen@@ 13116
aten 13103
ol@@ 13085
ermöglichen 13080
gern 13080
Lösungen 13079
fördern 13071
O 13070
tungs@@ 13061
tet 13050
qu@@ 13045
Ma@@ 13044
ster 13027
richtig 13026
Y@@ 12992
eb@@ 12990
Blick 12988
* 12971
eller 12971
wichtigsten 12956
wobei 12933
Interessen 12925
jedes 12922
25 12916
Lissabon 12913
land 12911
soziale 12907
Zum 12906
Umwelt@@ 12903
Restaurant 12901
are 12899
einzu@@ 12898
versch@@ 12898
Gelegenheit 12856
Nutzung 12835
enten 12817
verbessern 12808
verfahren 12801
Seit 12775
Ergebnisse 12757
fer@@ 12716
sh@@ 12716
Zentrum 12692
2006 12669
Vor 12653
enthält 12609
Damit 12608
maßnahmen 12595
Mit@@ 12592
om@@ 12581
neu 12574
kleine 12519
schaft 12499
tete 12474
Bar@@ 12463
eh@@ 12457
Platz 12454
tatsächlich 12439
Her@@ 12426
völlig 12412
angenommen 12385
Welt@@ 12383
fahren 12370
iert 12368
ach@@ 12363
entwickeln 12362
ender 12340
lung 12340
000 12318
fest@@ 12314
Gesundheit 12308
for 12298
tig 12293
meinem 12284
+ 12268
Wort 12267
6@@ 12248
programm 12233
tion@@ 12203
gleich 12198
Unser 12197
Text 12193
bestehen 12193
anderer 12192
anzu@@ 12189
Verwendung 12184
mehrere 12181
ganzen 12178
Steuer@@ 12177
zeit 12176
Rei@@ 12169
é@@ 12154
großer 12153
Themen 12136
tungen 12133
Zeitpunkt 12122
Wachstum 12108
weiter@@ 12099
suchen 12090
ändern 12089
im@@ 12074
lan@@ 12074
chte 12063
Einführung 12059
Darüber 12052
Änderungen 12041
Frankreich 12016
eigene 12007
schriftlich 11998
lage 11990
mal 11964
Initiative 11954
Bekämpfung 11938
Umwelt 11929
sorgen 11929
weise 11909
Woche 11904
gewährleisten 11900
tiger 11897
gerne 11896
ganze 11893
Mail 11882
ing@@ 11873
ze 11872
fünf 11818
Kampf 11817
verwenden 11788
En@@ 11765
Fortschritte 11765
äußerst 11754
Prozess 11746
lediglich 11723
Bitte 11720
verstehen 11720
man@@ 11715
fordern 11714
zurück 11710
ir@@ 11693
ker 11691
guten 11679
fe 11666
F 11660
Erachtens 11656
Partner 11651
verfügen 11648
da@@ 11645
zunächst 11639
Ch@@ 11628
ations@@ 11624
obwohl 11624
gehören 11618
ft 11615
bisher 11614
rund 11595
scher 11590
ig@@ 11586
Kultur 11575
fest 11571
z.B. 11568
Kommissarin 11563
tionen 11554
tlichen 11552
nimmt 11549
halte 11548
treffen 11530
Stunden 11523
meines 11519
treten 11513
Markt@@ 11503
scheint 11496
bestimmte 11490
Wert 11482
versuchen 11450
24 11443
einschließlich 11427
Person 11412
Or@@ 11396
M 11394
est@@ 11380
gemäß 11372
one 11369
vi@@ 11368
Investitionen 11356
Mehrheit 11344
Li@@ 11331
neben 11327
Handels@@ 11311
tliche 11307
Industrie 11301
zei@@ 11298
geschlossen 11288
Mitglied 11260
lang 11260
ß 11247
isches 11246
ff@@ 11225
Dinge 11217
Zahl 11203
40 11202
9@@ 11197
Bestimmungen 11196
Integration 11176
7@@ 11175
and@@ 11156
Erklärung 11151
Gewalt 11132
Juni 11131
Entscheidungen 11126
ran@@ 11125
genden 11119
Programme 11114
ali@@ 11114
Se@@ 11112
Gemeinschafts@@ 11097
sagte 11093
Aktivitäten 11088
gesamte 11085
ner 11079
aufge@@ 11076
ap@@ 11075
Anfang 11060
zweite 11060
Anzahl 11027
bestimmten 11005
vergangenen 11001
Während 11000
L 10998
hohen 10991
kan@@ 10982
bringt 10981
end@@ 10976
gesetzt 10972
Vorschriften 10956
Handel 10950
Dialog 10948
ern@@ 10946
8@@ 10944
2005 10942
solchen 10918
Erfahrung 10916
Entwicklungs@@ 10906
stark 10899
il@@ 10871
Tage 10869
gar 10862
del 10842
erster 10834
Wahl 10831
Beschäftigung 10821
gleich@@ 10804
so@@ 10799
Le@@ 10794
Dabei 10789
weder 10787
somit 10782
nie 10776
gel 10763
ell@@ 10760
Gefahr 10759
to@@ 10747
G 10739
Standpunkt 10738
Produktion 10736
Wei@@ 10730
systeme 10730
Flug@@ 10729
ente 10728
Herzen 10726
X 10718
ent 10711
Angebot 10702
Punkte 10698
Familie 10697
Aufmerksamkeit 10695
Macht 10695
Mai 10688
nisse 10680
mein 10658
später 10652
tlich 10639
weisen 10639
fallen 10627
ums 10627
Freiheit 10615
angesichts 10615
Einzel@@ 10614
erungs@@ 10600
Energie 10590
leisten 10577
Sprache 10573
Raum 10572
innen 10571
aufgenommen 10570
aufzu@@ 10562
Grenzen 10550
europäischer 10536
bezüglich 10535
wi@@ 10533
Folgen 10527
Hand 10527
Nationen 10527
dadurch 10527
ka 10517
einzige 10516
voll@@ 10509
2004 10496
Position 10495
ati@@ 10494
® 10486
Bei@@ 10480
cher 10476
außerdem 10464
Landwirtschaft 10455
Mitarbeiter 10444
führung 10438
Regeln 10437
Bild 10434
Funktion 10411
ales 10408
teile 10405
Dezember 10402
Bereiche 10397
Berichts 10392
Präsidenten 10388
schließlich 10387
P 10378
Qu@@ 10378
dung 10377
pf@@ 10352
volle 10349
Stelle 10347
größten 10345
insgesamt 10342
ru@@ 10319
Bildung 10315
setzt 10314
ca 10295
Transparenz 10293
lagen 10291
hohe 10288
Lebens@@ 10284
Diskussion 10282
Wettbewerb 10269
ut@@ 10257
cken 10252
mu@@ 10252
zweiten 10245
Gesundheits@@ 10242
ate 10241
Ex@@ 10239
aler 10237
mittel 10232
September 10230
än@@ 10216
erungen 10209
Präsidentschaft 10197
sieht 10196
Bemühungen 10194
tre@@ 10191
getan 10172
Fach@@ 10162
Preise 10142
18 10139
R 10130
men@@ 10128
zahlreiche 10128
Wahl@@ 10127
wichtiger 10117
ing 10115
neuer 10107
di 10102
abzu@@ 10096
eben 10096
Auswahl 10094
eher 10094
Besch@@ 10089
K 10082
Spiel 10078
Fahr@@ 10077
fer 10076
Schlusselwortern 10072
leider 10061
Anforderungen 10057
Projekte 10051
mo@@ 10051
Auffassung 10050
Ansatz 10049
form@@ 10036
kl@@ 10030
Wasser 10028
Meine 10014
heit 10009
2003 10008
begrüße 10000
min@@ 10000
möglichkeiten 9996
Spiel@@ 9991
Tagesordnung 9972
öffentliche 9972
ären 9961
beitragen 9955
Online 9946
frei 9943
zehn 9926
leicht 9918
Umgebung 9899
bevor 9880
lösen 9880
Öffentlichkeit 9879
eigentlich 9878
Gründen 9873
hal@@ 9873
Natur 9861
gs 9845
gten 9835
Bürgern 9834
tz@@ 9826
Co@@ 9825
schließen 9821
Kraft 9820
allein 9814
2001 9806
diejenigen 9797
Nur 9792
Anfrage 9779
Meer 9777
Daten@@ 9767
März 9767
gende 9765
Hoch@@ 9753
genannten 9751
ihres 9748
Dis@@ 9747
Tri@@ 9739
morgen 9739
sa@@ 9736
ster@@ 9724
sektor 9722
eingesetzt 9720
.com 9709
by 9708
mer 9708
Sache 9703
ben@@ 9701
cht@@ 9700
14 9675
hätten 9658
Änderung 9656
konnten 9655
ier@@ 9651
tan@@ 9650
aktuellen 9648
Sinne 9630
Fehler 9622
fall 9614
durchgeführt 9610
16 9609
11 9604
Bürgerinnen 9604
Linie 9599
Land@@ 9598
Man@@ 9590
erwarten 9585
Tra@@ 9582
re 9576
verhindern 9576
dar@@ 9565
kre@@ 9559
Druck 9547
IT 9547
benötigen 9546
erter 9541
kannst 9530
teilen 9528
Benutzer 9519
ßen 9513
hoch@@ 9508
Mon@@ 9506
stimmen 9506
erneut 9503
bo@@ 9497
Gra@@ 9486
inter@@ 9477
Fällen 9471
enz@@ 9460
kosten 9459
ine 9458
Bi@@ 9437
berücksichtigt 9415
Monaten 9411
Th@@ 9402
Au@@ 9368
gelten 9366
Finanzierung 9362
Tat 9362
Rechtsvorschriften 9361
geworden 9352
Gäste 9345
wider@@ 9334
Höhe 9329
behandelt 9325
größte 9320
her 9313
Januar 9304
Reform 9302
0 9301
Mittel@@ 9279
enn@@ 9275
kurz 9254
Ressourcen 9251
Heute 9249
Natürlich 9242
do 9242
fi@@ 9237
genießen 9236
frage 9233
freien 9223
N 9213
wenige 9211
Jahrhundert 9208
raum 9206
ma 9205
po@@ 9205
tions@@ 9203
gefunden 9202
entsprechenden 9196
Server 9193
Ko@@ 9185
warum 9182
Verkehrs@@ 9164
els 9164
Design 9162
v 9150
ismus 9137
Zweitens 9131
ausgestattet 9119
ah@@ 9116
2002 9108
Kinder@@ 9105
Nr. 9102
pro@@ 9098
Oktober 9095
wählen 9095
ra 9081
ssen 9076
Republik 9074
äre 9069
folgt 9053
Con@@ 9052
stre@@ 9050
hält 9048
Konferenz 9046
vergessen 9042
Bel@@ 9038
Lo@@ 9030
vertreten 9022
bau@@ 9021
Hand@@ 9019
zumindest 9018
Insel 9015
Arbeitnehmer 9010
zwei@@ 8995
Pi@@ 8994
Sicht 8967
TV 8967
Bar 8965
Aspekte 8964
Staats@@ 8959
1. 8958
versucht 8952
V 8932
demokratischen 8929
tik@@ 8910
richtige 8902
ungsp@@ 8901
Parteien 8892
Herausforderungen 8888
Berichterstatterin 8885
Behandlung 8884
Basis 8881
Organisation 8869
zer@@ 8860
überhaupt 8860
Angelegenheiten 8854
Italien 8853
Angelegenheit 8848
Ru@@ 8847
wahrscheinlich 8846
schützen 8844
ob@@ 8837
Vertrauen 8836
werk 8829
Team 8828
Wohn@@ 8828
lau@@ 8821
bar@@ 8807
par@@ 8800
Groß@@ 8798
teten 8792
tem 8790
que 8789
Milliarden 8788
Werte 8788
tra@@ 8779
geschaffen 8776
60 8765
ation@@ 8756
entsprechend 8752
Vergangenheit 8748
Ober@@ 8743
Spanien 8743
zahlen 8741
Selbst@@ 8730
Lei@@ 8729
erklärt 8729
Zur 8723
ständig 8722
gewesen 8720
Bu@@ 8718
erfüllen 8715
gesehen 8707
kt 8704
technischen 8695
Schwierigkeiten 8694
folgen 8694
wieder@@ 8692
Solidarität 8690
ler@@ 8686
stellung 8686
Arbeitsplätze 8677
Gu@@ 8674
Lassen 8674
13 8672
endlich 8668
ha@@ 8650
no@@ 8648
Strand 8646
danke 8641
Gästebewertungen 8639
bessere 8639
ie@@ 8628
weg 8627
De@@ 8626
hinter 8620
Staat 8614
nahe 8614
war@@ 8608
&gt; 8606
Beginn 8605
Tagen 8605
ac@@ 8605
mon@@ 8597
eri@@ 8594
besondere 8591
verantwortlich 8587
Hinsicht 8585
hi@@ 8577
Annahme 8576
verpflichtet 8576
Windows 8557
tu@@ 8557
Ber@@ 8553
genug 8540
barkeit 8539
hoch 8538
Gruppen 8537
un 8535
Vertreter 8534
Musik 8533
rechts 8532
bau 8530
denken 8529
länder 8526
EUR 8521
Juli 8520
Dateien 8515
anderem 8508
Küche 8507
Po@@ 8500
oren 8500
alte 8498
häufig 8491
paar 8491
Schritte 8489
Frieden 8484
sofort 8479
Datei 8477
Armut 8476
erinnern 8469
November 8459
Wochen 8451
Opfer 8450
privaten 8445
Nor@@ 8444
lernen 8443
Systems 8441
Technologie 8439
chen@@ 8439
kennen 8436
lesen 8432
vollständig 8428
braucht 8424
reichen 8423
falls 8419
GmbH 8414
Forschungs@@ 8406
amerikanischen 8398
AG 8388
ina 8381
Bilder 8379
heutigen 8379
Firma 8368
vorgeschlagen 8366
gabe 8362
Erstens 8360
Verpflichtungen 8359
erfolgreich 8354
außerhalb 8343
ci@@ 8343
Verfassung 8337
Nicht 8335
80 8330
trotz 8320
oben 8318
hören 8316
Preis@@ 8314
und@@ 8314
Luft@@ 8312
darstellt 8311
ven 8311
legt 8305
prä@@ 8290
Obwohl 8288
Inhalt 8286
stelle 8278
begrüßen 8277
bewusst 8277
Anstrengungen 8271
ck 8270
Allerdings 8262
geh@@ 8256
erfolgt 8255
U 8252
Informations@@ 8243
jeweiligen 8242
Ak@@ 8240
Reformen 8239
Krieg 8238
globalen 8232
nis 8230
stärker 8229
with 8228
Viele 8224
allgemeinen 8224
hen 8222
Erfahrungen 8220
Unter 8213
letzte 8210
An 8208
Organisationen 8203
1@@ 8201
Information 8198
rei@@ 8198
Terrorismus 8194
Du 8188
stets 8185
entscheiden 8182
genutzt 8182
eindeutig 8178
Praxis 8176
beste 8175
Partei 8174
Wahlen 8169
schwer 8168
modernen 8159
teil 8159
wor@@ 8158
unten 8157
Binnenmarkt 8156
gekommen 8142
Sonder@@ 8140
me@@ 8137
do@@ 8131
sches 8123
1999 8119
gend 8111
übernehmen 8105
tsch@@ 8102
Kar@@ 8100
he 8096
gew@@ 8084
neues 8084
erwartet 8079
Kriterien 8076
verkehr 8072
nationale 8065
Dollar 8063
bes@@ 8056
les 8056
per@@ 8053
zahlreichen 8051
sechs 8050
sierung 8044
Protokoll 8042
ien 8042
Vereinbarung 8039
bitten 8039
Prozent 8036
April 8031
größere 8031
Folge 8030
historischen 8011
deine 8009
ori@@ 8006
ße 8003
ant 8000
alität 7998
vorgelegt 7994
Einige 7990
erkennen 7989
folgenden 7987
Aufgaben 7986
B. 7983
Berlin 7970
Energie@@ 7968
bilden 7968
ging 7964
Denn 7963
platz 7962
rä@@ 7961
richten 7959
fahr@@ 7950
Haushalt 7941
Stabilität 7941
Anerkennung 7937
seines 7921
Wann 7914
lungen 7913
Ausschuß 7910
Zustimmung 7898
Den 7891
laufen 7885
Gegen@@ 7884
zug 7880
Dazu 7879
hotel 7874
stell@@ 7873
Falle 7867
Lu@@ 7862
lose 7858
deten 7856
beide 7855
zudem 7853
ort 7850
rechte 7848
sicherheit 7840
sionen 7840
= 7838
überzeugt 7836
10@@ 7831
Instrument 7831
Gen@@ 7830
ok@@ 7828
deutschen 7822
Sektor 7821
persönlichen 7820
ho@@ 7816
Einrichtung 7813
Ri@@ 7812
Gesamt@@ 7810
glauben 7809
Sitzung 7805
Ad@@ 7804
berücksichtigen 7800
offen 7800
Gipfel 7796
ierung 7794
fort@@ 7783
dringend 7778
€ 7778
Wunsch 7777
Kur@@ 7773
Urlaub 7769
hand@@ 7768
Kultur@@ 7764
gesprochen 7759
ausschließlich 7755
senden 7750
Flughafen 7741
äu@@ 7738
Zusammen@@ 7736
laden 7728
Adresse 7727
abge@@ 7721
wert 7721
hinweisen 7720
tive 7718
erlaubt 7715
sicherzustellen 7714
Nun 7712
20@@ 7710
Ta@@ 7709
ses 7704
kam 7703
zeiten 7703
Wel@@ 7700
Verwaltung 7693
w 7675
prüfen 7671
kaum 7670
freie 7667
arbeit 7665
Idee 7664
Volk 7663
So@@ 7662
welches 7662
Mor@@ 7659
zusätzliche 7656
beginnen 7653
möglicherweise 7644
é 7643
ta 7641
Mitteilung 7638
Osten 7637
gezeigt 7635
Außen@@ 7629
Systeme 7619
Atmosphäre 7618
industrie 7617
vollen 7615
á@@ 7615
erwähnt 7605
Wieder@@ 7603
Wettbewerbsfähigkeit 7600
Vorteile 7598
Unterkategorien 7596
zeit@@ 7595
abkommen 7593
unbedingt 7590
prozess 7586
ters 7586
17@@ 7585
La 7584
greifen 7573
schi@@ 7573
17 7572
gleiche 7571
500 7565
Site 7564
Durchführung 7555
Dann 7553
erenden 7545
akzeptieren 7542
Nutzen 7540
hoffen 7528
bestehenden 7521
finanziellen 7512
ms 7511
verb@@ 7508
Fest@@ 7507
heiten 7506
bald 7504
Schließlich 7503
selbstverständlich 7500
Haltung 7497
spricht 7490
200 7480
Ihres 7473
wer 7473
markt 7470
Vertrags 7463
anders 7459
Produkt@@ 7455
entspricht 7449
Technologien 7448
15@@ 7446
Sport@@ 7444
automatisch 7439
ür@@ 7438
ergreifen 7433
werte 7423
erzielt 7422
kommenden 7419
alisierung 7417
Zunächst 7414
schutz 7412
Falls 7409
gerecht 7408
br@@ 7397
stra@@ 7397
wesentlich 7397
getroffen 7394
Medien 7391
mer@@ 7386
ör@@ 7378
ün@@ 7378
nahme 7377
au 7376
Irak 7375
Hause 7374
Leute 7372
politischer 7371
Sterne 7370
mindestens 7368
ländern 7363
umgesetzt 7363
Gebäude 7359
Kunst@@ 7357
eng@@ 7351
stimme 7339
unterschiedlichen 7339
Car@@ 7335
jene 7329
benutzt 7324
ser 7324
nt 7311
Menschenrechts@@ 7307
sei@@ 7302
enz 7290
Ist 7283
tät 7271
Fischerei@@ 7270
notwendigen 7266
Restaurants 7264
Do@@ 7261
Wer 7260
Israel 7257
endes 7255
Vereinten 7252
entsprechende 7246
aktuelle 7245
Bundes@@ 7242
erk@@ 7238
festgelegt 7238
bedingungen 7236
Sa@@ 7225
onen 7223
Kunden@@ 7222
Aufenthalt 7214
nachdem 7213
stärken 7207
Produkt 7205
tisch 7205
Produktions@@ 7203
gef@@ 7203
ari@@ 7198
wünschen 7189
Augen 7183
Chance 7179
stehenden 7179
ou@@ 7178
möglichen 7173
00@@ 7167
ator 7166
schaften 7163
ats 7155
moderne 7154
ep@@ 7146
Sti@@ 7139
Kre@@ 7134
Privat@@ 7134
anischen 7134
geändert 7126
zuletzt 7121
Homepage 7116
gebiet 7114
La@@ 7108
bedarf 7108
Natur@@ 7103
ex@@ 7103
reich@@ 7099
Frühstück 7095
Spieler 7095
Neben 7094
verfolgen 7088
New 7082
neu@@ 7079
Funktionen 7074
wären 7071
Vi@@ 7069
mittel@@ 7067
su@@ 7062
West@@ 7052
He@@ 7051
tri@@ 7047
beziehen 7046
ans 7045
erfüllt 7041
Zudem 7039
dienen 7038
Forderung 7037
aktiv 7035
Initiativen 7031
Prä@@ 7023
Mitgliedstaat 7021
sage 7021
unver@@ 7020
ER 7016
Produkten 7016
freuen 7015
erende 7010
vermeiden 7010
übernachten 7009
erzielen 7006
langen 7004
Ausgaben 7003
Su@@ 6998
erhöhen 6993
mehreren 6988
res 6984
betonen 6980
handeln 6970
technische 6970
Instrumente 6965
pp@@ 6962
www.@@ 6959
1.@@ 6958
EN@@ 6958
Computer 6956
bestimmt 6953
sicherlich 6953
Web@@ 6950
Klein@@ 6947
lin@@ 6946
Einfluss 6945
hr@@ 6943
Karte 6936
Stadt@@ 6936
ität 6936
Abschließend 6931
ec@@ 6926
Ausbildung 6923
rü@@ 6922
klare 6914
Kern@@ 6903
ckt 6903
Währung 6902
warten 6900
erfahren 6899
tä@@ 6896
besonderen 6893
Kor@@ 6892
lä@@ 6892
H 6889
wenden 6889
trag@@ 6888
genannt 6885
Wein@@ 6882
siert 6873
Management 6869
ist@@ 6860
sion 6860
Berichte 6859
ess@@ 6852
außer 6851
gelegt 6847
Kenntnis 6846
satz 6842
Fonds 6840
achten 6836
entschieden 6836
darunter 6835
siehe 6835
Abgeordnete 6831
Zei@@ 6823
gang 6821
gest@@ 6818
Regelung 6817
arbeitet 6816
stoffe 6816
Zeichen 6814
Inhalte 6811
War@@ 6811
trägt 6806
z. 6796
ren@@ 6793
Stimme 6792
El@@ 6791
Monate 6789
ligen 6786
anderes 6784
.. 6780
beschlossen 6779
verfügbar 6776
Veränderungen 6775
ungs 6764
testen 6763
fung 6762
vorgesehen 6761
gte 6757
losen 6754
dete 6749
Vielfalt 6747
Verwaltungs@@ 6745
Einrichtungen 6741
Großbritannien 6739
gefordert 6738
bet@@ 6736
Grenz@@ 6734
hervor@@ 6733
verbessert 6733
tr@@ 6731
Qualitäts@@ 6726
Anspruch 6719
Iran 6719
bel 6707
AN@@ 6706
19 6696
emp@@ 6696
16@@ 6694
Schul@@ 6694
Ne@@ 6693
mann 6693
Gr@@ 6692
Konzept 6686
konkrete 6685
Schutz@@ 6684
Beitritt 6683
Gel@@ 6677
finanzielle 6677
Kindern 6674
ER@@ 6667
San 6666
Fra@@ 6663
mar@@ 6660
Tätigkeit 6655
70 6653
nte 6652
Einigung 6648
Abschluss 6647
benutzen 6642
Über 6642
ann@@ 6639
sagt 6633
systems 6628
teil@@ 6628
W 6625
Ä@@ 6624
Engagement 6610
schreiben 6610
Bad 6607
Ho@@ 6605
Anwendungen 6603
Wege 6603
Bürger@@ 6601
Tier@@ 6601
tiv 6601
IN@@ 6596
voller 6596
freue 6594
ph@@ 6582
lungs@@ 6581
dlich 6575
funktioniert 6573
eu@@ 6571
Familien 6570
fällt 6570
Hotel@@ 6565
ften 6565
durchaus 6559
chs 6557
Gebieten 6556
Besuch 6543
darstellen 6543
art 6541
Suche 6539
à 6537
Herausforderung 6536
Angesichts 6535
gelangen 6525
konzentrieren 6522
ang 6518
Stellungnahme 6498
Berg@@ 6493
ia 6489
klicken 6488
Zeitraum 6487
dagegen 6484
elt 6484
Modell 6481
Achtung 6475
Ni@@ 6473
entweder 6473
ord@@ 6473
richtigen 6468
Ha@@ 6460
Du@@ 6455
bu@@ 6451
Gemeinsamen 6450
Zweifel 6448
lu@@ 6448
Dienste 6438
Lesung 6438
gra@@ 6434
Griechenland 6433
Rede 6430
Prioritäten 6427
ausdrücklich 6426
Jetzt 6425
Standards 6424
erklären 6424
nissen 6423
2.@@ 6421
Warum 6421
Stärkung 6418
fonds 6416
Leistungen 6412
log@@ 6410
Si@@ 6408
Web 6408
Programms 6407
Menge 6404
fin@@ 6401
Forderungen 6399
len@@ 6397
bil@@ 6396
Einhaltung 6395
land@@ 6392
betrachtet 6391
AS@@ 6388
Antrag 6384
sieren 6383
Best@@ 6374
euch 6373
erstellt 6371
gh@@ 6371
Worte 6370
lokalen 6370
möglichst 6369
tel@@ 6366
acht 6365
mögliche 6364
tt@@ 6363
gewährleistet 6362
online 6362
Kontakt 6355
wollte 6355
Nieder@@ 6353
Afrika 6351
mitteln 6348
Japan 6343
Dennoch 6339
tn@@ 6339
ik 6337
spielt 6336
Arbeitslosigkeit 6334
diskutieren 6331
Paris 6326
AR@@ 6321
90 6318
Ukraine 6317
gu@@ 6316
Sk@@ 6314
21 6312
gelegen 6311
gewinnen 6311
eingehen 6310
Vergleich 6309
Sommer 6308
IS@@ 6304
Park 6301
geleistet 6296
Straße 6292
regionalen 6290
welcher 6288
ordnung 6279
positive 6275
Sprachen 6274
kulturellen 6272
geschehen 6271
teilweise 6269
lt 6266
ausschuss 6265
for@@ 6265
schutz@@ 6265
wahr@@ 6263
Sorge 6260
Arbeiten 6259
ehr@@ 6259
Familien@@ 6258
kom@@ 6258
einiger 6256
PC 6254
stellte 6252
schwierig 6250
12@@ 6243
isch@@ 6234
Wettbewerbs@@ 6232
ver 6232
cher@@ 6231
mm 6231
dlichen 6228
Aufnahme 6227
fahrt 6223
Leider 6216
Zeiten 6213
du@@ 6210
Kunst 6207
starke 6207
Teile 6204
tiges 6204
No@@ 6195
Ser@@ 6190
ote 6189
service 6189
jederzeit 6181
nächste 6181
Analyse 6180
Vielen 6179
ad 6177
Am@@ 6174
Zweck 6173
speziell 6173
programme 6172
verfolgt 6168
demokratische 6167
erfolgen 6167
nis@@ 6167
son 6167
Hauses 6166
no 6164
Aspekt 6163
lig 6163
Por@@ 6162
feststellen 6162
unabhängig 6161
ons 6160
Standard 6157
Ger@@ 6155
ed 6155
fähigkeit 6154
Kl@@ 6151
Mio. 6146
Partnerschaft 6145
informieren 6134
schul@@ 6131
av@@ 6130
berg 6129
dliche 6129
gegenwärtigen 6128
erleben 6126
ft@@ 6126
zentrum 6125
Schweiz 6120
elles 6116
Februar 6114
nung 6113
lichem 6111
alt 6110
dank 6109
Fre@@ 6108
hingewiesen 6104
Reise@@ 6102
Versch@@ 6100
gegenwärtig 6100
Bild@@ 6096
tiv@@ 6095
ST@@ 6094
Status 6092
Dokument 6089
geeignet 6089
Paket 6086
Globalisierung 6083
Entwicklungen 6079
ll@@ 6079
ologie 6079
ES@@ 6069
Webseite 6067
mp@@ 6061
Hei@@ 6055
fra@@ 6055
ren 6055
angesprochen 6052
Dar@@ 6050
unbe@@ 6050
Stand 6049
Mi@@ 6048
produk@@ 6046
erscheint 6045
Überwachung 6043
angezeigt 6042
führenden 6041
sel@@ 6040
tätig 6033
unterstütze 6033
ce 6027
profitieren 6024
Indien 6023
Banken 6021
freiheit 6016
Ö@@ 6014
jeweils 6013
Nord@@ 6007
gem@@ 6007
gestalten 6006
ungs- 6006
WTO 5998
uren 5997
liebe 5995
22 5993
Agrar@@ 5992
entstehen 5992
dr@@ 5991
Not@@ 5990
benötigt 5989
Hintergrund 5986
CD 5985
Ja 5985
For@@ 5984
Priorität 5984
Angaben 5982
fordert 5982
wenigen 5982
Irland 5980
Cor@@ 5975
daten 5973
dennoch 5969
unterschiedliche 5968
Klima@@ 5967
Polen 5965
Problemen 5965
Sal@@ 5965
Beschäftigungs@@ 5964
zen@@ 5962
übrigen 5961
Wer@@ 5960
folgende 5960
sum@@ 5956
ES 5955
tion 5950
Verpflichtung 5943
Gleichzeitig 5942
Wissen 5942
Meiner 5941
istischen 5940
tere 5940
Geld@@ 5938
Internet@@ 5938
Debian 5932
usw. 5931
Euro@@ 5930
uner@@ 5926
Fortschritt 5925
27 5923
Richtlinien 5923
heraus@@ 5922
he@@ 5917
veröffentlicht 5915
II 5914
erstellen 5912
str@@ 5912
Bewertung 5909
sor@@ 5909
vers@@ 5909
haft 5908
Gar@@ 5907
form 5903
fre@@ 5902
Regelungen 5900
Br@@ 5891
Märkte 5889
führte 5885
Brüssel 5884
absolut 5884
rück@@ 5879
einsetzen 5875
besuchen 5872
überprüfen 5870
Texte 5866
San@@ 5862
läuft 5861
kur@@ 5859
mel@@ 5859
eingeführt 5858
zustimmen 5856
amen 5855
Mitte 5852
erforderlichen 5851
dungen 5847
enti@@ 5847
schafts@@ 5845
va 5844
Zeit@@ 5840
son@@ 5838
sichern 5835
Politiker 5834
steigen 5834
Herstellung 5833
täglich 5831
stes 5830
ktion 5826
Innovation 5824
positiv 5824
Op@@ 5823
Personal 5823
län@@ 5821
vorliegenden 5820
Rechnung 5819
Mitteln 5810
weiterer 5808
ana 5807
eingerichtet 5807
Gesetz 5806
sischen 5801
vorhanden 5795
Worten 5793
Österreich 5793
rat 5792
Beteiligung 5790
14@@ 5788
Durch@@ 5783
Stellen 5779
Arten 5777
Anteil 5769
Kosovo 5767
Jahrhunderts 5761
umfassende 5759
Formen 5754
geschrieben 5752
tiven 5752
Meter 5750
miteinander 5750
offensichtlich 5749
ches 5748
reicht 5746
umfasst 5745
lige 5742
verbundenen 5740
Entwurf 5738
fte 5738
links 5737
ss@@ 5735
Produk@@ 5731
Linux 5728
UN 5727
AL@@ 5721
glich 5713
ub@@ 5713
est 5711
bauen 5705
Aussch@@ 5703
Me@@ 5701
verlassen 5696
Im@@ 5694
cks 5694
UN@@ 5693
persönlich 5693
Elemente 5692
inen 5692
Geschäftsordnung 5688
ette 5687
eck@@ 5685
kor@@ 5684
Kompromiss 5683
ertes 5682
beteiligt 5679
ard 5678
August 5677
französischen 5675
aufmerksam 5673
1,@@ 5672
gruppe 5670
Verkehr 5669
Europäer 5668
Kritik 5668
Prinzip 5668
bin@@ 5667
Erklärungen 5665
Maße 5665
Per@@ 5665
mag 5665
Moment 5662
jüngsten 5661
{ 5660
ev@@ 5659
Barcelona 5658
britischen 5655
gem 5655
Bedürfnisse 5651
Ur@@ 5646
wesentlichen 5645
alismus 5634
Ideen 5630
AT@@ 5629
Kommunikation 5628
nah@@ 5628
glichen 5624
Risiken 5623
ve 5621
lö@@ 5619
Sinn 5618
größeren 5618
Agentur 5615
digen 5611
lich@@ 5611
Gründe 5607
zufolge 5606
einander 5603
internationaler 5601
300 5600
Gesch@@ 5599
zufrieden 5598
Voll@@ 5596
gezogen 5596
bestätigt 5595
go 5595
IT@@ 5594
nennen 5594
eter 5593
Hersteller 5588
sta@@ 5588
Ti@@ 5586
ast@@ 5583
ich@@ 5581
Vielzahl 5577
sämtliche 5577
dient 5573
nationaler 5573
istische 5572
sse 5570
äch@@ 5570
Booking.com 5569
Garten 5568
ure 5567
Regel 5564
geschützt 5561
politisch 5560
Video 5558
betrachten 5558
mü@@ 5556
ständigen 5555
ino 5553
gelöst 5551
zentrale 5547
pa@@ 5546
haus 5545
Spezi@@ 5543
Grundsatz 5541
ro 5537
stattfinden 5537
kaufen 5534
Beihilfen 5533
Entschließungsantrag 5532
Umfang 5529
tro@@ 5528
Aktionen 5525
angeboten 5525
gemein@@ 5523
tw@@ 5522
Abend 5516
garantiert 5516
ban@@ 5515
Besucher 5514
ade 5514
ierte 5514
kte 5512
keinerlei 5511
ige 5508
1998 5506
London 5501
fall@@ 5496
Agenda 5494
nötig 5488
Empfehlungen 5487
ausreichend 5486
staatlichen 5486
Fraktionen 5484
Verhältnis 5483
rechtlichen 5483
Hoffnung 5482
go@@ 5482
mm@@ 5478
gs@@ 5475
Installation 5473
ca. 5473
länger 5473
Absatz 5471
solcher 5470
Treffen 5468
Werk@@ 5467
arten 5465
Ziel@@ 5464
23 5457
schlagen 5455
Ku@@ 5453
eigen@@ 5450
starken 5450
Gebiete 5448
por@@ 5447
Stil 5443
Botschaft 5437
überall 5435
Ansch@@ 5431
äl@@ 5423
mes 5420
anlagen 5418
Realität 5417
globale 5416
Druck@@ 5415
Gei@@ 5415
Kan@@ 5412
Risiko 5407
pi@@ 5402
35 5401
co@@ 5399
0er 5395
vorgeschlagenen 5395
essen 5393
Rahmen@@ 5389
Komfort 5388
wirken 5388
Ereignisse 5387
Ü@@ 5383
Flexibilität 5382
mehr@@ 5382
Unternehmens@@ 5378
Bank 5377
Test@@ 5375
staaten 5374
iz@@ 5372
gegangen 5371
finde 5369
erhält 5367
nachhaltige 5367
großes 5366
tsp@@ 5366
Menschen@@ 5365
flü@@ 5365
ys 5364
werke 5361
fälle 5360
Niveau 5359
ris@@ 5357
Mitgliedern 5356
Terrasse 5353
Monat 5352
kraft 5351
Öl@@ 5349
anten 5347
danach 5346
tik 5346
net 5343
Haup@@ 5341
Pal@@ 5341
allgemeine 5340
EG 5338
ack@@ 5338
stadt 5338
Liberalisierung 5335
erfordert 5335
Bildungs@@ 5334
Pa@@ 5332
stoff 5328
einfache 5327
Kirche 5324
stri@@ 5324
co 5317
Schlüssel@@ 5314
spiel@@ 5314
verloren 5312
Leistung 5311
vo@@ 5309
spezielle 5307
Verständnis 5305
garantieren 5303
pl@@ 5303
groß 5301
reden 5301
rufen 5300
betroffenen 5298
iger 5297
san@@ 5296
schönen 5296
spezi@@ 5293
hilfe 5287
daraus 5286
zeichnet 5284
kosten@@ 5283
frei@@ 5281
gr@@ 5278
d. 5277
entsprechen 5277
tel 5276
etz@@ 5275
Grunde 5274
Kat@@ 5273
angeht 5273
Führung 5270
vorschlagen 5268
gruppen 5267
Gegenteil 5266
13@@ 5265
beinhaltet 5264
Ski@@ 5260
festgestellt 5260
Eindruck 5254
übertragen 5254
Betrieb 5253
Liefer@@ 5252
h. 5251
í@@ 5249
rechten 5248
gegründet 5246
ide@@ 5244
Friedens@@ 5241
stu@@ 5239
betroffen 5233
lang@@ 5233
welt 5230
Erhöhung 5222
Gas@@ 5222
Energi@@ 5220
Beschreibung 5216
ativen 5216
zeichen 5213
Aufbau 5212
abgeschlossen 5212
} 5212
feld 5211
Koordinierung 5208
Titel 5207
einerseits 5203
seite 5203
geschieht 5201
Königreich 5199
Auto 5197
erhöht 5197
Diskriminierung 5196
Fisch@@ 5196
gebaut 5196
Infrastruktur 5194
einverstanden 5188
Patienten 5182
Methode 5180
stei@@ 5179
Gesetzgebung 5178
bezeichnet 5178
zuvor 5177
sonst 5176
zählen 5176
Gegensatz 5173
strategie 5172
from 5171
regeln 5171
mäßig 5168
Chi@@ 5162
Unabhängigkeit 5162
setzung 5161
Jeder 5157
mittels 5154
RE@@ 5152
Voraussetzungen 5145
Phase 5137
Überprüfung 5135
Größe 5133
fe@@ 5133
See 5130
legung 5129
führ@@ 5127
wirtschaft 5127
informiert 5125
Hin@@ 5124
Internationalen 5123
besitzt 5123
fäl@@ 5122
Eigen@@ 5120
wichtigste 5119
gering@@ 5117
einzigen 5103
besseren 5102
hergestellt 5101
Prüfung 5100
assen 5100
Business 5098
gutes 5098
Name 5096
ds 5096
nten 5094
fläche 5092
punkt 5089
zer 5088
Hinweis 5085
gkeit 5085
Wi@@ 5084
dis@@ 5084
gehalten 5083
Mal@@ 5078
reagieren 5078
Mark@@ 5075
Teilen 5075
All 5070
entgegen@@ 5070
echte 5068
stan@@ 5068
End@@ 5067
Tre@@ 5065
Bus@@ 5064
bildung 5064
manchmal 5062
Atom@@ 5058
Reaktion 5058
Tradition 5058
diskutiert 5055
Klimawandel 5054
Sehenswürdigkeiten 5053
Wirkung 5053
National@@ 5045
Villa 5044
Sub@@ 5043
beginnt 5043
you 5043
dienst 5042
Ebenso 5041
fern 5041
ili@@ 5041
enk@@ 5038
haften 5038
wodurch 5037
Min@@ 5036
Universität 5036
Volks@@ 5035
af@@ 5033
Q@@ 5032
aussch@@ 5028
zusätzlich 5028
ant@@ 5026
reisen 5025
speziellen 5024
Gleich@@ 5022
produktion 5022
gesellschaft 5021
hauptsächlich 5021
Mehr@@ 5018
aren 5018
Ban@@ 5017
ingen 5017
bewegen 5016
# 5015
Fu@@ 5013
empfehlen 5013
sm@@ 5012
zus@@ 5010
Hälfte 5007
Kontroll@@ 5007
Netzwerk 5003
Sanktionen 5003
gliche 5003
leistungs@@ 5003
igen 5001
Grundrechte 5000
IC@@ 5000
To@@ 5000
andererseits 5000
betont 4999
sions@@ 4999
Ju@@ 4998
hängt 4997
Bestandteil 4991
Innen@@ 4990
Kol@@ 4989
Zahlen 4987
j 4987
ener 4986
ment@@ 4984
Ben@@ 4983
fein@@ 4983
Anpassung 4982
relativ 4982
zugleich 4980
Mag@@ 4978
Rau@@ 4977
erg@@ 4976
weg@@ 4976
leg@@ 4975
Willen 4974
ini@@ 4973
jungen 4973
Mann 4966
sicherstellen 4965
Museum 4964
ländlichen 4964
Technik 4963
haf@@ 4963
zung 4963
Mindest@@ 4962
kürzlich 4961
cke 4955
positiven 4949
sicht 4946
fu@@ 4944
Film 4942
mat@@ 4938
jährlich 4937
Betriebs@@ 4936
Klicken 4933
$ 4931
derzeitigen 4931
gene 4930
Fähigkeit 4929
Vorteil 4928
vollkommen 4928
Vertrags@@ 4926
Einklang 4924
gan@@ 4921
Amsterdam 4918
schen@@ 4918
Begriff 4916
stimmt 4916
Innen 4915
Verbraucher@@ 4914
Zahlungs@@ 4914
Fälle 4912
elten 4912
Bank@@ 4911
ersch@@ 4911
seitens 4911
zurückzu@@ 4911
Welche 4908
0,@@ 4907
lichkeiten 4906
Nutzer 4905
Dimension 4900
enst@@ 4900
Anti@@ 4899
regionale 4899
gender 4898
bezieht 4897
gro@@ 4896
sion@@ 4895
Strategien 4894
tigkeit 4892
werk@@ 4892
Bedarf 4888
spek@@ 4886
spezifischen 4886
fällen 4880
genen 4880
Bedenken 4879
Fuß 4877
International 4874
ischem 4871
spar@@ 4868
ton 4868
trifft 4867
des@@ 4865
wal@@ 4864
BIP 4862
ns 4861
Männer 4859
licherweise 4858
wa@@ 4854
bekannten 4852
leiden 4852
Anlagen 4851
Gesetze 4851
stoffen 4851
behörden 4850
ets 4850
akzeptiert 4849
praktisch 4848
rich@@ 4848
Mel@@ 4846
Kom@@ 4844
vol@@ 4841
Ba@@ 4838
Unterschiede 4838
zimmer 4837
umwelt@@ 4836
Tatsächlich 4833
Übereinkommen 4833
4.@@ 4832
komplett 4831
met@@ 4831
Struktur 4830
Industri@@ 4829
damals 4829
Kal@@ 4827
Dienst 4824
guter 4824
Kredit@@ 4822
welchen 4822
Musik@@ 4821
ore 4821
,@@ 4819
Diskussionen 4819
vielmehr 4819
Meeres@@ 4815
Versuch 4813
Firmen 4810
able 4809
ausschusses 4809
schneller 4808
Option 4807
zieht 4807
Kollege 4806
Post@@ 4806
Handel@@ 4805
Berücksichtigung 4803
EL@@ 4803
Ratspräsident 4801
wasser@@ 4801
Grundsätze 4799
verlieren 4799
1997 4796
mis@@ 4796
unternommen 4796
pre@@ 4795
Mess@@ 4793
Ordnung 4791
ner@@ 4791
verstärkt 4787
Umständen 4781
Plan 4779
atische 4779
Amerika 4778
Portugal 4778
gestern 4776
leiten 4776
persönliche 4775
wunder@@ 4775
Vorbereitung 4774
bt 4774
sobald 4771
AC@@ 4769
Methoden 4767
Te@@ 4766
beschäftigt 4766
weltweiten 4765
Links 4763
Eing@@ 4761
Bal@@ 4760
Leitlinien 4758
weiteres 4758
Fotos 4757
Kraft@@ 4757
Anliegen 4756
Bet@@ 4756
Wirtschafts- 4756
abhängig 4755
entwicklung 4753
aufen 4750
chs@@ 4748
gewisse 4746
inn@@ 4746
Ka@@ 4744
fühlen 4744
zunehmend 4743
befassen 4741
sto@@ 4740
bericht 4739
gearbeitet 4739
Gott 4738
tert 4737
voran@@ 4737
Struktur@@ 4736
Reise 4735
zogen 4735
komm@@ 4734
Seine 4733
Com@@ 4731
gewählt 4727
Kapital@@ 4726
Pan@@ 4726
ano 4725
Geb@@ 4724
Pra@@ 4724
bereiche 4724
ass@@ 4723
konkreten 4723
führer 4722
Trotz 4721
ba@@ 4719
bern 4719
Nacht 4717
age 4717
ßt 4715
nochmals 4714
pres@@ 4713
we@@ 4713
our@@ 4712
kostenlos 4711
ergeben 4708
Waren 4705
betreffen 4703
Bewegung 4701
Y 4701
zw@@ 4701
spezifische 4700
institutionellen 4698
Syn@@ 4697
seien 4697
Bis 4696
vertre@@ 4695
eiten 4693
Städte 4692
junge 4687
Met@@ 4684
Geh@@ 4683
Fischerei 4679
ks 4679
Verträge 4678
miss@@ 4675
verk@@ 4674
Sen@@ 4673
Charakter 4671
Tro@@ 4671
fü@@ 4671
mal@@ 4671
regelmäßig 4671
Erde 4670
Beifall 4668
Absch@@ 4667
Gefühl 4666
Nachdem 4659
Sport 4658
Regierungs@@ 4655
Verbrechen 4651
ei 4651
nden 4650
tenden 4650
Generation 4647
Ausland 4646
dritten 4646
stellungen 4645
behandeln 4644
Entwicklungsländern 4642
management 4641
stand@@ 4641
anerkannt 4640
beachten 4640
Aussicht 4639
Grenze 4638
fach@@ 4638
u. 4638
tende 4636
sam@@ 4635
geöffnet 4634
Zwei@@ 4633
System@@ 4631
far@@ 4628
fri@@ 4628
Inseln 4626
grün@@ 4626
kten 4626
Jo@@ 4624
herzlich 4624
rechts@@ 4624
verlangen 4624
umfassenden 4623
wichtiges 4621
berühmten 4620
are@@ 4619
Hel@@ 4618
Völker 4617
früher 4617
tor 4617
Effizienz 4615
Studie 4615
Laufe 4613
barer 4612
Landwirte 4611
Tran@@ 4611
Maßnahme 4609
Militär@@ 4609
Vielleicht 4608
unden 4608
Sonnen@@ 4607
gent@@ 4607
grundlegenden 4606
tigung 4606
see 4605
Mau@@ 4604
jahr 4604
spiel 4601
Unternehmens 4600
app@@ 4600
einzelne 4597
nieder@@ 4596
Voraussetzung 4594
liefern 4593
Dokumente 4590
Lebensmittel@@ 4589
traditionellen 4589
ef@@ 4588
DE 4586
Beim 4585
Licht 4582
hafte 4582
last 4578
vern@@ 4577
Teilnahme 4575
Bri@@ 4574
Sek@@ 4574
keiner 4574
fel@@ 4572
lig@@ 4572
Empfehlung 4571
Nahen 4570
Aufgrund 4567
Z 4566
tim@@ 4566
Rechts 4564
Schi@@ 4563
Untersuchung 4560
trä@@ 4559
Teil@@ 4558
45 4557
Antworten 4556
Win@@ 4556
dienste 4556
Ost@@ 4555
Tiere 4554
Weitere 4554
rein@@ 4553
3.@@ 4551
deutsche 4551
sprachen 4551
berei@@ 4549
übernommen 4549
This 4548
Komp@@ 4546
anbieten 4544
FR 4543
ier 4543
gelungen 4542
Club 4540
pri@@ 4540
very 4539
ehemaligen 4536
Westen 4535
träge 4533
wagen 4533
32 4532
Wegen 4532
basiert 4531
une 4529
tor@@ 4528
niemand 4527
Mat@@ 4524
wiederum 4521
künftig 4518
staatliche 4518
Unterkunft 4517
Leistungs@@ 4515
sprache 4514
Services 4513
deiner 4512
haltung 4512
ste@@ 4511
Absicht 4509
Gi@@ 4509
sam 4509
Lin@@ 4504
id 4503
mark@@ 4503
Des@@ 4498
genauso 4497
höhere 4497
fl@@ 4495
Sprach@@ 4494
Agrarpolitik 4493
Delegation 4493
res@@ 4488
rat@@ 4487
Ir@@ 4485
ek 4484
Allgemeinen 4481
arbei@@ 4479
etten 4475
bung 4474
sicher@@ 4471
Wahrheit 4469
menschlichen 4468
stoff@@ 4468
breite 4467
angemessen 4466
wirkt 4466
World 4463
amerikanische 4463
private 4462
Tagung 4457
werfen 4457
Lan@@ 4455
Verhalten 4455
Kenn@@ 4454
Mein 4454
bildet 4449
Mehr 4448
room 4448
Definition 4447
Geist 4446
zweifellos 4446
fa@@ 4445
asse 4444
19. 4443
Hilfs@@ 4443
schwierigen 4442
Bur@@ 4441
gän@@ 4441
ernst 4440
Plan@@ 4439
schöne 4439
sucht 4439
Rezeption 4438
fol@@ 4437
satz@@ 4437
wesentliche 4437
Regime 4436
ideal 4435
jahr@@ 4434
tut 4434
Gast@@ 4433
Kri@@ 4433
smus 4431
zählt 4430
aktive 4428
Mis@@ 4421
rasch 4421
räume 4421
steuer@@ 4418
ors 4417
Buch 4416
OS 4413
lie@@ 4413
Erd@@ 4412
Ratsvorsitz 4410
bezug 4410
ise 4410
CO@@ 4409
jemand 4404
net@@ 4403
Mu@@ 4401
York 4398
All@@ 4397
Einkaufs@@ 4395
ideale 4395
Abkommens 4392
Zustand 4391
om 4390
Nachfrage 4389
hren 4387
Ferner 4386
gefördert 4383
heits@@ 4382
Normen 4381
karte 4381
amp@@ 4380
Vom 4378
sieben 4377
Lauf@@ 4376
Freude 4375
Veranstaltungen 4373
fand 4369
Center 4363
bedeuten 4363
öh@@ 4363
entwickelten 4361
van 4361
Stra@@ 4360
bl@@ 4355
best@@ 4354
Pap@@ 4352
brechen 4351
lern 4351
Dr. 4349
Flu@@ 4349
Jahres@@ 4347
grundlegende 4346
halt 4345
tritt 4345
21. 4343
brau@@ 4343
Schäden 4339
Apartments 4338
etc. 4338
Tages@@ 4337
Verfügbarkeit 4336
Schaden 4335
Angebote 4334
Kombination 4333
vier@@ 4333
wissenschaftlichen 4333
Freunde 4332
international 4331
seh@@ 4331
ziert 4331
Teilnehmer 4330
preise 4330
up 4330
Wider@@ 4329
höchste 4326
Stunde 4325
liste 4325
Dem@@ 4323
derartige 4321
dan@@ 4317
ander@@ 4316
NATO 4315
schätzen 4315
Letz@@ 4313
lieb@@ 4313
soweit 4312
Waffen 4308
umzusetzen 4308
up@@ 4308
Beg@@ 4307
Erwartungen 4307
Em@@ 4306
sofern 4306
Tor@@ 4304
Dra@@ 4300
Verfassungs@@ 4298
Gedanken 4297
Nicht@@ 4297
organisation 4297
Angriff 4296
tigt 4295
zusätzlichen 4295
hoher 4292
Sehr 4291
Schweden 4288
Verbesserungen 4288
zes 4286
wirtschaftlicher 4285
führende 4283
satzes 4283
Überzeugung 4282
behörde 4280
Dadurch 4279
Fein@@ 4278
Strukturfonds 4277
lag 4276
Ohne 4275
At@@ 4274
Harmonisierung 4272
Liebe 4272
Wirklichkeit 4272
aufzunehmen 4272
RO@@ 4271
kurzem 4270
ppen 4269
recht@@ 4269
il 4267
ungser@@ 4266
Pflicht 4265
Farben 4263
tur@@ 4263
anti@@ 4262
ls 4262
Süd@@ 4259
Download 4256
eng 4256
lebens@@ 4256
26 4255
Lebens 4255
begann 4255
allgemein 4254
künftigen 4254
betreffenden 4253
ziemlich 4253
Altstadt 4252
fähig 4251
kämpfen 4251
wesen 4251
räger 4250
ut 4250
sinn@@ 4249
tierung 4249
gsten 4248
erheblich 4247
Plat@@ 4246
begonnen 4246
bekämpfen 4246
schließt 4246
rau@@ 4244
28 4243
ic@@ 4242
anz 4240
entscheidend 4240
fassen 4239
Entwicklungsländer 4238
Anfragen 4237
1996 4235
Eigenschaften 4235
weshalb 4235
anstatt 4234
niemals 4233
Haus@@ 4231
denden 4231
näher 4231
italienischen 4230
AD@@ 4228
Fer@@ 4228
Format 4228
Sei@@ 4228
erin 4227
Klimaanlage 4226
viel@@ 4225
kulturelle 4224
uli@@ 4224
Landschaft 4223
Zugriff 4222
historische 4221
tten 4220
igkeit 4219
gewi@@ 4218
Datenbank 4217
Nachfolgend 4216
en- 4215
erscheinen 4215
ergriffen 4210
Drittländern 4209
inzwischen 4209
Krankheiten 4208
Microsoft 4206
dert 4206
Verhandlungs@@ 4205
Festlegung 4204
IP 4204
ou 4204
Experten 4202
erer 4202
abgelehnt 4199
Minister 4198
Mittelpunkt 4197
fordere 4197
für@@ 4196
mei@@ 4196
ps 4196
ständige 4196
chinesischen 4193
gratulieren 4192
Strukturen 4189
Emissionen 4188
standards 4188
Code 4186
fs 4186
Einstellung 4185
aufgefordert 4183
woh@@ 4179
ante 4177
produkte 4174
ziele 4174
è@@ 4174
Unterschied 4172
falsch 4171
tt 4171
UNO 4169
esen 4169
Har@@ 4168
getragen 4168
Stellung 4167
trotzdem 4167
Mitgliedschaft 4166
Vorschlägen 4166
öl@@ 4166
qualität 4165
Ruhe 4164
Flü@@ 4161
Änderungsanträgen 4159
Beitritts@@ 4158
Da@@ 4158
KMU 4158
beg@@ 4158
kol@@ 4158
Projekt@@ 4157
zustellen 4153
Beispiele 4152
lauf@@ 4151
Sol@@ 4150
interessiert 4150
Telefon 4149
Arbeitsplätzen 4148
Spiele 4148
Steuern 4148
@ 4147
Bra@@ 4147
its 4147
Zi@@ 4145
Auftrag 4144
Fi@@ 4144
Farb@@ 4140
Ratspräsidentschaft 4140
nachhaltigen 4140
bestand 4138
offenen 4138
wirksam 4133
unmittelbar 4132
Übereinstimmung 4131
con@@ 4128
riesigen 4126
Buch@@ 4125
liegenden 4125
Berufs@@ 4124
Material 4123
Super@@ 4121
schei@@ 4120
rate 4119
Google 4118
Rumänien 4117
Karten 4116
Bahnhof 4114
Verringerung 4114
verlangt 4112
westlichen 4112
20. 4111
Tur@@ 4111
heraus 4110
kleiner 4109
mä@@ 4109
2020 4108
23@@ 4108
75 4108
zugunsten 4108
Formular 4107
Tod 4107
bemüht 4105
igung 4105
lautet 4105
win@@ 4105
Trans@@ 4104
sehe 4102
Zimmern 4101
Justiz 4100
Zoll@@ 4100
Konflikt 4098
trägen 4098
ierten 4097
markt@@ 4097
meist 4097
sätze 4097
zentralen 4096
tig@@ 4095
Kategorie 4090
hol@@ 4090
beglückwünschen 4089
preis 4089
Sitz 4088
Punkten 4087
Doppel@@ 4085
Lehr@@ 4084
atoren 4084
hervorheben 4084
schafft 4084
Rad@@ 4080
natürlichen 4080
teilnehmen 4080
Körper 4079
tenen 4079
Ob 4078
bli@@ 4078
stein 4077
Pre@@ 4075
tz 4075
Fin@@ 4074
Holz@@ 4073
Süden 4073
tierten 4073
Mand@@ 4072
ase 4072
stehende 4071
uss 4071
CO2 4070
Star@@ 4070
hilft 4068
Bau 4067
bahn 4067
Außenpolitik 4066
tern@@ 4066
verändert 4066
Drittens 4065
annehmen 4065
ausgezeichneten 4064
formen 4064
vorzu@@ 4063
Führungs@@ 4062
IS 4059
Industrie@@ 4057
gegen@@ 4056
spanischen 4056
ül@@ 4056
St. 4053
angemessene 4053
rech@@ 4053
sorgt 4053
Pol@@ 4052
bequem 4051
ings 4051
wünsche 4051
Afghanistan 4048
durchzuführen 4047
verabschiedet 4046
Ausführungen 4045
Währungs@@ 4044
cker 4044
sozi@@ 4044
ursprünglichen 4043
Nein 4042
bedeut@@ 4040
ko 4039
ön@@ 4039
Chinas 4037
Schule 4036
fiziert 4034
funktionieren 4033
5.@@ 4032
Roma 4031
Hauptstadt 4029
Standard@@ 4029
Klima 4028
Serie 4028
berechtigt 4028
ober@@ 4028
zuständigen 4026
ativ 4025
Stand@@ 4024
Architektur 4023
besitzen 4021
serviert 4021
weist 4021
verstanden 4020
öffnen 4019
stat@@ 4018
verursacht 4014
Anlage 4013
gehend 4013
täts@@ 4013
Kind 4012
Kooperation 4011
Zentralbank 4010
digung 4009
Massen@@ 4007
Beweis 4006
sinnvoll 4006
ausgezeichnete 4005
dungs@@ 4004
oni@@ 4004
schicken 4002
ände 4002
Ra@@ 4000
sub@@ 4000
zulassen 4000
EL 3999
Such@@ 3999
Vereinbarungen 3999
komme 3999
dre@@ 3995
hör@@ 3995
Stadtzentrum 3994
gli@@ 3994
² 3993
notwendige 3989
behalten 3988
eröffnet 3988
plat@@ 3986
Gleichgewicht 3984
verein@@ 3984
installiert 3983
verringern 3983
Angst 3982
Indi@@ 3982
denk@@ 3982
Prinzipien 3981
Materialien 3980
Minderheiten 3980
Vo@@ 3979
stellten 3979
willkommen 3978
zeu@@ 3977
tigte 3976
vieler 3976
Straßen@@ 3975
Kam@@ 3973
Plenum 3970
zuerst 3969
Sicher@@ 3968
LE@@ 3967
Regierungskonferenz 3967
dritte 3964
Problems 3963
dra@@ 3963
Kunde 3962
Freiheiten 3961
Weiter@@ 3960
del@@ 3960
dokum@@ 3959
sich@@ 3958
vorgenommen 3958
klaren 3957
echten 3956
na 3956
erei 3953
DVD 3952
eigenes 3951
vollständige 3950
lat@@ 3949
fes@@ 3948
Ausnahme 3946
gre@@ 3946
eten 3944
Einbeziehung 3943
nor@@ 3943
straße 3943
Faktoren 3942
weiten 3942
höher 3941
2. 3940
hervorragende 3940
ausgesetzt 3938
fizierung 3938
Kann 3937
fun@@ 3937
pe@@ 3937
schlägt 3937
Details 3934
erlauben 3934
ET@@ 3933
Reform@@ 3931
Sil@@ 3931
zy@@ 3931
ffen 3929
Verkauf 3926
Gästen 3925
ss 3925
Charta 3924
Netz@@ 3923
Wor@@ 3922
spor@@ 3919
richtlinie 3918
entwurf 3915
zt 3913
az@@ 3911
Partnern 3910
beträgt 3910
russischen 3907
kostet 3906
Projekten 3905
Ziffer 3905
zuge@@ 3905
Verteidigung 3904
ruhigen 3903
reich 3900
0.@@ 3899
Gro@@ 3899
zeug@@ 3899
hinter@@ 3898
schrift 3897
messen 3896
trag 3895
Verbot 3894
pen@@ 3894
zunehmen 3894
Boden 3891
ven@@ 3890
ausschuß 3889
Straf@@ 3888
karten 3888
zahl 3887
gener 3885
Raum@@ 3884
Austausch 3883
Maß 3883
bri@@ 3883
Drogen@@ 3881
Forum 3880
ini 3880
schnelle 3878
einfachen 3877
pfen 3877
Politiken 3876
Gesellschaften 3874
har@@ 3874
letztlich 3874
Institution 3873
früheren 3873
,00 3872
sische 3869
6.@@ 3868
Arbeitsmarkt 3868
zugänglich 3868
Fähigkeiten 3867
derung 3865
Brenn@@ 3864
Immobilien@@ 3864
Sorgen 3864
Küste 3863
alter 3860
sichere 3860
Vis@@ 3859
systemen 3859
Programmen 3858
Ob@@ 3857
beschränkt 3857
öffentlich 3854
gesetz@@ 3853
Dem 3851
teilt 3851
weisung 3851
our 3850
Nutz@@ 3849
Zentral@@ 3849
Abschnitt 3848
RA@@ 3847
Kommunikations@@ 3845
Quali@@ 3845
Einwanderung 3844
Vorschlags 3843
erhältlich 3843
rit@@ 3843
neuesten 3841
Beratung 3840
anische 3840
bestätigen 3839
bek@@ 3837
greif@@ 3837
buchen 3835
objek@@ 3835
kul@@ 3833
Mikro@@ 3832
erweitert 3832
etzen 3830
las@@ 3830
vertrag 3830
Wander@@ 3827
durchführen 3827
Gespräche 3826
Handeln 3824
Verbindungen 3824
ak 3823
bild 3823
11. 3822
täten 3821
Bre@@ 3819
begrüßt 3819
verleihen 3819
Spar@@ 3817
Werk 3817
98 3815
ker@@ 3815
stände 3815
Alternative 3814
Fernseh@@ 3814
Konsens 3814
rechtliche 3814
Fl@@ 3813
ig 3812
tau@@ 3809
vorlegen 3809
Winter@@ 3808
geprüft 3807
unmöglich 3806
Element 3804
Kamera 3804
preis@@ 3802
gespielt 3801
Schwerpunkt 3800
ó@@ 3799
dir 3798
verhindert 3797
ester 3796
Vol@@ 3795
licht 3795
Kopf 3794
höchsten 3793
iten 3793
tens 3793
teren 3792
atischen 3790
ausgesprochen 3790
Go@@ 3788
Pu@@ 3787
Le 3786
PL 3786
maschinen 3786
mö@@ 3786
gezwungen 3785
Gerichtshof 3780
Tisch 3779
ju@@ 3779
nahm 3779
organisiert 3779
wachsen 3779
Eurozone 3778
entdecken 3777
Marktes 3774
dige 3774
Beziehung 3772
Link 3772
Mc@@ 3772
not 3771
betrieb@@ 3768
Umgang 3767
organisationen 3767
entstanden 3766
schön 3765
jährigen 3764
fo@@ 3763
geltenden 3763
gerichtet 3763
wach@@ 3763
Zielen 3762
ff 3762
scheinen 3762
Bemerkungen 3761
Mobilität 3759
billi@@ 3759
chtung 3759
Wird 3758
starten 3756
Ausführung 3753
aller@@ 3753
sodass 3753
scht 3752
Halb@@ 3750
zig 3750
erleichtern 3748
vorschriften 3746
01 3744
Norden 3744
ferner 3743
gehende 3743
wie@@ 3743
blo@@ 3741
Bucht 3739
Nachrichten 3738
we 3737
solange 3736
Vorgehen 3735
Asien 3733
EC@@ 3733
OR@@ 3733
produziert 3732
ther@@ 3732
tlicher 3730
Gebrauch 3729
Netz 3728
Pat@@ 3728
Wohl@@ 3728
kurze 3727
aufnehmen 3725
bemühen 3725
einheitlichen 3725
ken@@ 3725
passiert 3725
aktiven 3724
hinzufügen 3724
Ã 3724
jenen 3723
oll@@ 3722
ulation 3722
Anbieter 3721
Beiträge 3721
kop@@ 3721
bezahlen 3719
zahl@@ 3718
Sh@@ 3717
definiert 3717
fehlt 3717
Chancen 3716
wen@@ 3716
Hal@@ 3715
eins 3714
verehrte 3714
sitz 3712
Motor@@ 3711
mitten 3710
tene 3710
Besorgnis 3708
Kosten@@ 3707
that 3706
wasser 3706
wollten 3706
Gestaltung 3703
yp@@ 3703
sa 3702
bekämpfung 3701
entlang 3701
Bedrohung 3700
wann 3700
rein 3697
Ges@@ 3696
Hostels 3696
Sach@@ 3696
fort 3696
wel@@ 3696
ativer 3695
ausgeschlossen 3694
bad 3694
höheren 3694
verschiedener 3694
ga 3693
tal@@ 3693
Tourismus 3692
Eltern 3690
gestellten 3690
Fenster 3689
Maschinen 3689
enzen 3685
gar@@ 3685
übernimmt 3685
extrem 3683
verurteilt 3683
wirk@@ 3683
Wissenschaft 3682
einhei@@ 3682
äußern 3681
Garantie 3680
Signal 3677
prozesses 3675
worfen 3674
gelei@@ 3673
enswert 3672
Websites 3671
page 3671
beziehungen 3670
zäh@@ 3670
ark@@ 3669
legi@@ 3669
Sektoren 3666
breiten 3666
Straßen 3665
sicht@@ 3665
tierte 3665
burg 3664
Kauf@@ 3662
welt@@ 3661
britische 3659
Hohen 3658
Erholung 3657
Wien 3656
programms 3655
1995 3654
ett 3653
nahmen 3652
erhebliche 3650
Gemein@@ 3649
Cas@@ 3648
kenn@@ 3648
musste 3648
onn@@ 3648
Einkommen 3645
Deswegen 3642
ppe 3641
ron@@ 3641
Kop@@ 3640
entscheidende 3640
Hor@@ 3639
Mö@@ 3639
ly 3639
welchem 3639
strategischen 3637
Mas@@ 3636
Schluss 3636
dürfte 3636
einig 3636
glaub@@ 3636
wil@@ 3633
schönsten 3632
CH@@ 3631
werten 3631
Fa@@ 3630
dig 3630
° 3629
Werbung 3628
Wohlstand 3627
bestehende 3627
wo@@ 3627
Geräte 3625
Jedes 3625
eingesch@@ 3625
egt 3624
2011 3622
Sozi@@ 3622
Luft 3621
fördert 3620
gens 3620
geln 3619
Mensch 3618
schem 3618
Optionen 3616
überzeugen 3615
ehen 3614
Identität 3612
Künstler 3611
verstärken 3611
Kräfte 3610
Staat@@ 3610
sern 3610
mt 3608
Gesam@@ 3606
ative 3606
Miss@@ 3605
tin 3605
leben@@ 3603
erneu@@ 3602
Also 3601
Dort 3601
Untersuchungen 3601
29 3599
Dom@@ 3599
Gal@@ 3598
asi@@ 3598
aussprechen 3598
schau@@ 3598
ada 3596
tter 3595
Fol@@ 3594
Komponenten 3593
beruht 3593
Kontrollen 3592
Video@@ 3592
direkten 3589
heutige 3589
™ 3589
Schlussfolgerungen 3588
präsentiert 3587
station 3587
Ausgangspunkt 3586
Zusatz@@ 3586
ite 3586
komple@@ 3586
gewal@@ 3585
stischen 3585
aktivieren 3583
treiben 3583
400 3582
Fort@@ 3579
zusammenarbeiten 3579
ach 3576
zun@@ 3576
gewährt 3575
Pf@@ 3574
SP@@ 3574
za 3573
entlich 3572
Beschluss 3571
erinnert 3571
nunmehr 3571
AKP 3570
oten 3570
Insbesondere 3569
decken 3567
kanischen 3567
verändern 3566
Klasse 3565
Verbreitung 3564
Vorsitz 3564
abgestimmt 3564
kurzen 3564
Umfeld 3563
anlage 3563
sorgfältig 3562
City 3561
les@@ 3561
Bereitstellung 3560
Planung 3560
handel 3559
ic 3557
Fe@@ 3556
tur 3556
verdient 3556
bestimmen 3555
Des 3551
jegliche 3551
stieg 3549
Führ@@ 3547
Hu@@ 3546
pr@@ 3546
chter 3545
übrigens 3544
EZB 3540
Sü@@ 3539
ausgeführt 3539
Geheim@@ 3538
maschine 3538
position 3538
qui@@ 3538
Erzeugnisse 3536
beigetragen 3536
tief@@ 3536
klein@@ 3534
out 3533
Poli@@ 3532
effektiv 3532
entscheidender 3532
laut 3530
nungs@@ 3530
schlecht 3529
unde 3528
reduzieren 3527
reiche 3526
Aktion 3525
zeugen 3525
mus 3524
deckt 3523
hier@@ 3523
jener 3523
Plattform 3521
Rechtsgrundlage 3521
Vorstellung 3521
Förder@@ 3518
Medi@@ 3518
ecken 3514
Col@@ 3512
Golf 3512
Veranstaltung 3510
Krankheit 3509
gehenden 3509
stands 3508
wiederholen 3508
nahezu 3507
är 3507
Start 3505
Übersetzung 3505
Veröffentlichung 3504
geleitet 3504
Staates 3503
standen 3503
verantwortungs@@ 3502
dy 3501
vorher 3500
Kapitel 3499
Selbst 3499
bestimmter 3499
De 3497
Multi@@ 3496
wahlen 3496
Hü@@ 3494
derer 3494
bemerk@@ 3493
spann@@ 3493
Katastrophe 3492
lands 3491
Geschäfte 3490
uri@@ 3489
druck 3487
gn@@ 3487
150 3486
gebiete 3486
25@@ 3485
plan 3485
beschäftigen 3484
finanziert 3484
El 3482
gener@@ 3482
größer 3482
dor@@ 3481
Alter 3480
wär@@ 3480
Transport@@ 3479
kamen 3477
ara 3476
außerordentlich 3475
betreffend 3474
sierte 3474
Autom@@ 3473
mut@@ 3473
Bemerkung 3472
ik@@ 3472
ähr@@ 3472
Tex@@ 3471
DA@@ 3470
Reg@@ 3468
Wal@@ 3467
staat 3467
Männern 3465
bal@@ 3465
Einstellungen 3464
Zivilgesellschaft 3464
Morgen 3463
eingereicht 3463
Noch 3461
Winter 3461
gaben 3461
reifen 3460
Beschlüsse 3459
Vision 3459
offen@@ 3459
Ausstellung 3458
Glaubwürdigkeit 3455
Mangel 3455
interessante 3455
sichtlich 3455
stil@@ 3455
ku@@ 3454
betrieben 3453
Ambiente 3452
opp@@ 3452
turen 3452
verhalten 3452
DI@@ 3451
lösung 3451
versorgung 3451
Del@@ 3450
Gründung 3450
th 3450
Studien 3449
Mü@@ 3445
sprach 3445
Ster@@ 3444
Ac@@ 3443
eckt 3443
vorhandenen 3443
Bru@@ 3442
Zwecke 3442
sierten 3442
theit 3442
lokale 3441
ungefähr 3441
kla@@ 3438
alo@@ 3437
faßt 3436
99 3434
Ei@@ 3433
füllen 3430
Ausgabe 3429
elte 3429
this 3429
2,@@ 3428
liefert 3428
min 3428
Bes@@ 3426
beteiligen 3424
gestaltet 3424
Asyl@@ 3423
Wirtschaftswachstum 3423
entsteht 3423
Entscheidungs@@ 3422
Englisch 3421
züge 3421
fil@@ 3418
machte 3417
unverzüglich 3417
Ansichten 3416
eignet 3416
oh@@ 3416
umgeben 3416
Selbstverständlich 3415
kürz@@ 3415
Costa 3414
ID 3414
direkte 3414
erst@@ 3414
Bestellung 3413
fen@@ 3413
Dorf 3412
Wein 3412
äm@@ 3412
zone 3411
š@@ 3411
anbelangt 3410
Farbe 3409
hän@@ 3409
The@@ 3408
Wachstums@@ 3408
klar@@ 3406
Konsequenzen 3404
Studenten 3404
läßt 3404
verkaufen 3404
gespeichert 3403
je@@ 3403
investieren 3402
Bahn@@ 3401
Lie@@ 3401
trau@@ 3401
mor@@ 3400
Bas@@ 3399
Flüchtlinge 3399
lebt 3399
kri@@ 3398
3. 3396
Datenschutz@@ 3395
Ki@@ 3395
Kontext 3395
halb 3395
Korruption 3393
ba 3393
beraten 3392
leb@@ 3392
soli@@ 3392
sicheren 3390
Hafen 3388
dro@@ 3388
holen 3388
mächti@@ 3388
Tal@@ 3387
aff@@ 3387
yer 3387
zeichn@@ 3387
anwesend 3385
einzigartige 3385
sozialer 3385
weite 3385
genannte 3383
Bus 3382
Sollte 3381
einrichtungen 3381
Ausstattung 3380
begrenzt 3380
gebieten 3378
installieren 3378
Völker@@ 3377
Zwei 3376
Dec@@ 3375
erlebt 3375
Brasilien 3374
Auto@@ 3373
Gerichte 3373
stück 3373
95 3371
Hinter@@ 3371
gesellschaften 3370
irgend@@ 3370
atik 3369
eingehalten 3369
führten 3369
genügend 3369
vorbereitet 3369
Transport 3368
lan 3368
Badezimmer 3367
bislang 3367
d.h. 3367
ersetzt 3366
Reduzierung 3365
voraus@@ 3364
fan@@ 3363
französische 3363
jün@@ 3363
niveau 3363
ON@@ 3362
eck 3362
fällig 3361
modell 3361
PT 3360
schauen 3360
zieren 3359
Haftung 3358
Pen@@ 3356
Zwischen@@ 3355
grundsätzlich 3355
zahlung 3355
herrscht 3353
Überlegungen 3353
Stimmen 3352
verkehrs 3352
Gewicht 3348
Kommissions@@ 3348
Log@@ 3348
einbezogen 3347
sper@@ 3347
Kollegin 3345
WLAN 3345
ill@@ 3344
Ungarn 3343
erfolgreiche 3343
selbst@@ 3342
ktionen 3341
linie 3341
Nachricht 3340
lauf 3340
gl@@ 3339
ya 3339
Spa 3338
vorstellen 3338
Stück 3337
tag 3337
Browser 3335
drücken 3335
ese 3335
hängen 3335
wiederholt 3335
zieh@@ 3334
angebracht 3333
Foto 3332
bereitet 3332
Sitz@@ 3331
oper@@ 3331
bewähr@@ 3330
tö@@ 3329
solches 3328
Schlafzimmer 3327
Alles 3326
einfacher 3326
Besonders 3325
raten 3325
Jede 3323
gei@@ 3323
bus 3322
Gewährleistung 3321
Finanzierungs@@ 3320
langfristige 3320
kal@@ 3319
kehr@@ 3319
ließ 3317
offiziellen 3317
rati@@ 3317
Rat@@ 3315
Bahn 3314
Ca@@ 3313
Polizei 3313
aden 3313
wir@@ 3312
0.000 3311
Lang@@ 3311
gewissen 3310
lag@@ 3310
Positionen 3309
wissenschaftliche 3307
park 3306
verteidigen 3306
künftige 3305
Schulen 3304
bank 3304
Ren@@ 3303
Bewer@@ 3302
Gefahren 3302
mittleren 3302
wirtschafts@@ 3302
IM@@ 3301
7.@@ 3300
Auge 3300
Finanzkrise 3300
Rich@@ 3300
spä@@ 3300
ve@@ 3300
via 3300
2013 3299
Pro 3299
schlag 3299
menschliche 3298
ski 3298
itäts@@ 3297
Dek@@ 3296
Kurz@@ 3296
Rest 3296
angegebenen 3296
bereitgestellt 3296
33 3295
Ab 3294
Bulgarien 3294
punk@@ 3294
Schw@@ 3293
lin 3293
SI@@ 3292
Dienstleistungs@@ 3290
Politik@@ 3290
benden 3290
Einheit 3289
Pakete 3289
enthalt 3288
ling 3288
tag@@ 3288
Vorhaben 3286
arbeits@@ 3286
cu@@ 3286
stal@@ 3286
teste 3286
Praktiken 3285
vorsch@@ 3285
plätze 3283
eth@@ 3279
organisieren 3278
Demon@@ 3276
Pool 3276
Trau@@ 3276
gemeinschaftlichen 3276
iel@@ 3275
präsentieren 3274
Rot@@ 3273
innovative 3273
verbringen 3273
Gegenstand 3271
zo@@ 3271
Sor@@ 3270
kräfte 3270
Entlastung 3269
stellungs@@ 3269
heben 3267
97 3264
indi@@ 3264
institutionelle 3264
the@@ 3263
Buchung 3261
technik 3261
Enterprise 3259
internen 3258
Fern@@ 3257
Versionen 3257
konfrontiert 3256
schä@@ 3255
schö@@ 3255
wirtschaftlich 3255
Verb@@ 3254
tiere 3253
vorzulegen 3252
rt 3251
Darum 3250
lik@@ 3250
Webseiten 3248
letztendlich 3248
waffen 3248
..... 3247
Übergangs@@ 3246
Sicherung 3245
prü@@ 3245
Gerechtigkeit 3244
schla@@ 3244
Tr@@ 3243
sat@@ 3239
sis 3239
una 3239
Eisenbahn@@ 3238
Gegend 3238
uni@@ 3238
Energien 3237
Erstellung 3236
Tu@@ 3236
Wünsche 3234
reise 3234
Rel@@ 3233
Stimm@@ 3233
star@@ 3233
vari@@ 3233
18. 3232
nü@@ 3232
views 3232
Prozesses 3231
Systemen 3231
großem 3231
Anschluss 3230
Regierungschefs 3230
leistung 3230
Sommer@@ 3229
Mitarbeitern 3228
Mod@@ 3227
bereichen 3227
ot 3227
verkauft 3227
Verletzung 3226
Fü@@ 3225
effizient 3224
optim@@ 3224
Dan@@ 3223
illegalen 3223
34 3222
ath@@ 3222
Anstieg 3221
Fo@@ 3221
Kurs 3221
einzusetzen 3221
erfolgreichen 3221
stolz 3221
Dusche 3220
buch@@ 3220
elektronischen 3220
leistungen 3220
probleme 3220
Kilometer 3218
behaupten 3216
con 3215
militärischen 3215
ütz@@ 3215
aufs 3213
vorgeschlagene 3213
zukünftigen 3213
Wirtschaf@@ 3212
ue 3212
unterstreichen 3212
Krisen@@ 3211
geboren 3211
versichern 3211
Preisen 3209
entschlossen 3205
hervor 3205
unge@@ 3205
kraft@@ 3204
gewonnen 3202
Sollten 3200
fügt 3200
militärische 3200
allzu 3199
freundliche 3199
Zuständigkeit 3198
individuellen 3198
Ste@@ 3196
wettbewerbs@@ 3196
Ausmaß 3195
weitgehend 3195
dende 3194
Ware 3193
etc 3192
vorher@@ 3191
ähnliche 3191
Organe 3190
München 3189
bedeutende 3189
gänge 3189
wohnen 3189
Emp@@ 3187
schwer@@ 3187
enheit 3186
Medien@@ 3185
aum 3185
individuelle 3185
Bor@@ 3183
Red 3182
zuständig 3181
Ablehnung 3179
Aufsichts@@ 3178
abstimmen 3178
Ara@@ 3177
Nachbarn 3177
Schlüssel 3177
mangel@@ 3176
Firmen@@ 3175
Kauf 3175
kt@@ 3175
50@@ 3174
Waren@@ 3174
bs@@ 3174
wirksame 3174
isen 3173
Freizügigkeit 3172
ks@@ 3172
Station 3171
überprüft 3171
will@@ 3170
verst@@ 3169
feh@@ 3166
verkehrs@@ 3166
Lebensmittel 3165
ziel@@ 3165
situation 3164
steuern 3164
Abschaffung 3163
Bl@@ 3163
Neue 3162
vorgesehenen 3162
strategische 3161
Stoffe 3160
früh@@ 3160
Widerspruch 3159
informationen 3159
spreche 3158
dich 3155
Erfüllung 3154
drei@@ 3154
ka@@ 3154
Perspektive 3153
werken 3153
Casino 3151
Mut 3150
geboten 3150
ha 3150
vorschlag 3150
kun@@ 3149
sprach@@ 3149
material 3148
verbinden 3148
Dauer 3147
sprech@@ 3147
u.a. 3147
unterzeichnet 3147
Verlust 3146
deut@@ 3146
laufenden 3146
derte 3145
Kroatien 3143
Binnenmarktes 3142
stimm@@ 3142
Deutschen 3141
akt 3141
beschrieben 3141
PS 3140
effek@@ 3140
Star 3138
gangs 3138
pen 3138
96 3137
Wirk@@ 3133
Rob@@ 3132
Anlass 3131
Player 3129
gek@@ 3129
freut 3128
31 3127
ass 3126
vorge@@ 3126
Haushaltsplan 3124
lle 3124
wechsel 3124
Benutz@@ 3123
Städten 3123
ständi@@ 3123
weilen 3123
MO@@ 3122
Sonne 3122
ausgerichtet 3122
ink@@ 3122
arischen 3121
manche 3121
dramati@@ 3120
Mrd. 3119
Prozesse 3119
betreiben 3119
Oder 3118
sicherung 3118
Aktionsplan 3117
Nah@@ 3117
ähnlich 3117
Trotzdem 3116
hof 3116
wert@@ 3114
geräte 3113
30@@ 3112
Wald@@ 3112
Betrag 3110
Freunden 3109
Je 3108
ee 3108
dischen 3107
Objek@@ 3106
ersetzen 3106
trieben 3106
Belgien 3105
Denk@@ 3105
Gleichstellung 3105
Verk@@ 3105
mischen 3105
beantworten 3104
chern 3104
36 3103
wohl@@ 3102
Situationen 3101
gestattet 3101
gesetzten 3100
mern 3100
rel@@ 3100
angesehen 3099
MP@@ 3098
Pri@@ 3098
Rund@@ 3097
hau@@ 3097
ausgegeben 3094
inklusive 3094
unk@@ 3094
verfügbaren 3092
änden 3092
Gericht 3091
Handels 3091
kräf@@ 3091
terin 3091
Volkes 3090
Beh@@ 3089
Staatsan@@ 3089
Volksgesundheit 3088
Vorausschau 3088
funktion@@ 3088
Grand 3087
eres 3087
Grünen 3086
Sam@@ 3086
ll 3086
Tätigkeiten 3085
assi@@ 3085
Prin@@ 3084
Viertel 3084
grenze 3083
Befugnisse 3082
spartner 3082
unabhängigen 3082
Genehmigung 3080
bra@@ 3079
ry 3078
Märkten 3077
Pläne 3076
tischer 3076
Marke 3075
bur@@ 3075
konzentriert 3075
Lö@@ 3074
maß@@ 3073
á 3073
Sta@@ 3072
enger 3072
integriert 3070
Rom 3069
ologischen 3069
perfekt 3068
Konflikte 3067
Grad 3065
anschließen 3065
betra@@ 3063
vieles 3063
Fil@@ 3062
erkennt 3062
erzeugt 3062
Redner 3061
ates 3061
entwickelte 3060
Group 3059
Gri@@ 3058
Studio 3058
Gest@@ 3057
Software@@ 3057
dacht 3057
zukünftige 3057
amm@@ 3055
digt 3055
projekte 3055
Identi@@ 3054
gerät 3054
politisches 3054
Bed@@ 3052
UR@@ 3052
auftreten 3051
ernsthaft 3051
Eigentum 3050
hö@@ 3050
48 3049
Amt 3049
Arbeit@@ 3047
Kontakte 3047
kat@@ 3047
ki 3046
Meines 3045
beobachten 3045
langfristig 3045
line 3045
traditionelle 3045
dienstleistungen 3044
mess@@ 3044
bs 3043
hervorgehoben 3043
jährige 3043
sü@@ 3042
vermitteln 3042
setz@@ 3039
Pas@@ 3038
LA@@ 3037
Kriegs@@ 3036
reduziert 3036
Hil@@ 3035
Kontakt@@ 3035
My@@ 3035
bes 3035
ös@@ 3035
Mus@@ 3034
schung 3034
Kulturen 3033
Zy@@ 3033
verteilt 3033
EADS 3032
festzulegen 3032
offene 3032
Post 3030
ah 3030
Zivil@@ 3029
Werke 3028
mussten 3028
problem 3028
rus@@ 3027
Wo 3026
http 3026
code 3024
heim@@ 3024
mitteilen 3024
tier@@ 3024
bekannte 3023
ley 3023
punkte 3023
Distribution 3022
Ter@@ 3022
Zusätzlich 3022
gründen 3022
mach@@ 3022
Far@@ 3021
tage 3021
fähigen 3020
mung 3020
krise 3019
pool 3019
Bro@@ 3018
gkeits@@ 3018
ungsverfahren 3018
Tit@@ 3017
Sauna 3016
stor@@ 3016
verdienen 3016
ag 3015
Konto 3013
Frei@@ 3012
Schiff@@ 3011
ahn@@ 3011
wonach 3011
Schiffe 3010
mitglieder 3010
Open 3009
Rechtsstaatlichkeit 3009
hab@@ 3009
gerufen 3008
gewis@@ 3008
gewähren 3008
grenzen 3007
com 3006
humanitäre 3006
sichts@@ 3006
jetzigen 3005
Barroso 3004
kompet@@ 3004
xi@@ 3004
zeichnen 3004
geraten 3003
los@@ 3003
nachdrücklich 3003
Eis@@ 3002
Gerade 3002
Prof@@ 3002
Rechten 3002
Stein@@ 3001
Veränderung 3001
Berich@@ 3000
richtet 2997
5. 2995
Wohnung 2995
fahrer 2995
selben 2995
Schwer@@ 2994
dankbar 2994
vorliegende 2994
ausdrück@@ 2993
entsch@@ 2993
Manager 2992
a. 2992
struktur 2992
Fischer 2991
ISO 2991
Termin@@ 2990
alisierten 2990
bisherigen 2990
SA@@ 2989
gedacht 2988
Berichten 2987
ökonomischen 2987
Char@@ 2986
ON 2986
gebeten 2986
MA@@ 2984
Tour 2984
Vorlage 2984
ange 2984
15. 2983
effiziente 2983
hoffentlich 2983
Währungsunion 2982
einheitliche 2982
Modelle 2981
fassung 2981
steigt 2981
wachsenden 2981
deswegen 2979
gebildet 2978
sten@@ 2978
unabhängige 2978
wege 2978
behoben 2977
kette 2977
Herz@@ 2976
kontrolle 2976
Menü 2975
ausgaben 2972
Öl 2972
Net@@ 2971
erreichbar 2971
fli@@ 2970
wahren 2970
Besonder@@ 2969
gelassen 2969
rieren 2969
Respekt 2968
beschränken 2968
schu@@ 2968
Kriminalität 2967
teilung 2967
160 2966
langsam 2966
37 2964
Strom@@ 2964
enth@@ 2964
how 2964
ti 2964
Abhängigkeit 2963
Bio@@ 2963
einzuführen 2963
märkte 2963
überein 2963
Balkon 2962
Gemeinsame 2962
Investitions@@ 2962
Wil@@ 2962
4. 2961
IL@@ 2961
absch@@ 2961
gemeinschaft 2961
unterscheiden 2961
ursprünglich 2961
ID@@ 2960
enzi@@ 2960
inform@@ 2960
Nachbar@@ 2959
gungen 2959
vertrau@@ 2959
Bush 2958
Wechsel@@ 2958
chn@@ 2958
diskrimin@@ 2958
PHP 2957
Rent@@ 2957
ents 2957
Roh@@ 2956
Beteiligten 2955
Lieferung 2951
Würde 2951
chtet 2951
schnell@@ 2951
Branche 2950
gangen 2950
üb@@ 2950
vollständigen 2949
Blog 2948
MS 2948
übersch@@ 2947
Film@@ 2946
gelingt 2945
prakti@@ 2945
Ganz 2942
buch 2942
but 2942
Bereitschaft 2941
itä@@ 2941
Ferien@@ 2940
praktische 2940
organ@@ 2939
Übernachtung 2939
Glück 2938
Ph@@ 2938
Schwei@@ 2937
beendet 2937
umsetzen 2937
ücken 2937
.... 2936
terung 2936
time 2936
festgelegten 2935
gendes 2935
Rückkehr 2934
greift 2934
zugrunde 2934
Mittelmeer 2933
aut 2933
liefer@@ 2932
Band 2931
Dor@@ 2931
gerich@@ 2931
klin@@ 2931
erfordern 2929
Fahrzeuge 2928
Neben@@ 2928
enthaltenen 2928
AG@@ 2927
Gang 2927
Prüf@@ 2927
Runde 2927
einsch@@ 2927
erfreut 2927
ergibt 2927
Weiteren 2926
Armee 2925
fertig 2925
Jahrzehnten 2923
komp@@ 2922
kontrollieren 2922
Essen 2921
Allianz 2920
Messe 2920
täglichen 2920
nde 2919
angeb@@ 2918
konferenz 2918
gefallen 2917
US@@ 2916
Rech@@ 2915
modified 2914
fal@@ 2912
lieber 2912
SE@@ 2911
breit@@ 2911
geäußert 2911
Vertrages 2910
bit@@ 2910
bre@@ 2910
nachzu@@ 2910
zentren 2910
ement 2909
roman@@ 2909
...... 2908
Test 2908
Forsch@@ 2907
mäß@@ 2907
Verteilung 2906
Feld 2905
Offen@@ 2905
Tel@@ 2905
Ursachen 2904
nütz@@ 2904
Ebenen 2903
IWF 2903
ang@@ 2903
angebot 2901
ations 2901
steller 2901
erwähnen 2900
angepasst 2899
Führer 2898
hierbei 2898
ech@@ 2897
fr@@ 2897
Mak@@ 2896
dienst@@ 2895
stens 2894
Schulden 2893
Vorsch@@ 2893
mil@@ 2893
ennen 2891
ktions@@ 2891
richtung 2891
strukturi@@ 2891
Miß@@ 2890
deck@@ 2890
Gerichts@@ 2889
Kanada 2889
gste 2889
rahmen 2887
Programm@@ 2886
ater 2886
.000 2885
Recht@@ 2885
adi@@ 2884
bestimmungen 2883
Öffnung 2883
gestärkt 2882
08 2881
angegeben 2881
rates 2881
3D 2880
Ap@@ 2880
besorgt 2880
att@@ 2879
plan@@ 2879
sierungs@@ 2879
unterliegen 2879
Hol@@ 2878
interessant 2878
Arbeitsplatz 2877
enorme 2877
ständen 2877
bekann@@ 2876
65 2875
bares 2875
Agenturen 2874
austausch 2874
ett@@ 2874
1994 2873
Support 2873
sah 2873
can 2872
Berichterstatters 2871
Erforder@@ 2871
Nummer 2871
Donnerstag 2870
stärkere 2870
überaus 2869
bewältigen 2868
eingegangen 2868
zurückzuführen 2868
externen 2867
gert 2867
Vereinfachung 2866
Vertre@@ 2866
ast 2866
lte 2866
Kontinent 2865
Zahlungen 2865
Dafür 2863
Sein 2863
Stat@@ 2863
gol@@ 2862
erkannt 2861
vereinbart 2861
Faktor 2860
verbindet 2860
verfol@@ 2860
Mac@@ 2859
verwende 2859
09 2858
17. 2858
Konzer@@ 2858
Videos 2858
Wählen 2858
antworten 2858
äden 2858
merk@@ 2857
Debatten 2855
Know 2855
fuhr 2855
Dritten 2854
Revolution 2854
gegenwärtige 2854
Personal@@ 2853
türkischen 2853
überwinden 2853
Nahrungsmittel@@ 2852
besonderer 2851
Parlamente 2850
Deutsche 2849
Investoren 2849
Wandel 2849
alt@@ 2849
senken 2849
Tausende 2848
vorschläge 2848
Beseitigung 2847
ME@@ 2847
64 2846
Vater 2846
einzigartigen 2846
version 2846
Golf@@ 2845
.00 2844
Gerät 2844
regi@@ 2844
were 2844
Live 2841
gelegte 2841
ließen 2841
Back@@ 2840
ichten 2840
umzu@@ 2840
zuzu@@ 2840
Sind 2839
hel@@ 2837
Besu@@ 2836
Opposition 2836
legte 2835
Wirtschaftskrise 2834
griechischen 2834
pol@@ 2834
Spaß 2833
steten 2833
Frankfurt 2832
fähi@@ 2832
kli@@ 2832
nutz@@ 2831
Amerikaner 2830
Gelder 2830
Kli@@ 2830
anhand 2830
geschichte 2830
lus@@ 2829
studi@@ 2829
Hier@@ 2828
klu@@ 2828
sogenannten 2827
geschäf@@ 2826
passen 2826
dem@@ 2825
Der@@ 2824
Verarbeitung 2824
ack 2824
sichtbar 2824
Kapital 2821
etes 2820
optimale 2820
Bat@@ 2819
Erinnerung 2818
stä@@ 2818
herunterladen 2817
umfassend 2816
AB@@ 2815
Belarus 2814
Straßburg 2814
bedanken 2813
methoden 2813
ona 2813
Cal@@ 2810
fügen 2810
ologische 2810
Körper@@ 2809
Sand@@ 2809
freundlich 2809
kern 2809
Schön@@ 2808
rung 2808
Mach@@ 2807
Tages 2806
sparen 2806
Gre@@ 2804
letzter 2804
mobili@@ 2804
aktiviert 2802
würdig 2802
Uni@@ 2801
We@@ 2801
lieren 2801
speichern 2801
Erhaltung 2800
Wa@@ 2800
Geschäft 2799
Mechanismen 2798
schweren 2798
cia 2796
Potenzial 2795
Wesentlichen 2795
hohem 2795
langfristigen 2794
Kab@@ 2793
Steuerung 2793
dauert 2793
verboten 2793
Pak@@ 2792
bergen 2792
beru@@ 2792
hervorragenden 2792
Einwohner 2791
PPE 2791
Umweltschutz 2791
läu@@ 2791
negativen 2791
Marketing 2790
Regel@@ 2790
normalen 2790
umfangreiche 2790
sol@@ 2789
Sachen 2788
Senkung 2788
Pakistan 2786
Zypern 2786
kleines 2786
Großteil 2785
Sicherheitspolitik 2784
alisiert 2784
Parlament@@ 2783
Wind@@ 2783
Standort 2782
auffordern 2782
pat@@ 2781
Zusammenhalt 2780
gefragt 2780
Boden@@ 2779
hingegen 2779
55 2778
Andere 2778
38 2777
Mutter@@ 2777
Touristen 2777
Werbe@@ 2777
angemessenen 2777
stete 2777
Bil@@ 2776
Kr@@ 2776
Sc@@ 2776
derzeitige 2776
sichergestellt 2776
brachte 2775
natürliche 2775
Fran@@ 2774
Wissen@@ 2774
normalerweise 2774
zwingen 2774
Madrid 2773
port@@ 2773
Wähler 2772
dische 2772
beenden 2770
wunderschönen 2770
Get@@ 2768
Heizung 2768
geprägt 2768
wechsel@@ 2768
inmitten 2767
uss@@ 2767
angewendet 2766
verweisen 2766
verwaltung 2765
zent@@ 2765
zeug 2765
eig@@ 2764
system@@ 2764
lenken 2763
anschließend 2762
geeignete 2762
untersucht 2762
07 2761
Handlungs@@ 2761
letz@@ 2761
Nich@@ 2760
alisieren 2760
egal 2760
Dialogs 2758
Kopenhagen 2758
trei@@ 2758
A5 2757
Mandat 2757
erstmals 2757
kontaktieren 2756
Bars 2755
Jugend 2755
finanzieren 2755
Generationen 2754
Kampagne 2754
zweitens 2754
Staats- 2753
ado 2753
bekommt 2753
irischen 2753
kanische 2753
unentgeltlich 2753
Suiten 2752
empfangen 2752
ländliche 2752
Pop@@ 2751
ichte 2751
avi@@ 2750
nungen 2750
Frist 2749
Gehminuten 2749
tief 2749
Park@@ 2748
tei@@ 2748
Lizenz 2747
heit@@ 2747
entgegen 2746
minister 2746
entspannen 2745
etzung 2745
füll@@ 2745
leichter 2744
Regulierung 2743
individuell 2743
stattfindet 2743
Kandidaten 2742
42 2741
leh@@ 2741
nützlich 2741
Kno@@ 2740
froh 2740
Ausflüge 2739
Zeitung 2739
herr@@ 2739
reg@@ 2739
ums@@ 2739
Niederlanden 2738
realer 2738
Waffen@@ 2737
produzieren 2737
Quellen 2736
fang 2736
techn@@ 2736
have 2735
ktion@@ 2734
Internationale 2731
Leitung 2731
heißen 2731
ick 2730
Presse@@ 2729
utz@@ 2729
si 2727
Freitag 2726
Umweltfragen 2726
erhielt 2726
korrekt 2726
Tan@@ 2725
hochwertige 2725
tar@@ 2725
Hau@@ 2724
existiert 2724
Cam@@ 2723
Todesstrafe 2723
600 2722
gestaltung 2722
konkret 2722
posi@@ 2722
16. 2721
Dokumenten 2720
Marken 2720
Papier 2719
Verantwor@@ 2718
sach@@ 2718
stör@@ 2718
Fehler@@ 2717
fikation 2717
äh@@ 2715
Quelle 2714
berichten 2714
effektive 2714
High@@ 2713
luss 2713
Les@@ 2712
Stärke 2712
bereiten 2712
kti@@ 2712
denjenigen 2711
fanden 2711
geplant 2711
sischer 2711
Liber@@ 2710
big 2710
lösungen 2709
rin@@ 2708
Parlaments@@ 2707
Andererseits 2706
Datei@@ 2706
gemä@@ 2706
nehmer 2705
Volkswirtschaften 2704
weis@@ 2704
Provinz 2703
Urheber@@ 2703
leich@@ 2703
sammeln 2701
gehei@@ 2700
Fru@@ 2699
tte 2699
Bestimmung 2698
rechnen 2698
schnellen 2698
PDF 2697
alem 2697
dargestellt 2697
burger 2696
sektors 2696
unterschiedlich 2696
Mission 2695
linien 2694
Premierminister 2693
diert 2693
identi@@ 2693
Gemeinschaften 2691
Sammlung 2691
Pfer@@ 2690
verfahrens 2690
palästinensischen 2689
Presse 2688
kar@@ 2687
rolle 2687
24@@ 2686
Information@@ 2686
müsste 2686
omm@@ 2685
Hindernisse 2684
fei@@ 2684
Aqu@@ 2683
USB 2683
800 2682
gehör@@ 2682
vornehmen 2682
Büro 2681
Interess@@ 2681
Kohäsionspolitik 2681
Stu@@ 2681
ai@@ 2681
entscheidenden 2681
itäten 2681
Besitz@@ 2680
GAP 2678
dat@@ 2678
ätze 2678
ssig 2677
benen 2676
Tonnen 2675
Dingen 2672
Küsten@@ 2672
Schulden@@ 2672
häuser 2672
tak@@ 2671
Herz 2670
Mechanismus 2670
keinem 2670
Ägypten 2670
Nu@@ 2669
Wirtschaftspolitik 2669
europäisches 2669
mögen 2669
pu@@ 2669
fähige 2668
festen 2667
forschung 2667
ate@@ 2666
tives 2665
fern@@ 2664
Obama 2663
Rou@@ 2663
nation@@ 2663
Lok@@ 2662
ato 2662
untersuchen 2662
Anwendungs@@ 2661
Drittel 2661
ausgezeichnet 2661
eingeb@@ 2661
hung 2661
Todes@@ 2660
bert 2659
müssten 2659
Verlauf 2658
aufgebaut 2658
edi@@ 2658
pe 2658
6. 2656
Willkommen 2656
Mir 2655
radik@@ 2655
selten 2655
Schwellen@@ 2654
humanitären 2653
resul@@ 2653
Versammlung 2652
Vertretern 2652
integrierten 2652
hierfür 2651
schwei@@ 2651
Mexiko 2650
Elektro@@ 2649
Lau@@ 2649
zukommen 2649
ware 2648
Gemeinde 2646
gkeiten 2646
kin@@ 2645
kro@@ 2645
sä@@ 2644
Schengen 2643
überlassen 2643
Außen- 2642
Energieeffizienz 2642
Geschmack 2642
ion 2642
sorge 2642
Newsletter 2641
Passwort 2641
Regi@@ 2641
aner 2641
diesbezüglich 2641
Nachhaltigkeit 2640
Mitglieds@@ 2639
bedeutenden 2639
erweitern 2639
AM@@ 2638
Val@@ 2638
konfigu@@ 2637
SO@@ 2636
Mittelmeer@@ 2635
Santa 2635
sidenten 2635
gleichermaßen 2634
Organis@@ 2633
Geschwindigkeit 2632
erklärte 2632
Wo@@ 2631
Gast 2630
geber 2630
region 2630
gie@@ 2629
stoßen 2629
enge 2628
Mün@@ 2627
Telefon@@ 2627
Urteil 2627
kontrolliert 2627
center 2626
ders 2625
offizielle 2625
Sektors 2624
gut@@ 2624
steigern 2624
wendet 2624
Arbeitnehmern 2623
ica 2622
Refer@@ 2621
Verwirklichung 2621
chinesische 2621
einfach@@ 2621
gefährdet 2621
kei@@ 2621
Augenblick 2620
John 2620
neten 2620
Beide 2619
illegale 2619
post@@ 2619
Maschine 2618
Schweizer 2618
ay 2617
gewünschten 2617
rechtzeitig 2617
festzustellen 2616
Cre@@ 2615
Gold 2615
kam@@ 2615
spiele 2615
Kern 2614
Schon 2614
folge 2614
märkten 2614
Demokraten 2612
Gut@@ 2612
tigungs@@ 2612
wertung 2612
Wir@@ 2610
ella 2610
voraus 2610
Kompetenz 2609
hart 2609
losigkeit 2609
• 2609
binden 2608
bestellen 2607
cken@@ 2607
prozesse 2607
statisti@@ 2607
Umwel@@ 2606
Finde 2605
Pil@@ 2605
Ratschlag 2605
auff@@ 2605
Luxemburg 2604
stern 2604
treff@@ 2604
Macht@@ 2603
Projekts 2603
nei@@ 2603
Polizei@@ 2602
teils 2602
Beachtung 2601
Verbraucherschutz 2600
art@@ 2600
druck@@ 2600
same 2600
EM@@ 2599
Innovationen 2599
Kin@@ 2599
freundlichen 2599
nu@@ 2599
Extre@@ 2598
bezahlt 2598
gefähr@@ 2598
gehandelt 2597
passt 2597
Komm@@ 2596
anzunehmen 2596
Individu@@ 2595
Kranken@@ 2595
qualitativ 2595
weltweite 2595
kontrolli@@ 2594
rechtlich 2594
räum@@ 2594
wür@@ 2594
Eink@@ 2593
Erst 2593
Modernisierung 2593
armen 2593
könnt 2593
wirkliche 2593
és 2593
Errichtung 2592
Fernsehen 2592
gelesen 2592
Blut@@ 2591
grös@@ 2591
schwierige 2591
your 2591
infolge 2590
iti@@ 2590
7. 2589
Ton@@ 2588
Vermittlungs@@ 2588
vorbei 2587
Versorgung 2586
Weg@@ 2586
soeben 2586
verz@@ 2586
Dass 2585
Stiftung 2585
Zone 2585
Akteure 2584
Journalisten 2584
Reisen 2584
ssi@@ 2584
entspann@@ 2583
sichti@@ 2583
¤ 2582
Ergebnissen 2581
Landes@@ 2580
Sur@@ 2580
Res@@ 2579
Verkehr@@ 2579
Gewal@@ 2578
Tei@@ 2578
gungs@@ 2578
Souveränität 2577
angewandt 2577
Computer@@ 2576
regelung 2576
altung 2575
wesentlicher 2575
Parameter 2573
Tari@@ 2573
begleitet 2573
genaue 2573
rali@@ 2573
befasst 2572
erklär@@ 2571
digitalen 2570
mittlerweile 2570
Bon@@ 2568
angen@@ 2568
gehörigen 2568
Glauben 2567
Registrierung 2567
Genießen 2566
Parkplatz 2566
innov@@ 2566
Reservierung 2565
stag@@ 2565
gesetzlichen 2564
leitung 2564
Apartment 2563
Spitzen@@ 2563
Widerstand 2563
ergänzt 2563
zweifel@@ 2563
körper@@ 2562
Mer@@ 2561
iniert 2561
programmen 2561
Wirksamkeit 2560
Lag@@ 2559
dlichkeit 2559
Argumente 2558
era 2558
griffen 2558
Best 2557
geregelt 2557
sport 2557
flächen 2556
cm 2555
Ausarbeitung 2554
Wes@@ 2553
iso@@ 2553
nummer 2553
Aktions@@ 2552
Ausweitung 2552
Inflation 2552
person@@ 2552
Übrigen 2552
43 2550
Darstellung 2550
flu@@ 2550
ga@@ 2549
10. 2548
altet 2547
ands 2546
Personen@@ 2545
fs@@ 2544
gewählten 2544
kontextuellen 2544
mod@@ 2544
Sit@@ 2543
Bearbeitung 2542
Früh@@ 2542
Jugendlichen 2542
Unions@@ 2542
dur@@ 2542
Fehl@@ 2541
gesam@@ 2541
Kategorien 2540
las 2540
Grün@@ 2538
Partner@@ 2538
ame 2538
Hohe 2537
char@@ 2537
entdeckst 2537
festlegen 2537
Listings 2536
Schreiben 2536
Tabak@@ 2536
außen 2536
mäßige 2536
tivität 2536
12. 2535
Kas@@ 2535
Sel@@ 2535
olo@@ 2535
13. 2534
Schwar@@ 2534
bewahren 2534
blei@@ 2533
grenz@@ 2533
regel@@ 2533
finanzi@@ 2532
groß@@ 2532
CA@@ 2531
Lam@@ 2531
beeinflussen 2531
fle@@ 2531
luss@@ 2531
pra@@ 2531
Orte 2530
zentral 2529
Bade@@ 2528
Stre@@ 2528
nern 2527
vielfäl@@ 2527
Bedürfnissen 2526
hinzufugen 2526
stätigkeit 2526
High 2525
Wur@@ 2525
kurs 2525
Abendessen 2524
ECU 2524
Wiederaufbau 2524
kümmern 2524
zü@@ 2524
Dritte 2523
grammatisch 2523
sterben 2523
Auftrags@@ 2522
Präsenz 2522
Verbrau@@ 2522
empfohlen 2522
kontextuell 2522
verletzt 2522
langer 2521
Haben 2520
Verein@@ 2520
aufzubauen 2520
bewerten 2520
frühen 2520
Sied@@ 2519
erstaun@@ 2519
erzeugen 2518
hungen 2518
Schlusselphrase 2517
Schlusselwort 2517
anda 2517
komplette 2517
Bibliothek 2516
aufgezahlt 2516
eingestellt 2516
get@@ 2516
ir 2516
eben@@ 2515
emen 2515
rie@@ 2515
Somit 2514
WC 2514
Anbetracht 2513
ehrt 2513
Hardware 2512
Plenar@@ 2512
lichkeits@@ 2512
afrikanischen 2511
Tsch@@ 2510
Kü@@ 2509
Symbol 2509
IN 2508
Jugend@@ 2508
melden 2508
ologisch 2508
Finnland 2507
Höchst@@ 2507
Glas@@ 2506
Kap@@ 2506
Schu@@ 2506
versammlung 2506
zige 2506
National 2505
Update 2505
test 2505
älteren 2505
beseitigen 2504
entes 2504
praktischen 2504
stische 2504
lo 2503
zerstört 2502
Vorsitzenden 2501
küh@@ 2501
ins@@ 2500
8. 2499
Haar@@ 2499
Montag 2499
PO@@ 2499
Mul@@ 2498
dom@@ 2498
vorgelegten 2498
Ausbildungs@@ 2497
Hinweise 2497
benachtei@@ 2497
Resort 2496
klassischen 2496
sin@@ 2495
behält 2494
41 2492
bende 2492
Kreditkarte 2491
absol@@ 2491
Ag@@ 2490
Ankunft 2490
ots 2490
chti@@ 2489
Can@@ 2488
gekennzeichnet 2488
krimin@@ 2488
oftmals 2488
Werten 2487
demo@@ 2487
enormen 2487
lichsten 2487
kreis 2486
offenbar 2486
verringert 2486
tigkeiten 2485
Bou@@ 2484
kennt 2484
ansprechen 2483
elen 2483
vel@@ 2483
ausüben 2482
tour@@ 2482
Betriebe 2481
Russlands 2481
egel@@ 2481
Anwender 2480
Serbien 2480
momentan 2480
wahr 2479
General@@ 2477
entdeckt 2477
liert 2477
produkten 2477
Mutter 2476
Pe@@ 2476
Tests 2476
Will@@ 2476
atz 2476
jedenfalls 2476
poli@@ 2476
beinhalten 2475
pan@@ 2475
Flash 2474
ole 2474
viertel 2473
Shop 2472
Vereinigte 2472
od@@ 2472
Gesetzes@@ 2471
auer 2471
räumen 2471
tal 2470
car@@ 2469
ärer 2469
eingebracht 2468
nam@@ 2468
Überblick 2468
1992 2467
Men@@ 2466
frem@@ 2465
Übertragung 2465
belie@@ 2464
05 2463
Nov@@ 2463
Zahlung 2463
arbeitete 2463
Comp@@ 2462
einsei@@ 2460
grund@@ 2460
König 2459
Wochenende 2459
Programmi@@ 2458
Ide@@ 2457
Patent@@ 2457
Spezial@@ 2457
Spielen 2457
kehren 2456
schwere 2456
sitzen 2456
hil@@ 2455
toren 2455
akte 2454
eit 2454
ater@@ 2453
psych@@ 2452
Prodi 2451
begrün@@ 2451
bevölkerung 2451
eingeleitet 2451
Freund 2450
Nizza 2450
Amts@@ 2449
eventuell 2449
Lizenz@@ 2448
Rö@@ 2448
ki@@ 2447
parlamentarischen 2447
Übergang 2447
EU@@ 2446
Minute 2446
erfolgreich@@ 2446
hierzu 2446
stammt 2446
strukturen 2446
Dach@@ 2445
Schönheit 2445
Volkspartei 2445
Parkplätze 2444
Zuge 2444
ri 2444
stammen 2444
fährt 2443
sive 2442
still@@ 2442
Pass@@ 2441
flo@@ 2441
längst 2441
Herbst 2440
vergleich@@ 2440
zahlungen 2440
Syrien 2439
195@@ 2438
Kra@@ 2438
besu@@ 2438
erhö@@ 2438
vorzunehmen 2438
ón 2438
Ther@@ 2437
förder@@ 2437
Autos 2436
Feu@@ 2436
König@@ 2436
anwenden 2436
Mädchen 2435
gewer@@ 2435
Rom@@ 2434
Top 2434
basi@@ 2434
gere 2434
.de 2433
Red@@ 2433
gültig 2433
lim@@ 2433
Schla@@ 2432
gemeinsames 2431
Konvent 2428
aufbauen 2428
id@@ 2428
verstehe 2428
kämp@@ 2427
lischen 2427
Verteidigungs@@ 2426
Zimmer@@ 2426
Argument 2425
ane 2425
prozeß 2425
Entschlossenheit 2424
Schiff 2424
Truppen 2423
anzubieten 2423
gesellschaftlichen 2423
tnissen 2423
famili@@ 2422
komfortable 2422
pä@@ 2422
wort 2422
14. 2421
Michael 2421
eigener 2421
gestal@@ 2421
harmon@@ 2421
landwirtschaftlichen 2420
oo@@ 2420
vorliegen 2420
Ress@@ 2419
derten 2419
gelangt 2419
statten 2419
Han@@ 2418
Zwar 2418
regierung 2418
verständlich 2418
ünd@@ 2418
Gol@@ 2417
Ratifizierung 2417
Zug 2417
linken 2417
Eingang 2416
Sieg 2415
rad 2415
rup@@ 2415
trat 2415
Aussage 2414
Konferenz@@ 2414
quote 2414
GB 2413
Prozeß 2413
esch@@ 2413
Kooperations@@ 2412
dynam@@ 2412
ée 2412
ail@@ 2411
gesp@@ 2411
tran@@ 2410
Spre@@ 2409
can@@ 2409
ärm@@ 2409
reagiert 2408
überwachen 2408
yst@@ 2407
mas@@ 2406
sisch 2406
tru@@ 2406
wider 2406
Zw@@ 2405
steh@@ 2405
ähn@@ 2405
Sobald 2404
Teams 2404
Tür 2404
Bedien@@ 2403
Datum 2403
Betten 2402
ollen 2402
verwal@@ 2402
Bü@@ 2401
kräften 2401
mäßigen 2401
ration 2401
Vit@@ 2400
ergänzen 2400
xen 2400
Vorstellungen 2399
perfekte 2399
hinweg 2397
ke@@ 2397
nicht@@ 2397
ting 2397
zeichnungen 2397
istisch 2396
Ausbau 2395
30. 2394
Detail 2394
Ham@@ 2394
dens 2394
staat@@ 2394
tum 2394
typ@@ 2394
Kongres@@ 2393
ansehen 2393
Vertrag@@ 2392
Zer@@ 2392
Entspannung 2391
Krieges 2391
Mil@@ 2390
abend 2390
gestatten 2390
85 2389
Milch@@ 2389
lar@@ 2389
rop@@ 2389
ruhig 2389
Fuß@@ 2388
Planeten 2388
halt@@ 2388
medi@@ 2388
spät 2388
entieren 2387
Organ@@ 2386
Street 2386
alisi@@ 2386
impor@@ 2386
umgehen 2386
47 2385
Erreichung 2385
Versicherungs@@ 2385
gestiegen 2385
inner@@ 2385
Kyoto 2384
sem@@ 2384
9. 2383
ausgewählt 2383
liger 2383
Air 2382
schw@@ 2382
Fon@@ 2381
elektron@@ 2381
hinaus@@ 2381
Wissenschaftler 2380
achtet 2379
geblieben 2379
tom@@ 2379
way 2379
Lern@@ 2377
chtigen 2377
geführte 2377
grenzüberschreitenden 2377
neun 2377
Prozess@@ 2376
erfahr@@ 2376
anzeigen 2375
bringung 2375
Garantien 2374
Grundlagen 2374
Weil 2374
deu@@ 2374
gebühr@@ 2374
kn@@ 2374
nächster 2374
software 2374
angehen 2373
ativ@@ 2373
Mono@@ 2372
Religion 2372
bürokrati@@ 2372
digungen 2372
wartet 2372
Deutsch 2371
Dänemark 2371
q 2371
tation 2371
öl 2371
Dies@@ 2370
Direkt@@ 2370
vorgestellt 2370
ziger 2370
Pau@@ 2369
Gewinn@@ 2368
dere 2368
grad 2368
keineswegs 2368
46 2367
Lateinamerika 2367
erteilt 2366
49 2365
fizieren 2365
gas@@ 2365
Regional@@ 2364
lü@@ 2364
stärksten 2364
Alt@@ 2363
Billi@@ 2363
gers 2363
Ansprüche 2362
amt 2362
Haushalts 2361
Tür@@ 2361
instrumente 2361
Abfall@@ 2360
ierungen 2360
unkte 2360
verurteilen 2360
Berliner 2359
England 2359
hü@@ 2359
wächst 2359
Weiterentwicklung 2358
han@@ 2358
leu@@ 2358
lieben 2358
projekt 2358
selb@@ 2358
Verbrauchern 2356
italienische 2356
otel 2356
Entwickler 2355
ökologischen 2355
Cap@@ 2354
Poker 2354
liber@@ 2354
Sohn 2353
Vorrang 2353
Durchsetzung 2352
ßte 2352
Flughäfen 2351
verw@@ 2351
Entwicklungshilfe 2350
Inn 2350
Poly@@ 2350
erwiesen 2350
schwerwie@@ 2350
such@@ 2350
Aufzug 2349
e- 2349
39 2348
Blo@@ 2348
kür@@ 2348
selber 2348
erb@@ 2347
Haut 2346
Sho@@ 2346
minim@@ 2346
spra@@ 2346
Fel@@ 2345
anz@@ 2345
entwick@@ 2345
Martin 2344
bewußt 2344
manchen 2343
Benutzer@@ 2342
Tieren 2342
ator@@ 2342
entliche 2342
02 2341
negative 2341
Hon@@ 2340
ord 2340
Mängel 2339
aktu@@ 2339
kamp@@ 2339
ty 2339
Aktien@@ 2338
Form@@ 2338
Hö@@ 2338
ausgehen 2338
geschlossenen 2338
Aspekten 2336
Theater 2336
m2 2336
AU@@ 2335
Konvention 2334
Dreh@@ 2333
Kredi@@ 2333
Prop@@ 2333
Museen 2332
Strecke 2332
definieren 2332
zusehen 2332
würdigen 2331
aktuell 2330
Fahrt 2329
fried@@ 2329
Jedoch 2328
Tal 2328
geschickt 2328
sozial@@ 2328
Ander@@ 2327
III 2327
beding@@ 2327
Pres@@ 2326
Werden 2326
regionen 2326
tliches 2326
wechseln 2326
Sachver@@ 2325
Tab@@ 2325
ehemalige 2325
Käufer 2324
Maria 2324
finanzierung 2323
Benutzung 2322
Vermögens@@ 2322
entsp@@ 2322
fas@@ 2322
lädt 2322
Existenz 2321
Länge 2320
grünen 2320
Betreuung 2319
Dokumentation 2319
automati@@ 2319
Lesen 2318
Na@@ 2318
Verzeichnis 2318
höchst 2318
tiker 2318
06 2317
Ferienwohnung 2317
Schloss 2316
Stamm@@ 2316
Traditionen 2316
intensi@@ 2316
richti@@ 2316
Gottes 2315
arabischen 2315
politiken 2315
besucht 2314
effizienter 2314
herrlichen 2314
hinzu 2314
interne 2314
lehr@@ 2314
stung 2313
Ep@@ 2312
Hy@@ 2312
Satz 2312
optimal 2312
Nichtraucherzimmer 2311
schnit@@ 2311
House 2310
Institut 2310
Woh@@ 2310
baus 2310
bedroht 2310
enes 2310
flug@@ 2310
hast 2310
knapp 2310
ändert 2310
Drei@@ 2309
Ret@@ 2309
derart 2309
sab@@ 2309
Mail@@ 2308
beteiligten 2308
dauer 2308
gerechte 2308
TR@@ 2307
enter 2307
wand@@ 2307
Brand@@ 2306
Fle@@ 2306
bild@@ 2306
3,@@ 2305
hinzu@@ 2305
sitz@@ 2305
Denken 2304
Spitze 2304
weis 2304
Sar@@ 2303
Behörde 2302
Fassung 2302
Oberfläche 2302
dlicher 2302
Är@@ 2302
freund@@ 2301
Dat@@ 2300
Fla@@ 2300
Inform@@ 2300
füh@@ 2300
gegenüber@@ 2300
8.@@ 2299
Suite 2298
befürworten 2298
detailli@@ 2298
entiert 2298
gefährlich 2298
Fried@@ 2297
modern 2297
sek@@ 2297
Ehre 2296
Pot@@ 2296
wäl@@ 2296
stärk@@ 2295
denkt 2294
ells 2294
kurzfris@@ 2294
mehrfach 2294
schläge 2294
sy@@ 2294
Beru@@ 2292
Kommun@@ 2292
spezif@@ 2292
Design@@ 2291
Herkunfts@@ 2291
Kompetenzen 2291
Posi@@ 2290
aro@@ 2290
beabsichtigt 2290
herz@@ 2290
gegebenenfalls 2289
grosse 2289
terror@@ 2288
wohn@@ 2288
Besuchen 2287
-- 2286
Anmeldung 2286
Aut@@ 2286
Gibt 2286
hr 2286
umfassen 2286
versteht 2286
Beschränkungen 2285
Niederlande 2285
let@@ 2285
zusetzen 2285
alisierte 2284
bedürf@@ 2284
berechnet 2284
entfernen 2283
Bord 2282
Pflanzen 2282
Card 2281
Revision 2281
beantwortet 2281
Schlaf@@ 2280
Steigerung 2280
bett 2280
öffentlicher 2280
izi@@ 2279
Klarheit 2278
Versprechen 2278
getreten 2278
wirklichen 2278
Paul 2276
beibehalten 2276
nehme 2276
öff@@ 2276
sal@@ 2275
9.@@ 2274
Effekt 2274
Hamburg 2274
Festival 2273
Shi@@ 2273
anzuwenden 2273
bewer@@ 2273
Lohn@@ 2272
kel 2272
ola 2272
s- 2272
harmonisi@@ 2271
plus 2271
Slowakei 2270
erstens 2270
tags 2270
Archi@@ 2269
alistischen 2269
Holz 2268
alitäten 2268
paket 2268
2012 2267
Email 2267
Glück@@ 2267
Vordergrund 2267
maßen 2267
s.@@ 2267
volles 2267
1990 2266
ol 2266
ßer 2266
glob@@ 2265
ED@@ 2264
verbin@@ 2263
NICHT 2262
branche 2262
chi@@ 2262
Einer 2261
Maschinen@@ 2261
Gold@@ 2260
Katalog 2260
Mad@@ 2260
Messe@@ 2260
Statistiken 2260
Vier@@ 2260
ele 2260
kungen 2260
separ@@ 2260
errichtet 2259
generell 2259
herzustellen 2259
digitale 2258
urlaub 2258
els@@ 2257
werks 2257
200@@ 2256
Wol@@ 2256
erend 2256
profession@@ 2256
Aufhebung 2255
südlichen 2255
Europa@@ 2254
ichtet 2254
nutzt 2254
Lebensmittelsicherheit 2253
com@@ 2253
langem 2253
tätigen 2253
Wahrung 2252
konsequent 2252
Berg 2251
Pla@@ 2251
ear@@ 2251
erheblichen 2251
schwedischen 2251
änder 2251
Nachdruck 2250
Schicksal 2250
Zweiten 2250
behauptet 2250
desto 2250
Radio 2249
Seg@@ 2249
\ 2249
ment 2249
funktion 2248
regionaler 2248
Universitäten 2247
beu@@ 2247
erteilen 2247
geliefert 2247
netz 2247
Chancengleichheit 2246
Lernen 2246
Häuser 2245
Meinungs@@ 2245
veröffentlichen 2245
Offenheit 2244
Rus@@ 2244
ty@@ 2244
Media 2243
ari 2243
herstellen 2243
wachsende 2243
1993 2242
Erfolge 2242
Typ 2242
Bereits 2241
vollem 2241
Analy@@ 2240
genauer 2239
vorsieht 2239
äußer@@ 2239
Dol@@ 2238
fuer 2237
vertritt 2237
Europe 2236
Peter 2236
anerkennen 2236
col@@ 2236
zerti@@ 2236
Häfen 2235
ambi@@ 2235
quellen 2235
Fang@@ 2234
Tau@@ 2234
Zimmerbeschreibung 2234
auswirken 2234
chter@@ 2234
jährlichen 2234
Dynamik 2233
Leg@@ 2233
Rückgang 2233
Speisen 2233
Vorgehensweise 2233
sum 2233
25. 2231
üt@@ 2231
Frühstücksbuffet 2230
zah@@ 2230
zahlt 2230
Ministerpräsident 2229
Putin 2229
Wäh@@ 2229
03@@ 2228
Boot 2228
bequ@@ 2228
einf@@ 2228
klasse 2227
Genau 2226
Oliven@@ 2226
hohes 2226
sur 2226
IA 2225
Kommissionspräsident 2225
erheben 2225
Auflösung 2224
Bö@@ 2224
Gener@@ 2224
Immobilien 2224
Wichtigkeit 2223
betriebe 2223
ey 2223
widmen 2223
Georgien 2222
Zielsetzungen 2222
Fortsetzung 2221
Netze 2221
RO 2221
Soldaten 2220
endet 2220
grossen 2220
zweiter 2220
Zeitplan 2219
berich@@ 2219
don@@ 2219
hilfreich 2219
ont 2219
pft 2219
Autobahn 2218
Kennzeichnung 2218
netz@@ 2218
250 2217
Ersatz@@ 2217
angenehmen 2217
Hostelsclub 2216
Son@@ 2216
funktionier@@ 2214
betrieb 2213
erhoben 2213
grund 2213
IR@@ 2212
Sowohl 2212
beispiel@@ 2212
größeres 2212
äd@@ 2212
beln 2211
respektieren 2211
Liberalen 2210
NL 2210
Problematik 2210
gewidmet 2210
Anmerkungen 2209
Gegner 2209
Ul@@ 2208
Eines 2207
Fluss 2207
dieren 2207
eien 2207
anen 2205
angenommenen 2205
stattgefunden 2205
suche 2205
Eu@@ 2204
sc@@ 2204
ssen@@ 2204
wissen@@ 2204
Anla@@ 2203
Kaffee 2203
setzte 2203
strah@@ 2203
zugeben 2203
Minderheit 2202
Rec@@ 2202
dau@@ 2201
erwar@@ 2201
ritt 2200
schutzes 2200
Betracht 2199
Philosophie 2199
gewöhnlich 2199
Amerikas 2198
Freihandels@@ 2197
Minister@@ 2197
fehlen 2197
sien 2197
strebt 2197
Bom@@ 2196
Unterkünfte 2196
professionelle 2196
Assi@@ 2194
Berge 2194
Entwick@@ 2194
klein 2194
mechanismen 2194
üsse 2194
Berei@@ 2193
Weltwirtschaft 2193
benutz@@ 2193
fortsetzen 2193
meister 2193
niedrigen 2193
spezialisiert 2193
Ausrichtung 2192
has 2192
loser 2192
not@@ 2192
use 2192
llen 2191
Koh@@ 2190
Marken@@ 2190
Verwal@@ 2190
größter 2190
zugs@@ 2190
Kommentare 2189
kap@@ 2189
russische 2189
28@@ 2188
Einen 2188
Himmel 2188
endgültige 2188
isi@@ 2188
Modul 2187
falsche 2187
intensiv 2187
schriftliche 2186
trags@@ 2186
ähnlichen 2186
Leit@@ 2185
chemische 2185
mb@@ 2185
schm@@ 2185
standard 2185
verbreitet 2185
31. 2184
Cookies 2184
Rechnungs@@ 2184
ausländischen 2184
erarbeitet 2184
miß@@ 2184
Bürokratie 2183
EC 2183
fak@@ 2183
44 2182
Bestätigung 2182
ai 2182
begegnen 2182
fahrzeuge 2182
klassi@@ 2182
lers 2182
ologischer 2182
typischen 2182
Maß@@ 2181
Zunahme 2181
erforderliche 2181
tatsächlichen 2181
verabschieden 2181
Fläche 2180
Wand@@ 2180
beweisen 2180
garanti@@ 2180
03 2179
Gebühren 2179
klären 2179
tigten 2179
Ehr@@ 2178
Fremdenverkehr 2178
Text@@ 2178
rooms 2178
unmittelbarer 2178
verwendeten 2178
LO@@ 2177
formuliert 2177
günsti@@ 2177
Erst@@ 2176
Jean 2176
freier 2176
uneingeschränkt 2176
Unterstütz@@ 2175
ez 2175
mali@@ 2175
Anreize 2174
Tool 2174
Verordnungen 2174
ard@@ 2174
Dro@@ 2173
Office 2173
gefühl 2172
hinzugefügt 2172
Airbus 2171
sied@@ 2171
Aussagen 2170
usw 2170
jüngste 2169
planen 2169
Besitz 2168
Ursache 2168
drängt 2168
kohär@@ 2168
zeichnete 2168
Bücher 2167
1000 2166
Nutzungs@@ 2166
Ents@@ 2165
Können 2165
Risiko@@ 2165
reform@@ 2165
dateien 2164
drängen 2164
erweisen 2164
wur@@ 2164
inhal@@ 2163
solch 2163
Entfernung 2162
Abbau 2161
Erarbeitung 2161
Wettbewerbs 2161
deutliche 2161
innovativen 2161
marktes 2161
schule 2161
zog 2161
Alternativen 2160
Sonntag 2160
Verfahrens 2160
Out@@ 2159
sprechend 2159
anzupassen 2158
fairen 2158
städ@@ 2158
dig@@ 2157
fluss@@ 2157
großzügi@@ 2157
könne 2157
tagen 2157
überrascht 2157
Ablauf 2156
hundert 2155
verzer@@ 2155
General 2154
Nord 2154
Ruf 2154
aush@@ 2153
mati@@ 2153
PA 2152
Viel@@ 2152
gemeinsamer 2152
taus@@ 2152
Nichtraucherzonen 2151
Terroristen 2151
fla@@ 2151
offiziell 2151
Ausgrenzung 2150
Export@@ 2150
Nehmen 2150
charakter@@ 2149
innere 2149
verbreit@@ 2149
Freund@@ 2148
Klimawandels 2148
richtungen 2148
Bin@@ 2147
bewegt 2147
gige 2147
herausge@@ 2147
instrument 2147
Betrieb@@ 2146
Pl@@ 2146
Q 2146
Schn@@ 2146
Direk@@ 2145
Fig@@ 2145
Landwirtschafts@@ 2145
Sonn@@ 2145
Werkzeug 2145
asp@@ 2145
davor 2145
echn@@ 2145
gesucht 2145
mensch@@ 2145
Schwe@@ 2144
gehörige 2144
mechanismus 2144
verursachen 2144
wirft 2144
yn@@ 2144
förderung 2143
spür@@ 2143
verpflich@@ 2143
Raums 2142
gäste 2142
Skype 2141
bungen 2141
existieren 2141
kün@@ 2141
Bosnien 2140
Erwachsene 2140
Spezialitäten 2140
künst@@ 2140
Verabschiedung 2139
gewicht 2139
Betrifft 2138
Java 2138
bewertet 2138
dene 2138
häl@@ 2138
Transpor@@ 2137
Uns 2137
dorf 2137
erwähnten 2137
ht 2137
ökonomische 2137
Szen@@ 2136
angekündigt 2136
mag@@ 2136
mische 2136
Ausbeutung 2135
Räume 2135
daten@@ 2135
geringen 2135
Kla@@ 2134
äuß@@ 2134
Den@@ 2133
dieselben 2133
integrierte 2133
proz@@ 2133
spanische 2133
staff 2133
däm@@ 2132
stechnik 2132
zustande 2132
Ausnahmen 2131
Bildern 2131
befürwortet 2131
herrsch@@ 2131
Fahrer 2130
Menschheit 2130
Orten 2130
Rechen@@ 2130
ling@@ 2130
standes 2130
Drogen 2129
Hände 2129
grundsätz@@ 2129
hä@@ 2129
nd 2129
vertraut 2129
Sat@@ 2128
lans 2128
Objekte 2127
Verfahrens@@ 2127
begünsti@@ 2127
berühmte 2127
bewus@@ 2127
kel@@ 2127
yl@@ 2127
übt 2127
Kön@@ 2126
Taten 2126
abgesehen 2126
eht 2126
ero@@ 2126
zugestimmt 2126
reibungs@@ 2125
ala 2124
nisses 2124
GNU 2123
gg@@ 2123
glichkeit 2123
sichert 2123
Änderungs@@ 2123
Bevor 2122
Kürze 2122
Schad@@ 2122
Wür@@ 2122
iges 2122
vertra@@ 2122
Strand@@ 2121
bearbeiten 2121
besonderes 2121
geschäft 2121
hafter 2121
Annehmlichkeiten 2120
Florenz 2120
lusses 2120
nahme@@ 2120
behand@@ 2119
geehrte 2119
präzise 2119
Formulierung 2118
Stad@@ 2118
bro@@ 2118
gebenen 2118
hochwertigen 2118
östlichen 2118
fünf@@ 2117
üblichen 2117
IG@@ 2116
dy@@ 2116
sau@@ 2116
Bürgerbeauftragten 2115
durchzusetzen 2115
elektronische 2115
fantas@@ 2115
generi@@ 2115
dest@@ 2114
Saint 2113
Saison 2112
Wiederherstellung 2112
antes 2112
gegenseitigen 2112
ück@@ 2112
eindeutige 2111
manu@@ 2111
Haushalte 2110
Produktivität 2110
enter@@ 2110
komplexen 2110
Einzelheiten 2109
Wohnzimmer 2109
derselben 2109
vorliegt 2109
As@@ 2108
fangen 2108
gesetz 2108
siv 2108
EF@@ 2107
Kuba 2107
Steuer 2107
prinzip 2107
51 2105
Ange@@ 2105
Oper@@ 2105
Rechnungshof 2105
Aktivi@@ 2104
Referendum 2104
Schei@@ 2104
begründet 2104
kung 2104
pass@@ 2104
Kir@@ 2103
erarbeiten 2103
obligator@@ 2103
Deutschlands 2102
Ant@@ 2101
inspiri@@ 2101
kriterien 2101
prin@@ 2101
umso 2101
sauber@@ 2100
Euch 2099
direk@@ 2099
gebnisse 2099
vertrauen 2099
äumen 2099
Frauen@@ 2098
JavaScript 2098
gerungen 2098
kostenlose 2098
stützt 2098
euer 2097
hervorragend 2097
Übernahme 2097
Tools 2096
essi@@ 2096
stru@@ 2096
Leu@@ 2095
Funktionieren 2094
Miet@@ 2094
berichtet 2094
gemessen 2094
Speicher@@ 2093
bedauerlich 2093
streben 2093
bruch 2092
Airport 2091
Rechner 2091
weichen 2091
Menschenrechtsverletzungen 2090
Umstände 2090
religiösen 2090
steuer 2090
verteilung 2090
Finanzen 2089
glich@@ 2089
verwiesen 2089
Boot@@ 2088
Ereignis 2088
drin@@ 2088
leistet 2088
Flughaf@@ 2087
Verfolgung 2087
feu@@ 2087
löschen 2087
übermitteln 2087
dé@@ 2086
welle 2086
NRO 2085
nötigen 2085
ressourcen 2085
technisch 2085
A4 2084
West 2084
erleichtert 2084
mein@@ 2084
user 2084
Fremden@@ 2083
siven 2083
unterschiedlicher 2083
č@@ 2083
Hi@@ 2082
Pflanzen@@ 2082
stanz 2082
stätten 2082
Fischereipolitik 2081
Hat 2081
fuhren 2081
fungen 2081
tis 2081
änge 2081
Rezession 2080
Seri@@ 2080
Vertrieb@@ 2079
artige 2079
chts@@ 2079
Gemeinden 2078
Glei@@ 2078
Schuld 2078
bestände 2078
dieselbe 2078
Einnahmen 2077
Schüler 2077
fft 2077
Det@@ 2076
dring@@ 2076
pflan@@ 2076
Zwischen 2075
fes 2075
gebene 2075
ungst@@ 2075
Außenminister 2074
Bewusstsein 2073
dasselbe 2073
kehr 2073
Fan@@ 2072
brauch 2072
erw@@ 2072
verl@@ 2072
wu@@ 2072
BSE 2071
gas 2071
gehe 2071
tes@@ 2071
Strände 2070
Bevölkerungs@@ 2069
Einsatz@@ 2069
ziel 2069
Ausrüstung 2068
Heimat 2068
bewegung 2068
Bauern 2067
gerung 2067
Fitness@@ 2066
Kohlen@@ 2066
set 2066
Gruppen@@ 2065
Jun@@ 2065
umgehend 2065
zurzeit 2065
ärmsten 2065
Fleisch 2064
Wohnungen 2064
anzuzeigen 2064
leiter 2064
them@@ 2064
Comm@@ 2063
Händen 2063
lüsse 2063
Symp@@ 2062
normen 2062
personen 2062
mi 2061
Gentoo 2060
ausländische 2060
konstruk@@ 2060
rufe 2060
staatlicher 2060
Wellness 2059
betre@@ 2059
fers 2059
kle@@ 2059
komplexe 2059
position@@ 2059
schätz@@ 2059
Bestellungen 2058
Südafrika 2058
erstes 2058
good 2058
ther 2058
BR@@ 2057
Diesen 2057
verstän@@ 2057
Bekann@@ 2056
Sau@@ 2056
Zucker@@ 2056
einführen 2056
gerechtfertigt 2056
tend 2056
Menschenrechten 2055
geisti@@ 2055
genau@@ 2055
isierung 2055
reck@@ 2055
tung@@ 2055
veran@@ 2055
700 2054
Innenstadt 2054
Migration 2054
unterbrochen 2054
Erlebnis 2053
Sekunden 2053
Zerstörung 2053
auswählen 2053
dunk@@ 2053
komplizi@@ 2053
Abgeordneter 2052
Cro@@ 2052
Logik 2052
dad 2052
erlassen 2052
schied@@ 2052
bezeichnen 2051
ong 2051
SV 2050
Audio 2049
beinahe 2049
Binnen@@ 2048
Lieferanten 2047
Protokolls 2047
günstige 2047
professionellen 2047
sta 2047
AL 2046
Danach 2046
geeigneten 2046
günstigen 2046
ines 2046
israelischen 2046
sz@@ 2046
Via 2045
Vil@@ 2045
eli@@ 2045
zunehmende 2045
Verkaufs@@ 2044
aktualisiert 2044
Leben@@ 2043
Anti 2042
Licht@@ 2042
demokratisch 2042
fertigung 2042
füllt 2042
geringer 2042
kollek@@ 2042
pul@@ 2042
Filme 2041
hu@@ 2041
location 2041
Christ@@ 2040
flexibel 2039
racht 2039
vermittelt 2039
Client 2038
vermutlich 2038
ze@@ 2038
Alters@@ 2037
Betrach@@ 2037
saal 2037
zip@@ 2037
Festplatte 2036
spüren 2036
Erschein@@ 2035
Urlaubs@@ 2035
Anträge 2034
Betreiber 2034
engen 2034
vis@@ 2034
zeigte 2034
Г 2034
EB@@ 2033
Plaza 2033
Werkzeuge 2033
Begründung 2032
Handlungen 2032
Schutzes 2032
erweise 2032
verschaffen 2032
Demokrati@@ 2031
Energiequellen 2031
Kopf@@ 2031
ablehnen 2031
vermieden 2031
Abteilung 2030
Gewinne 2030
beruhen 2030
gering 2030
gingen 2030
technischer 2030
Projek@@ 2029
derungen 2029
krieg@@ 2029
Is@@ 2028
Kenntnisse 2028
Spannungen 2028
endgültigen 2028
stands@@ 2028
arbeiteten 2027
gieren 2027
sagten 2027
ständiger 2027
Album 2026
Insgesamt 2026
dargelegt 2026
Hauptbahnhof 2025
ario 2025
einstimmig 2025
elegante 2025
motivi@@ 2025
verstärkte 2025
Beamten 2024
ans@@ 2024
geren 2024
lassung 2024
reibungen 2024
Großen 2023
lebenden 2023
vorüber@@ 2023
Block@@ 2022
hielt 2022
Ungleich@@ 2021
medizinische 2021
zivi@@ 2021
DS@@ 2019
ay@@ 2019
beschleunigen 2019
ehm@@ 2019
führungs@@ 2019
Off@@ 2018
Südo@@ 2018
herrschen 2018
Derzeit 2017
Fas@@ 2017
Marokko 2017
erwerben 2017
ffs 2017
renoviert 2017
verbindung 2017
änderungen 2017
öse 2017
Aktu@@ 2016
Balkan 2016
Internetzugang 2016
Palästinen@@ 2016
geschnitten 2016
heim 2015
seu@@ 2015
Dru@@ 2014
inneren 2014
Mari@@ 2013
Meinungen 2013
Strom 2013
Tschech@@ 2013
erfol@@ 2013
kurse 2013
sicherer 2013
Lounge 2012
gehabt 2012
zugelassen 2012
österreichischen 2012
Einwanderer 2011
Immer 2011
Quell@@ 2011
Samstag 2011
Roll@@ 2010
früh 2010
ws 2010
1989 2009
Bezeichnung 2009
IF@@ 2009
kritischen 2009
Beratungen 2008
Hän@@ 2008
Spaziergang 2008
Steuerzahler 2008
Tru@@ 2008
alle@@ 2008
außen@@ 2007
scho@@ 2007
terungen 2007
04 2006
10.@@ 2006
120 2006
Erwägung 2006
fragt 2006
innen@@ 2006
trags 2006
Australien 2005
Lehrer 2005
einiges 2005
glaubt 2005
Friedens 2004
Privatsphäre 2004
niedri@@ 2004
Gas 2003
Palette 2003
alistische 2003
kleinere 2003
ruppe 2003
Beschluß 2002
Zuverlässigkeit 2002
ausführ@@ 2001
umfangreichen 2001
1991 2000
David 2000
Osteuropa 2000
Rab@@ 2000
industriellen 2000
Basi@@ 1999
Tat@@ 1999
organisierten 1999
Drittstaaten 1998
agen 1998
Intern@@ 1997
anpassen 1997
untern@@ 1997
vorrangi@@ 1997
4,@@ 1996
Belastung 1996
Bestell@@ 1996
Reinigung 1996
KOM 1995
MySQL 1995
Sim@@ 1995
ehrlich 1995
ena 1995
planung 1995
schwieriger 1995
sur@@ 1995
Gesicht 1994
It 1994
Nachmittag 1994
Western 1994
ahnen 1994
eintreten 1994
Prag 1993
Optim@@ 1992
aj@@ 1992
teilungen 1992
Herkunft 1991
argum@@ 1991
europa 1991
Aktionsp@@ 1989
Modus 1989
dul@@ 1989
Fakten 1988
Venedig 1988
Zusammensetzung 1988
eingeräumt 1988
Risi@@ 1987
eröffnen 1987
belieb@@ 1986
blicken 1986
gü@@ 1986
S.@@ 1985
abgeben 1985
alisierungs@@ 1985
Gewinn 1984
11.@@ 1983
frü@@ 1983
ros 1983
Anim@@ 1982
Motor 1982
lassungen 1982
zentraler 1982
ñ@@ 1982
Haf@@ 1981
Studi@@ 1981
get 1981
tho@@ 1981
Laut 1980
beruflichen 1980
derjenigen 1980
ernsthafte 1980
Samm@@ 1979
theore@@ 1979
union 1979
OL@@ 1978
Sens@@ 1978
USD 1978
Van 1978
aben 1978
Krisen 1977
ous 1977
Appartements 1976
Verteidigungspolitik 1976
gelingen 1976
geringe 1976
lien 1976
teln 1976
Weltkrieg 1975
Betrug 1974
Renn@@ 1974
Str@@ 1974
Verlängerung 1974
erlangen 1974
pos@@ 1974
12.00 1973
A3@@ 1973
Klassi@@ 1973
Seele 1973
Unsicherheit 1973
besser@@ 1973
eigentliche 1973
schenken 1973
Dritt@@ 1972
Erzeugung 1972
ausreichende 1972
bü@@ 1972
hochwer@@ 1972
Grundsätzen 1971
erleb@@ 1971
mail 1971
maximal 1971
kunden 1970
Doppelzimmer 1969
Lager 1968
aufnahme 1968
handels@@ 1968
iner 1968
mittlere 1968
Energiever@@ 1967
Fal@@ 1967
fän@@ 1967
Felder 1966
aufgestellt 1966
einzig 1966
ere@@ 1966
Herr@@ 1965
ars 1965
integrieren 1965
möglichkeit 1965
pp 1965
Summe 1964
Tor 1964
alisten 1964
ausreich@@ 1964
beschließen 1964
zugute 1964
Mittwoch 1963
Nation 1963
Strah@@ 1963
Inkrafttreten 1962
beschäf@@ 1962
stet 1962
zeichneten 1962
Beurteilung 1961
Pati@@ 1961
genießt 1961
Ingenie@@ 1960
Kämp@@ 1960
geograf@@ 1960
überein@@ 1960
24. 1959
Lab@@ 1959
verzichten 1959
Versorgungs@@ 1958
ita 1958
86 1957
Feststellung 1957
Versuche 1957
angenehm 1957
ehmer 1957
ektion 1957
gestartet 1957
tags@@ 1957
52 1956
Salz@@ 1956
würdi@@ 1956
reis@@ 1955
gelernt 1954
kes 1954
Pflichten 1953
my 1953
reichhal@@ 1953
schlechte 1953
stützen 1953
Übersicht 1953
Mei@@ 1952
Stufe 1952
geachtet 1952
esse 1951
interess@@ 1951
imp@@ 1950
Arbeitsgruppe 1949
retten 1949
ritten 1949
abgegeben 1948
angebote 1948
dien@@ 1948
inakzeptabel 1948
reformen 1948
26@@ 1947
basis 1947
loss 1947
passieren 1947
zwölf 1947
Rußland 1946
Weiterhin 1946
kra@@ 1946
listen 1946
Einwanderungs@@ 1945
Rahmenbedingungen 1945
kredi@@ 1945
seln 1945
Europar@@ 1944
Wasch@@ 1944
gri@@ 1944
keiten 1944
Intervention 1943
Wich@@ 1943
entstand 1943
rischen 1943
zwischen@@ 1943
Ausschüsse 1942
aly@@ 1942
kombiniert 1942
becken 1941
bereit@@ 1941
rüstung 1941
Bewältigung 1940
Brü@@ 1940
Fron@@ 1940
Rechn@@ 1940
ata 1940
berat@@ 1940
tie 1940
ursprüngliche 1940
Ausübung 1939
Kernel 1939
Rassismus 1939
Verfasser 1939
Einschätzung 1938
erneuerbaren 1938
hört 1938
mechan@@ 1938
tlichkeit 1938
и@@ 1938
gebe 1937
Jugendliche 1936
SA 1936
basieren 1936
demokratischer 1936
relevanten 1936
vorgehen 1936
Besteuerung 1935
getrennt 1935
Kein 1934
Luxus 1934
Regulierungs@@ 1934
We 1934
Inf@@ 1933
Last 1933
einst 1933
graph@@ 1933
Gü@@ 1932
afri@@ 1932
antwor@@ 1932
oni 1932
Rennen 1931
jeglicher 1931
beizutragen 1930
etabli@@ 1930
kampf 1930
überra@@ 1930
Erweiterungs@@ 1929
Weiß@@ 1929
anforderungen 1929
Drei 1928
Grünbuch 1928
Wünschen 1928
quali@@ 1928
wahre 1928
Verletzungen 1927
bilateralen 1927
din 1927
gebung 1927
kus@@ 1927
rek@@ 1927
Fabri@@ 1926
User 1926
ble 1926
ehren 1926
isten 1926
organisierte 1926
Stahl@@ 1925
sogenannte 1925
Ah@@ 1924
Tauch@@ 1924
USS 1924
drückt 1924
ov@@ 1924
globaler 1923
Stur@@ 1922
ierungs@@ 1922
realen 1922
zweif@@ 1922
Heimat@@ 1921
griffe 1921
insofern 1921
lass 1921
Regionalpolitik 1920
respektiert 1920
Lim@@ 1919
bers 1919
methode 1919
22. 1918
Imm@@ 1918
berufen 1918
tausend 1918
verkehr@@ 1918
Autor 1917
Vertretung 1917
gebühren 1917
gefährden 1917
orientierte 1917
schwan@@ 1917
weit@@ 1917
Anhörung 1916
Einschränkungen 1916
entlichen 1916
investiert 1915
sign@@ 1915
bahn@@ 1914
behandlung 1914
hten 1914
stattdessen 1914
Private 1913
atemberau@@ 1913
empfängt 1913
lokaler 1913
politi@@ 1913
Übereinkommens 1913
Brücke 1912
Phänomen 1912
mien 1912
rö@@ 1912
verpflichten 1912
zwanzig 1912
Global 1911
dos 1911
effizienten 1911
ments 1911
schie@@ 1911
wander@@ 1911
Beschwerden 1910
Institu@@ 1910
Stell@@ 1910
nehm@@ 1910
Hafen@@ 1909
Pet@@ 1909
funktionen 1909
garten 1909
heutzutage 1909
Plas@@ 1908
Publikum 1908
Pul@@ 1908
Spe@@ 1908
einstellen 1908
erörtert 1908
kost@@ 1908
Inhalten 1907
Keine 1907
PR@@ 1907
Schalt@@ 1907
kas 1907
Anwesenheit 1906
EG@@ 1906
wünscht 1906
bedauere 1905
gebunden 1905
lagerung 1905
medizinischen 1905
Air@@ 1904
Cock@@ 1904
erkunden 1904
well 1904
AS 1903
bewirken 1903
out@@ 1903
starkes 1903
zentrali@@ 1903
Fisch 1902
Speich@@ 1902
abkommens 1902
trenn@@ 1902
zweck@@ 1902
Module 1901
Updates 1901
vers 1901
engli@@ 1900
este 1900
ration@@ 1900
reali@@ 1900
vereint 1900
Gipfeltreffen 1899
Verluste 1899
ebt 1899
erzeug@@ 1899
kostenlosen 1899
Arbeitgeber 1898
Kurz 1898
Satelliten@@ 1898
Unterzeichnung 1898
doppelt 1898
fi 1898
vernünftige 1898
Dre@@ 1897
Hot@@ 1897
Produktion@@ 1897
Subventionen 1897
dahin 1897
druckt 1897
eti@@ 1897
riert 1897
zunehmenden 1897
Gem@@ 1896
atur@@ 1896
einnehmen 1896
höchster 1896
leidet 1896
transpor@@ 1896
Menü@@ 1895
här@@ 1894
Mehrwert 1893
Zus@@ 1893
baut 1893
konkur@@ 1893
tol@@ 1893
vereinbarten 1893
geplanten 1892
verzeichnen 1892
Konflikt@@ 1891
,000 1890
Automobil@@ 1890
Weine 1890
e.@@ 1890
überwacht 1890
EP 1889
Zeu@@ 1889
wirksamen 1889
Äußerungen 1889
Original@@ 1888
wendung 1888
Million 1887
PL@@ 1887
Energiepolitik 1886
aussehen 1886
derartigen 1886
alist 1885
immt 1885
kü@@ 1885
Brun@@ 1884
Funktion@@ 1884
Kapazität 1884
Wälder 1884
ordnungsgemäß 1884
sonstige 1884
läufe 1883
Don@@ 1882
Einkommens@@ 1882
Richter 1882
aufgeführt 1882
technologische 1882
zehn@@ 1882
Port@@ 1881
gesundheits@@ 1881
irische 1881
realisiert 1881
§ 1881
Al 1880
Tabelle 1880
bot@@ 1880
dia 1880
eits@@ 1880
riebenen 1880
ßten 1880
Erhalt 1879
IC 1879
funk@@ 1879
konstruktive 1879
syn@@ 1879
verhältnis 1879
Fahrzeug 1878
Spektrum 1878
Wett@@ 1878
band 1878
verschmutzung 1878
IB@@ 1877
Inspek@@ 1877
Wichtig 1877
deutlichen 1877
stö@@ 1877
tigem 1877
Angriffe 1876
demokrati@@ 1876
demonstri@@ 1876
initiative 1876
kommun@@ 1876
unterbreiten 1876
Ergänzung 1875
eleganten 1875
hy@@ 1875
Mischung 1874
Themen@@ 1874
dnis 1874
inge 1874
vernünftig 1874
zeichnung 1874
äum@@ 1874
Europol 1873
Fei@@ 1873
bürger 1873
egen 1873
eure 1873
gemütliche 1873
verarbeitet 1873
off@@ 1871
Kaffe@@ 1870
Konzentration 1870
Trop@@ 1870
meldung 1870
Fünf@@ 1869
auseinander@@ 1869
koordini@@ 1869
periode 1869
ral 1869
tex@@ 1869
Regimes 1868
SS@@ 1868
geniessen 1868
ons@@ 1868
verschieden@@ 1868
überzeu@@ 1868
Still@@ 1867
erlei 1867
maxim@@ 1867
polnischen 1867
Aktion@@ 1866
News 1866
bezogen 1866
einzugehen 1866
folglich 1866
geistigen 1866
stren@@ 1866
wies 1866
Kapazitäten 1865
Vari@@ 1865
Zuständigkeiten 1865
dauern 1865
fün@@ 1865
Weltbank 1864
abilität 1864
achtung 1864
ete 1864
gelegenen 1864
tos 1864
traums 1864
habt 1863
olle 1863
schließe 1863
berührt 1862
ero 1862
jemals 1862
nfalls 1861
Hör@@ 1860
if 1860
zips 1860
Jahr@@ 1859
Unternehmer 1859
ausser@@ 1859
hunder@@ 1859
pak@@ 1859
schaftsp@@ 1859
wertvolle 1859
04@@ 1858
Beschäftigten 1858
interessanten 1858
moderner 1858
Rin@@ 1857
schlech@@ 1857
wäch@@ 1857
ethnischen 1856
flicht 1856
marquis 1856
punkten 1856
sil@@ 1856
Emissions@@ 1855
Prävention 1855
num@@ 1855
Katastrophen 1854
bedro@@ 1854
feste 1854
lossen 1854
schrittweise 1854
verliehen 1854
23. 1853
Dublin 1853
agt 1853
nachhaltig 1853
ungeh@@ 1853
wald 1853
konvention@@ 1852
ute 1852
wan@@ 1852
Beach 1851
Händler 1851
Sitzungen 1851
ligkeit 1851
weitaus 1851
Kräften 1850
Vers@@ 1850
erweiterten 1850
externe 1850
fuhr@@ 1850
tan 1850
unterscheidet 1850
vorsitz@@ 1850
grenzüberschreitende 1849
menge 1849
origin@@ 1849
völ@@ 1849
29. 1848
Güter 1848
Robert 1848
Fak@@ 1847
Schau@@ 1847
einhalten 1847
nachdenken 1847
ohnehin 1847
ommene 1847
realistisch 1847
schnitt 1847
kleineren 1846
verwirklichen 1846
Mich@@ 1845
Sy@@ 1845
arbeitungs@@ 1845
liegende 1845
nete 1844
Öffent@@ 1844
Subsidiarität 1843
gebäude 1843
risi@@ 1843
server 1843
sitzung 1843
gebnis 1842
gesichert 1842
kurzer 1842
Plätze 1841
Theorie 1840
Trend 1840
icht 1840
leichte 1840
orientierten 1840
Saal 1839
erwähnte 1839
handels 1839
mün@@ 1839
under@@ 1839
Börse 1838
Leiter 1838
Mä@@ 1838
Schreib@@ 1838
Wesen 1838
absolute 1838
Image 1837
ats@@ 1837
verletz@@ 1837
angem@@ 1836
ratifiziert 1836
ré@@ 1836
Mac 1835
kommerziellen 1835
verständnis 1835
wärts 1835
zz@@ 1835
ök@@ 1835
Justiz@@ 1834
Rotary 1834
fahrts@@ 1834
Produzenten 1833
geschafft 1833
text 1833
wand 1833
zielt 1833
Datenschutz 1832
Peti@@ 1832
konstitu@@ 1832
tschaft 1832
verkün@@ 1832
Gau@@ 1831
Human@@ 1831
Mengen 1831
ausführlich 1831
beiträgt 1831
Medikamente 1830
strit@@ 1830
vertreter 1830
wä@@ 1830
Edel@@ 1829
teilzunehmen 1829
Augen@@ 1828
datei 1828
pack@@ 1828
tspar@@ 1828
viert 1828
wes@@ 1828
Objekt 1827
bewiesen 1827
chan@@ 1827
ehe 1827
schein@@ 1827
unterbreitet 1827
fortgesetzt 1826
vere 1826
Bühne 1825
Mails 1825
erörtern 1825
Türen 1824
design 1824
last@@ 1824
wirkungs@@ 1824
ränken 1823
öffnet 1823
Centre 1822
Handy 1822
gewisser 1822
platten 1822
streng 1822
traum@@ 1822
Techn@@ 1821
abschließend 1821
ehrgei@@ 1821
ire 1821
Anzeige 1820
Hamas 1820
eigentlichen 1820
unterstütz@@ 1820
Funktionalität 1819
Power 1819
felder 1819
gebraucht 1819
späteren 1819
Tour@@ 1818
arbeiter 1818
nich@@ 1818
angewiesen 1817
ämp@@ 1817
Fr@@ 1816
erstreckt 1816
gewinnt 1816
kontrollen 1816
mäßigkeit 1816
.org 1815
Erbe 1815
läne 1815
qualifizi@@ 1815
west@@ 1815
Ausgangs@@ 1814
Source 1814
freu@@ 1814
gerechnet 1814
transparent 1814
ösen 1814
Arbeitnehmer@@ 1813
Sä@@ 1813
brü@@ 1813
legitim@@ 1813
wöch@@ 1813
Invest@@ 1812
Open@@ 1812
geograph@@ 1812
ine@@ 1812
rum 1812
servi@@ 1812
Gewi@@ 1811
Stau@@ 1811
Vertrieb 1811
Wachstums 1811
popul@@ 1811
Che@@ 1810
Cli@@ 1810
Ordner 1810
eingeschränkt 1810
erh@@ 1810
rechtfertigen 1810
technologischen 1810
Mobil@@ 1809
Regen@@ 1809
Solche 1809
stabili@@ 1809
Proz@@ 1808
Versand@@ 1808
esten 1808
Fremd@@ 1807
SC@@ 1807
erische 1807
iens 1807
liz@@ 1807
ruft 1807
Auff@@ 1806
Sum@@ 1806
beeinflusst 1806
erheb@@ 1806
gewünschte 1806
igungen 1806
lad@@ 1806
slo@@ 1806
wahl 1806
68 1805
Gipfels 1805
NI 1805
Tom@@ 1805
deutet 1805
erinnere 1805
trieb 1805
Span@@ 1804
ds@@ 1804
machten 1804
militär@@ 1804
Dokument@@ 1803
Lehren 1803
angeblich 1803
cs 1803
Missbrauch 1802
Mobili@@ 1802
Schaden@@ 1802
herum 1802
Glas 1801
Stock@@ 1801
beurteilen 1801
bisschen 1801
trop@@ 1801
unzu@@ 1801
Ach@@ 1800
AT 1799
Eröffnung 1799
ary 1799
lässi@@ 1799
Gepäckraum 1798
Mol@@ 1798
Palästinenser 1798
Washington 1798
dans 1798
ino@@ 1798
nä@@ 1798
typisch 1798
verarbeitung 1798
Konjunktur@@ 1797
Libanon 1797
ermutigen 1797
größerer 1797
pas@@ 1797
älter 1797
Hunder@@ 1796
Präsentation 1796
bekräftigt 1796
krieg 1796
Überarbeitung 1796
abgel@@ 1795
grundlegender 1795
Eli@@ 1794
Gut 1794
schnei@@ 1794
tika 1794
beabsichti@@ 1793
gend@@ 1793
lös@@ 1793
sonstigen 1793
vergröß@@ 1793
vorhin 1793
Geschäf@@ 1792
gefährliche 1792
gestellte 1792
sech@@ 1792
Erfol@@ 1791
cho@@ 1791
wa 1791
Kabel 1790
Seiten@@ 1790
halten@@ 1790
zuver@@ 1790
Imp@@ 1789
Israels 1789
Kau@@ 1789
Last@@ 1789
Leuten 1789
gefährlichen 1789
schreibt 1789
Lasten 1788
Rubrik 1788
gemütlichen 1788
Arbeitsbedingungen 1787
Camp@@ 1787
blick 1787
günstig 1787
kritisiert 1787
künfte 1787
li 1787
vo 1787
äder 1787
Ausblick 1786
Foto@@ 1786
venti@@ 1786
which 1786
AV@@ 1785
Angabe 1785
SCH@@ 1785
einher@@ 1785
modi@@ 1785
Plus 1784
Zürich 1784
dest 1784
plötzlich 1784
Bauern@@ 1783
eingeladen 1783
Erwer@@ 1782
HTML 1782
Mittelmeerraum 1782
Safe 1782
Verträgen 1782
let 1782
orienti@@ 1782
terien 1782
OT@@ 1781
Prozent@@ 1781
film 1781
Appartement 1780
Export 1780
Wellness@@ 1780
auen 1780
ausgedeh@@ 1780
ausgestattete 1780
ennung 1780
faszini@@ 1780
stil 1780
Kongress 1779
Vorfeld 1779
bevorstehenden 1779
Dikt@@ 1778
Finanzmärkte 1778
angel@@ 1778
fiel 1778
gangenen 1778
gres@@ 1778
sou@@ 1778
übermittelt 1778
Futter@@ 1777
Tag@@ 1777
54 1776
Schnittstelle 1776
anner 1776
schalten 1776
sheit 1776
na@@ 1775
spektakul@@ 1775
Edition 1774
Fri@@ 1774
Je@@ 1774
Kün@@ 1774
Ministerrat 1774
Tragödie 1774
eignen 1774
herunter@@ 1774
Büros 1773
Events 1773
Fluggesellschaften 1773
Merkmale 1773
Wind 1773
erfasst 1773
lehnt 1773
Termin 1772
cor@@ 1772
intensive 1772
qualifizierte 1772
wü@@ 1772
27@@ 1771
George 1771
Unterdrückung 1771
akzeptabel 1771
bür@@ 1771
emm@@ 1771
liberalen 1771
Fans 1770
Konzepte 1770
issen 1770
rats 1770
ruhige 1770
strengen 1770
teilte 1770
Alp@@ 1769
Ci@@ 1769
Hä@@ 1769
schir@@ 1769
tauchen 1769
ziplin 1769
Mur@@ 1768
VER@@ 1768
modern@@ 1768
omp@@ 1768
Resolution 1767
Tief@@ 1767
ela 1767
haber 1767
nbsp 1767
unverzicht@@ 1767
Ker@@ 1766
Panoram@@ 1766
aturen 1766
gelegten 1766
ignoriert 1766
untergraben 1766
Gebäuden 1765
diplom@@ 1765
spr@@ 1765
Baum@@ 1764
sätzen 1764
MB 1763
enswerte 1763
esischen 1763
gerweise 1763
ländische 1763
orien 1763
spiegelt 1763
Armen 1762
Komit@@ 1762
Lü@@ 1762
mündlichen 1762
quelle 1762
sende 1762
ysteme 1762
28. 1761
Arzneimittel 1761
Digital@@ 1761
Power@@ 1761
leid 1761
ränk@@ 1761
verantwor@@ 1761
72 1760
Performance 1760
Show 1760
Wiederauf@@ 1760
alli@@ 1760
formular 1760
föder@@ 1760
stro@@ 1760
Abschluß 1759
Aufenthalts@@ 1759
Erzeuger 1759
Präsidentschafts@@ 1759
agi@@ 1759
lten 1759
nötige 1759
Europ@@ 1758
Netzwerk@@ 1758
Spezialisten 1758
Traum 1758
kostengünsti@@ 1758
präsen@@ 1758
spit@@ 1758
öst@@ 1758
Key@@ 1757
ams 1757
beliebigen 1757
berichte 1757
istischer 1757
Ferienwohnungen 1756
Gerichtshofs 1756
imm@@ 1756
partei@@ 1756
Ele@@ 1755
Mitt@@ 1755
Vorgaben 1755
Wille 1755
rücken 1755
Konzern@@ 1754
erzielten 1754
gast@@ 1754
leitungen 1754
ungeachtet 1754
verbindungen 1754
12.@@ 1753
Amtszeit 1753
Arznei@@ 1753
Für@@ 1753
Gran@@ 1753
Parti@@ 1753
S. 1753
ance 1753
chtige 1753
ink 1753
vergeben 1753
Bewohner 1752
gegenseitige 1752
geld 1752
interpre@@ 1752
licht@@ 1752
maximale 1752
C5 1751
SS 1751
beschreibt 1751
bewaff@@ 1751
klär@@ 1751
änderung 1751
Abstimmungs@@ 1750
dru@@ 1750
empfiehlt 1750
gesprä@@ 1750
Filter 1749
Freizeit@@ 1749
Kapit@@ 1749
Los 1749
Mini@@ 1749
aufgerufen 1749
dend 1749
litten 1749
potenzi@@ 1749
reichung 1749
unerlässlich 1749
unzureichend 1749
Schattenberichterstat@@ 1748
azi@@ 1748
dachte 1748
26. 1747
Konferenzen 1747
berge 1747
bru@@ 1747
plätzen 1747
verzö@@ 1747
ê@@ 1747
Legislativ@@ 1746
fik@@ 1746
gesundhei@@ 1746
küste 1746
Free 1745
Jung@@ 1745
Kandidaten@@ 1745
bigen 1745
box 1745
endem 1745
fur@@ 1745
jek@@ 1745
samkeit 1745
schwier@@ 1745
bedienen 1744
zellen 1744
Express 1743
Schrift@@ 1743
forderte 1743
wohnt 1743
würdige 1743
zielen 1743
angenehme 1742
gesammelt 1742
parks 1742
Hotelsafe 1741
affung 1741
allen@@ 1741
auswärtige 1741
erneuerbare 1741
stoß 1741
äußerster 1741
Haushaltsplans 1740
ama 1740
aux 1740
makro@@ 1740
stag 1740
zimmern 1740
bis@@ 1739
konsequ@@ 1739
tlinie 1739
Bildschirm 1738
Burg 1738
Eng@@ 1738
Heimatland 1738
einzubeziehen 1738
falschen 1738
lei 1738
erläutern 1737
here 1737
Profil 1736
basierten 1736
dien 1736
ose 1736
spätestens 1736
womit 1736
Bilanz 1735
Klin@@ 1735
kä@@ 1735
sexuellen 1735
Beste 1734
Gefängnis 1734
Konkurrenz 1734
Thomas 1734
European 1733
basierte 1733
bedenken 1733
kritische 1733
minist@@ 1733
ost@@ 1733
Marina 1732
gefäl@@ 1732
geg@@ 1732
komfortablen 1732
restaurant 1732
Gesprächen 1731
Reaktionen 1731
aktion 1731
lie 1731
runde 1731
voneinander 1731
kontinuierlich 1730
solide 1730
wunderschöne 1730
ía 1730
Fußball@@ 1728
beizu@@ 1728
hor@@ 1728
Branchen 1727
Finanzmittel 1727
Konsultation 1727
Mont@@ 1727
Muster 1727
Ratsvorsitzes 1727
Vorsitzender 1727
außerord@@ 1727
dam@@ 1727
ever@@ 1727
produkt 1727
then 1727
verhe@@ 1727
Gute 1726
Mobiltelef@@ 1726
begrenzte 1726
keits@@ 1726
strenge 1726
Betroffenen 1725
Gewerkschaften 1725
Mann@@ 1725
Tö@@ 1725
aden@@ 1725
frag@@ 1725
rich 1725
geladen 1724
multi@@ 1724
onien 1724
vorange@@ 1724
Anbindung 1723
Bis@@ 1723
Kreativität 1723
Them@@ 1723
Verhand@@ 1723
fehl@@ 1723
Spri@@ 1722
automatische 1722
flexible 1722
had 1722
inischen 1722
transpar@@ 1722
umfassen@@ 1722
vielfältigen 1722
Kontra@@ 1721
Verantwortlichen 1721
bewahrt 1721
teilten 1721
verän@@ 1721
Öster@@ 1721
Anhang 1720
Linien 1720
blieb 1720
verlei@@ 1720
Aktien 1719
landschaft 1719
ordnungs@@ 1719
Governance 1718
angebotenen 1718
digte 1718
voran 1718
Garten@@ 1717
Scho@@ 1717
geo@@ 1717
ür 1717
Entschließungs@@ 1716
Mazedonien 1716
ausstattung 1716
fot@@ 1716
ranken 1716
Gebir@@ 1715
Port 1715
drucken 1715
getötet 1715
riff 1715
trennen 1715
verbesserte 1715
Aktualisierung 1714
beruhi@@ 1714
Darin 1713
Rahmenprogramm 1713
Renten@@ 1713
TO@@ 1713
enttäuscht 1713
gerech@@ 1713
kurzfristig 1713
statt@@ 1713
Adressen 1712
Sich@@ 1712
gesonder@@ 1712
92 1711
Illu@@ 1711
empf@@ 1711
ernste 1711
würfe 1711
Konfiguration 1710
äume 1710
Das@@ 1709
Litauen 1709
Portal 1709
Richtlinien@@ 1709
reform 1709
B5 1708
DER 1708
dün@@ 1708
orts 1708
Getrei@@ 1707
Lebensqualität 1707
bahnen 1707
discher 1707
fizi@@ 1707
lichste 1707
vorn 1707
Ähn@@ 1707
Cat@@ 1706
blichen 1706
gepf@@ 1706
islam@@ 1706
ökonom@@ 1706
Schwarz@@ 1705
beträchtliche 1705
breit 1705
exklu@@ 1704
legten 1704
Kreu@@ 1703
flexi@@ 1703
TE 1702
bili@@ 1702
reib@@ 1702
sicherungen 1702
Dep@@ 1701
Einschränkung 1701
Erfolgs@@ 1701
Koordin@@ 1701
berufliche 1701
klimati@@ 1701
Heran@@ 1700
Mes@@ 1700
Operation 1700
Zinsen 1700
abhängi@@ 1700
einzuhalten 1700
gewünscht 1700
negativ 1700
Krieg@@ 1699
ergi@@ 1699
proto@@ 1699
Gestatten 1698
grei@@ 1698
Industriel@@ 1697
Maastricht 1697
Schmer@@ 1697
fisch@@ 1697
lossenen 1697
rad@@ 1697
Aufforderung 1696
by@@ 1696
mithilfe 1696
Metro@@ 1695
urs 1695
ät 1695
Geschäften 1694
geeig@@ 1694
Rand@@ 1693
Textil@@ 1693
Tim@@ 1693
atives 1693
individu@@ 1693
kostenfrei 1693
schlechten 1693
ältere 1693
Innerhalb 1692
Tempo 1692
gewiesen 1692
problemlos 1692
siv@@ 1692
uen 1692
gesetzte 1691
luß 1691
53 1690
aktualisieren 1690
alternative 1690
gelegene 1690
normale 1690
tions 1690
trans@@ 1690
Güter@@ 1689
detaillierte 1689
droht 1689
stabilität 1689
Bewegungen 1688
Compu@@ 1688
Köln 1688
Laden 1688
Original 1688
Wettbewer@@ 1688
geräten 1688
mals 1688
publi@@ 1688
Scheitern 1687
Schle@@ 1687
assungen 1687
pal@@ 1687
terer 1687
Vizeprä@@ 1686
tisches 1686
56 1685
Royal 1685
Streit@@ 1685
ausgelöst 1685
inger 1685
konsolidi@@ 1685
nieren 1685
pfung 1685
vous 1685
Install@@ 1684
Tochter@@ 1684
Tä@@ 1684
Unterlagen 1684
veranstal@@ 1684
zentr@@ 1684
Kohärenz 1683
Taus@@ 1683
abe 1683
konzep@@ 1683
steuerung 1683
tiefe 1683
val@@ 1683
vorbehalten 1683
í 1683
Absichten 1682
Eigenschaft 1682
Jan@@ 1682
ausgewählten 1682
behin@@ 1682
geholfen 1682
keinesfalls 1682
q@@ 1682
tnis@@ 1682
verwalten 1682
ös 1682
Adobe 1681
EM 1681
Palästina 1681
Randlage 1681
off 1681
verabschie@@ 1681
71 1680
Gebühr 1680
geschlagen 1680
Aktivität 1679
Zurück@@ 1679
Bewertungen 1678
ahl 1678
versicherung 1678
wör@@ 1678
Kredite 1677
Lebensmitteln 1677
Einzelnen 1676
Geben 1676
Transaktionen 1676
ekte 1676
orientiert 1676
seri@@ 1676
Berichterstattern 1675
Föderation 1675
Integrations@@ 1675
Schnell@@ 1675
Sound 1675
Wild@@ 1675
schließ@@ 1675
ž@@ 1675
59 1674
hef@@ 1674
Gespräch 1673
Techniken 1673
Training 1673
frucht@@ 1673
kritisch 1673
stecken 1673
stran@@ 1673
2.0 1672
IV 1672
On@@ 1672
abili@@ 1672
alleine 1672
vorgesch@@ 1672
örtlichen 1672
erien 1671
faire 1671
kas@@ 1671
produzi@@ 1671
zusprechen 1671
Exper@@ 1670
Marktwirtschaft 1670
ausgewo@@ 1670
fangs 1670
materi@@ 1670
Freiwil@@ 1669
Neues 1669
Pic@@ 1669
Diam@@ 1668
Luf@@ 1668
PSE 1668
notwendi@@ 1668
tot@@ 1668
waff@@ 1668
Auslegung 1667
Jugoslawien 1667
aufgaben 1667
beobach@@ 1667
bus@@ 1667
mobile 1667
nutzbar 1667
Wachstumsp@@ 1666
genehm@@ 1666
noten 1666
physi@@ 1666
zel@@ 1666
üh@@ 1666
Geschäft@@ 1664
Schil@@ 1663
brech@@ 1663
erläutert 1663
glei@@ 1663
irgendwo 1663
stärkeren 1663
stößt 1663
Geräten 1662
Medizin 1662
Sha@@ 1662
diger 1662
meldungen 1662
ologi@@ 1662
sauber 1662
ökologische 1662
Island 1661
Migrations@@ 1661
Umweltschutz@@ 1661
Zul@@ 1661
ausgewogenen 1661
bul@@ 1661
ingt 1661
Initiativ@@ 1660
Quoten 1660
Wertsch@@ 1660
ationale 1660
fizierungs@@ 1660
vereinfachen 1660
ves 1660
bildungs@@ 1659
teuer 1659
vierte 1659
Vermittlung 1658
5,@@ 1657
Sowjetunion 1657
Wissens@@ 1657
Zwangs@@ 1657
akzept@@ 1657
franzö@@ 1657
stücke 1657
Alpen 1656
erischen 1656
teure 1656
Charme 1655
Gerichten 1655
Instrumenten 1655
Wetter 1655
Wort@@ 1655
expor@@ 1655
gewählte 1655
Getränke 1654
ating 1654
ret@@ 1654
Freuen 1653
esti@@ 1653
vereinbar@@ 1653
vorteil@@ 1653
Komplettpreise 1652
atten 1652
sport@@ 1652
· 1652
Gemäß 1651
Tou@@ 1651
beach@@ 1651
Entwicklungszusammenarbeit 1650
Gärten 1650
Kernkraft@@ 1650
Rek@@ 1650
Verstärkung 1650
pole 1650
ruf 1650
Dienstleistung 1649
J 1649
Wald 1649
abzielen 1649
empfin@@ 1649
inc@@ 1649
ora 1649
BO@@ 1648
industri@@ 1648
reale 1648
Jahrzehnte 1647
Nam@@ 1647
Sozialdemokraten 1647
größe 1647
mente 1647
ç@@ 1647
HT@@ 1646
führungen 1646
mitgeteilt 1646
qualifizierten 1646
rec@@ 1646
nat@@ 1645
schluss 1645
Gegenwart 1644
Innovations@@ 1644
Lieb@@ 1644
Tschechischen 1644
Typ@@ 1644
effektiver 1644
ello 1644
änen 1644
übergeben 1644
endgültig 1643
feiern 1643
real 1643
Clubs 1642
ablen 1642
integri@@ 1642
66 1641
Banken@@ 1641
CS 1641
Experim@@ 1641
klarer 1641
teilgenommen 1641
Гј@@ 1641
By@@ 1640
Lager@@ 1640
Metall@@ 1640
Zahn@@ 1640
erfolgte 1640
erfreu@@ 1640
gebilligt 1640
gefangen 1640
Assoziierungs@@ 1639
Frequ@@ 1639
Indem 1639
Lehre 1639
ausführen 1639
gebau@@ 1639
steigenden 1639
ätz@@ 1639
58 1638
Nahrungs@@ 1638
portugiesischen 1638
schwi@@ 1638
Überra@@ 1638
Budget 1637
Umsatz 1637
bearbeitet 1637
ends 1637
englischen 1637
fertigt 1637
status 1637
vermögen 1637
wenigstens 1637
EWG 1636
Storni@@ 1636
Verbrech@@ 1636
austau@@ 1636
begangen 1636
ics 1636
Flugzeuge 1635
Stabilitäts- 1635
eigenem 1635
herauszu@@ 1635
hilfen 1635
kg 1635
verhandeln 1635
Opfern 1634
erre@@ 1634
fehler@@ 1634
musikali@@ 1634
ton@@ 1634
verehrten 1634
Herrschaft 1633
Vertei@@ 1633
arische 1633
befug@@ 1633
city 1633
einzelstaatlichen 1633
fris@@ 1633
niedriger 1633
registriert 1633
äck@@ 1633
Minibar 1632
beschei@@ 1632
irgendwelche 1632
lehnen 1632
name 1632
uter 1632
züglich 1632
German 1631
ministerium 1631
widri@@ 1631
Bergen 1630
Islam 1630
denselben 1630
gewachsen 1630
jahre@@ 1630
zurückkehren 1630
Well@@ 1629
befürworte 1629
eingebunden 1629
griff 1629
schlage 1629
Fax 1628
auszuüben 1628
durchgeführten 1628
enfalls 1628
friedlichen 1628
tradition@@ 1628
änder@@ 1628
Kabel@@ 1627
Legitimität 1627
Real@@ 1627
Weiterbildung 1627
Zimmerservice 1627
enne 1627
ess 1627
Erkenntnisse 1626
Frühjahr 1626
verwen@@ 1626
Bir@@ 1625
Rechnung@@ 1625
konzept 1625
1,5 1624
Bot@@ 1624
Freih@@ 1624
mas 1624
mmen 1624
mus@@ 1624
wiesen 1624
с@@ 1624
Arbeiter 1623
betten 1623
räu@@ 1623
Entschließungen 1622
Foundation 1622
Malta 1622
Wen@@ 1622
konsul@@ 1622
vernach@@ 1622
zusammenzuarbeiten 1622
Investition 1621
Rein@@ 1621
Zufriedenheit 1621
bewertung 1621
konfli@@ 1621
kund@@ 1621
ünsti@@ 1621
Partnerschaften 1620
Sig@@ 1620
Soweit 1620
hn@@ 1620
schieben 1620
Dritter 1619
Py@@ 1619
enorm 1619
komplex 1619
kore@@ 1619
nom@@ 1619
porte@@ 1619
schlü@@ 1619
nem 1618
old 1618
weich@@ 1618
Überwachungs@@ 1618
Insel@@ 1617
fenster 1617
stur@@ 1617
Kommissare 1616
Sony 1616
Zins@@ 1616
angeschlossen 1616
debat@@ 1616
genehmigt 1616
kunden@@ 1616
Anwen@@ 1615
Optimierung 1615
chtig 1615
gesellschaftliche 1615
bischen 1614
gesunden 1614
vielsei@@ 1614
analysieren 1613
angelegt 1613
anter 1613
boden 1613
trauri@@ 1613
zten 1613
Armuts@@ 1612
gigen 1612
gutem 1612
oberen 1612
währ@@ 1612
Französisch 1611
UNG 1611
gewinn@@ 1611
Fehlen 1610
Realisierung 1610
berechtigten 1610
geschei@@ 1610
Glob@@ 1609
Terra@@ 1609
Vorsitzende 1609
angefangen 1609
niederländischen 1609
ologien 1609
versehen 1609
weitreich@@ 1609
ürzt 1609
IP@@ 1608
Schö@@ 1608
entscheidet 1608
passende 1608
ran 1608
ssig@@ 1608
Beobachter 1607
Kle@@ 1607
Kluft 1607
Schü@@ 1607
lässig@@ 1607
pol 1607
27. 1606
6,@@ 1606
Christdemokraten 1606
Inn@@ 1606
Inneres 1606
Nation@@ 1606
Tem@@ 1606
Work@@ 1606
eil 1606
non 1606
seiten 1606
Community 1605
beeinträchtigt 1605
landes 1605
schlimmer 1605
ystem 1605
Anweisungen 1604
Hab@@ 1604
Organen 1604
Professor 1604
brenn@@ 1604
jährliche 1604
Got@@ 1603
Niemand 1603
antrag 1603
asen 1603
hand 1603
steckt 1603
DA 1602
ausgesch@@ 1602
zeitgenös@@ 1601
Autob@@ 1600
University 1600
Unterhaltung 1600
elemente 1600
free 1600
rechn@@ 1600
Dok@@ 1599
Konzep@@ 1599
dopp@@ 1599
einzurichten 1599
ignorieren 1599
Distri@@ 1598
Künstler@@ 1598
agentur 1598
eingereichten 1598
einzel@@ 1598
interessieren 1598
wahl@@ 1598
Behin@@ 1597
Pension 1597
bereitung 1597
fter 1597
parallel 1597
regul@@ 1597
thin 1597
verstoßen 1597
Alltag 1596
Heiligen 1596
Konstruktion 1596
Taiwan 1596
steu@@ 1596
Check 1595
Kompromis@@ 1595
Zugangs 1595
durchsetzen 1595
interessi@@ 1595
more 1595
AD 1594
Empfänger 1594
Vel@@ 1594
disch 1594
konzipiert 1594
sämtlichen 1594
xis 1594
Konflikts 1593
Ram@@ 1593
bevorzu@@ 1593
bindung 1593
einzelner 1593
halts@@ 1593
lagern 1593
Effekte 1592
Koordination 1592
Rand 1592
SE 1592
Wikitravel 1592
geführten 1592
visu@@ 1592
zell@@ 1592
Beruf 1591
Libyen 1591
Repräsent@@ 1591
büro 1591
eleg@@ 1591
err@@ 1591
rasche 1591
trieb@@ 1591
ó 1591
blu@@ 1590
cal@@ 1590
schungen 1590
Analysen 1589
Instruments 1589
Start@@ 1589
ansonsten 1589
bit 1589
Gesellschafts@@ 1588
avec 1588
finanzieller 1588
gewiss 1588
kenntnis 1588
verankert 1588
57 1587
Eth@@ 1587
Unabhängi@@ 1587
befriedi@@ 1587
realisieren 1587
weiterzu@@ 1587
ère 1587
Abstimmungen 1586
gefasst 1586
wofür 1586
Brau@@ 1585
Gesetzes 1585
Top@@ 1585
Transfer 1585
digten 1585
fon@@ 1585
Geschlechter 1584
Las 1584
Stattdessen 1584
reiben 1584
stän@@ 1584
verwaltet 1584
wenigsten 1584
Kul@@ 1583
Pflege 1583
aufrechterhalten 1583
gegenseitig 1583
gerichtete 1583
namen 1583
Ferien 1582
effektiven 1582
gäbe 1582
odi@@ 1582
Bedingung 1581
Feier@@ 1581
Hektar 1581
Leist@@ 1581
kommens 1581
tat 1581
Ein- 1580
Es@@ 1580
Flugzeug 1580
Slowenien 1580
Weißbuch 1580
bezogene 1580
ecks 1580
Massage 1579
blatt 1579
einziges 1579
mot@@ 1579
müsse 1579
spartn@@ 1579
ypen 1579
67 1578
Grundfreiheiten 1578
Merk@@ 1578
dri@@ 1578
gio 1578
schützt 1578
unterwegs 1578
Beendigung 1577
Vizepräsident 1577
japanischen 1577
konstruktiven 1577
thilfe 1577
wachsen@@ 1577
Meister@@ 1576
Seever@@ 1576
Verzögerungen 1576
kan 1576
ly@@ 1576
ses@@ 1576
wurfs 1576
Aufnahmen 1575
Motto 1575
Zugleich 1575
agieren 1575
ani 1575
aufweisen 1575
beider 1575
beschreiben 1575
forderten 1575
ih@@ 1575
nament@@ 1575
stärkt 1575
schaden 1574
wendungen 1574
Kommissionsvorschlag 1573
Tunesien 1573
ais 1573
außergewöhn@@ 1573
hersteller 1573
information 1573
samen 1573
sicherheits@@ 1573
stritten 1573
türkische 1573
в@@ 1573
Ernährungs@@ 1572
Genuss 1572
Trends 1572
krank@@ 1572
ließt 1572
registri@@ 1572
zeuge 1572
AN 1571
Europä@@ 1571
Kirchen 1571
Moskau 1571
Vorwand 1571
emissionen 1571
europä@@ 1571
händler 1571
pla@@ 1571
ú@@ 1571
Anhänger 1570
Desktop 1570
Diensten 1570
Kit@@ 1570
Sec@@ 1570
Textes 1570
analy@@ 1570
flug 1570
monat@@ 1570
vieren 1570
LE 1569
birgt 1569
fahrten 1569
geräum@@ 1569
internationales 1569
xe 1569
begleiten 1568
beseitigt 1568
eder@@ 1568
finanziell 1568
samm@@ 1568
vorsichtig 1568
Übersetzungs@@ 1568
örung 1568
Kö@@ 1567
bank@@ 1567
begeist@@ 1567
eur@@ 1567
namens 1567
nord@@ 1567
traum 1567
wichti@@ 1567
zigen 1567
Arbeitsweise 1566
Tatsachen 1566
geordnet 1566
igten 1566
lege 1566
sexu@@ 1566
Defizite 1565
schlechter 1565
fach 1564
gesell@@ 1564
parlamentarische 1564
schein 1564
schulden 1564
süd@@ 1564
Et@@ 1563
I. 1563
Luftfahrt@@ 1563
Referenz@@ 1563
Solar@@ 1563
bedauern 1563
eindrucks@@ 1563
institu@@ 1563
modernes 1563
verträ@@ 1563
Wie@@ 1562
breakfast 1562
interessen 1562
streit@@ 1562
Arbeitskräfte 1561
Front 1561
ader 1561
hne 1561
Bezahlung 1560
diensten 1560
errichten 1560
gische 1560
lia 1560
natür@@ 1560
IK@@ 1559
Schatten 1559
Up@@ 1559
agne 1559
harte 1559
ron 1559
Afri@@ 1558
Anregungen 1558
Puerto 1558
benannt 1558
irgendeiner 1558
lock@@ 1558
sprä@@ 1558
sters 1558
Aussichten 1557
Fragestunde 1557
Vergnügen 1557
Wartung 1556
bereitzustellen 1556
forderung 1556
light 1556
mar 1556
näh@@ 1556
Gewinner 1555
Palace 1555
Untersuchungs@@ 1555
biet@@ 1555
ruhen 1555
zutiefst 1555
öffent@@ 1555
überlegen 1555
Danke 1554
Jahresbericht 1554
größt@@ 1554
t- 1554
vorherigen 1554
zeigten 1554
Kreuz@@ 1553
Tourismus@@ 1553
bestimmung 1553
ligt 1553
ska 1553
tivi@@ 1553
äf@@ 1553
üblich 1553
Hof 1552
Rem@@ 1552
betreuung 1552
hte 1552
schn@@ 1552
verhandlungen 1552
verkauf 1552
isti@@ 1551
para 1551
ströme 1551
Albanien 1550
Problem@@ 1550
St 1550
jed@@ 1550
Menschenhandel 1549
Tar@@ 1549
angehören 1549
gerichteten 1549
kommende 1549
mündliche 1549
pour 1549
vergleichen 1549
Ank@@ 1548
Audio@@ 1548
Schne@@ 1548
achte 1548
¼ 1548
Vereinigung 1547
Verzögerung 1547
gehörigkeit 1547
Abenteuer 1546
Ed@@ 1546
Ged@@ 1546
hause 1546
Bran@@ 1545
Ereignissen 1545
Ernährung 1545
Lich@@ 1545
Standpunkte 1545
begrenzten 1545
lam@@ 1545
neben@@ 1545
schnelles 1545
Corporate 1544
Präzi@@ 1544
Rande 1544
Stock 1544
engagiert 1544
zumal 1544
Differ@@ 1543
PRO@@ 1543
hervorra@@ 1543
Rahmens 1542
beitreten 1542
gerechten 1542
kali@@ 1542
positionen 1542
schriften 1542
Automati@@ 1541
Designer 1541
Zusammenbruch 1541
fristig 1541
nes 1541
rän@@ 1541
schwerer 1541
verhäl@@ 1541
wiederhol@@ 1541
wirkungen 1541
Mot@@ 1540
gravier@@ 1540
landwirtschaftliche 1540
probieren 1540
riesige 1540
work 1540
Effektivität 1539
Empfang 1539
Ost 1539
Rak@@ 1539
vorherige 1539
wünschenswert 1539
Beratungs@@ 1538
Beweise 1538
dauerhafte 1538
friedliche 1538
mul@@ 1538
ong@@ 1538
Binnenmarkts 1537
Heil@@ 1537
Korrek@@ 1537
familien@@ 1537
kultur 1537
van@@ 1537
Ausgleich 1536
Gelegenheiten 1536
Leid 1536
Perspektiven 1536
Pilot@@ 1536
Spielraum 1536
Trink@@ 1536
elli@@ 1536
engagi@@ 1536
erreichte 1536
kontroll@@ 1536
sorgfäl@@ 1536
Cou@@ 1535
Mili@@ 1535
Partei@@ 1535
einig@@ 1535
just 1535
klares 1535
vention@@ 1535
zeitig 1535
Autoren 1534
Schlag@@ 1534
Süd 1534
TS 1533
anderswo 1533
gleicher 1533
Intelli@@ 1532
schaf@@ 1532
unterstreicht 1532
äufe 1532
angeben 1531
begreifen 1531
defizit 1531
erworben 1531
ffene 1531
gang@@ 1531
ous@@ 1531
tägliche 1531
2015 1530
Erkenn@@ 1530
Parlamenten 1530
frist 1530
niedrig 1530
set@@ 1530
88 1529
Beruf@@ 1529
Halle 1529
Integrität 1529
Lösungs@@ 1529
Publi@@ 1529
Tendenz 1529
fluss 1529
institutionen 1529
mission 1529
schuldig 1529
typische 1529
Rit@@ 1528
projek@@ 1528
ulen 1528
zerstör@@ 1528
Hinsichtlich 1527
Mani@@ 1527
bilder 1527
defin@@ 1527
haltenen 1527
sk 1527
Administration 1526
Bett 1526
Canon 1526
Moder@@ 1526
See@@ 1526
Vorbereitungen 1526
bezahl@@ 1526
fliegen 1526
inst@@ 1526
therapie 1526
Abgesehen 1525
Acht 1525
Mobile 1525
stration 1525
ungarischen 1525
unterhalten 1525
verbrau@@ 1525
Frü@@ 1524
Informationsgesellschaft 1524
Registri@@ 1524
Zit@@ 1524
streichen 1524
Finanziellen 1523
Life 1523
suite 1523
Manche 1522
block@@ 1522
â@@ 1522
aket 1521
ies 1521
mie 1521
schrau@@ 1521
Bul@@ 1520
Gleichbehandlung 1520
arm 1520
chtigkeit 1520
reine 1520
Bisher 1519
Ernennung 1519
Fortschrit@@ 1519
Ran@@ 1519
gab@@ 1519
kommerzielle 1519
stab@@ 1519
Ankündigung 1518
Fes@@ 1518
MA 1518
Welthandelsorganisation 1518
aufgehoben 1518
freies 1518
iler 1518
kompatibel 1518
müßte 1518
89 1517
Besonderheiten 1517
eder 1517
© 1517
Rats@@ 1516
Tun@@ 1516
rou@@ 1516
Energieversorgung 1515
Vergleich@@ 1515
dein 1515
mitzu@@ 1515
Bern@@ 1514
Fün@@ 1514
strafrech@@ 1514
Geschenk 1513
Leh@@ 1513
jahres@@ 1513
sh 1513
77 1512
Galerie 1512
Home 1512
belgischen 1512
betrag 1512
hebt 1512
implemen@@ 1512
ni 1512
unterliegt 1512
Archiv 1511
Konflikten 1511
bene 1511
bestens 1511
gefällt 1511
ye 1511
Höh@@ 1510
Vorredner 1510
93 1509
Ausnahmeregel@@ 1509
Dienst@@ 1509
Pin@@ 1509
Präsidium 1509
emo@@ 1509
grüne 1509
haftet 1509
priv@@ 1509
Attraktionen 1508
Folglich 1508
Hilfen 1508
View 1508
Virus 1508
Zü@@ 1508
ebene 1508
griechische 1508
hinzuweisen 1508
reit@@ 1508
spruch 1508
veaus 1508
Abstand 1507
Einsch@@ 1507
biologischen 1507
ertem 1507
exklusiven 1507
mittag 1507
moder@@ 1507
überwiegend 1507
AP@@ 1506
Entdecken 1506
ann 1506
ekt 1506
Büro@@ 1505
Eigentums@@ 1505
Gum@@ 1505
Hochschul@@ 1505
reiz@@ 1505
ua 1505
vierten 1505
Betriebssystem 1504
Clu@@ 1504
Karriere 1504
Reserve 1504
cou@@ 1504
ermaßen 1504
exzell@@ 1504
gebrochen 1504
genes 1504
griff@@ 1504
vielfalt 1504
Flüchtlings@@ 1503
Religions@@ 1503
inos 1503
sist@@ 1503
spei@@ 1503
Implementierung 1502
Jag@@ 1502
Stich@@ 1502
lech@@ 1502
lück@@ 1502
schaftlichen 1502
taten 1502
ulieren 1502
versetzt 1502
Christen 1501
arab@@ 1501
frischen 1501
jeweilige 1501
nachhal@@ 1501
trü@@ 1501
Ursprung 1500
abzielt 1500
intelli@@ 1500
xer 1500
Breit@@ 1499
biets 1499
ernden 1499
löst 1499
zwangsläufig 1499
Asi@@ 1498
Reh@@ 1498
beleu@@ 1498
deinen 1498
halb@@ 1498
islamischen 1498
lägen 1498
sexuelle 1498
zerstören 1498
CE 1497
Mitentscheidungs@@ 1497
Spor@@ 1497
Tak@@ 1497
nützliche 1497
ruhiger 1497
stischer 1497
unabding@@ 1497
verhältnisse 1497
verständ@@ 1497
Ech@@ 1496
erbar 1496
sender 1496
terrasse 1496
vorkommen 1496
wachst@@ 1496
weißen 1496
Gaza 1495
Kontin@@ 1495
amtierender 1495
hiermit 1495
menten 1495
Content 1494
Islam@@ 1494
flächen@@ 1494
registrieren 1494
Av@@ 1493
Doha 1493
Sex@@ 1493
Stein 1493
bor@@ 1493
card 1493
82 1492
Anzeichen 1492
Wahrscheinlichkeit 1492
durchgesetzt 1492
vermis@@ 1492
vorschlägt 1492
Än@@ 1492
Berater 1491
Mehrwertsteuer 1491
Musi@@ 1491
fühlt 1491
leitet 1491
schrieben 1491
wäs@@ 1491
Übersetzungen 1491
Ganzes 1490
Mallorca 1490
anstreben 1490
ix 1490
projekten 1490
Besitzer 1489
Digital 1489
Flotte 1489
Jahrzehnt 1489
ensystem 1489
etri@@ 1489
gipfel 1489
reguli@@ 1489
top@@ 1489
Netzes 1488
Servic@@ 1488
Ungleichheit 1488
ces 1488
eff@@ 1488
spielte 1488
Pack@@ 1487
aufwand 1487
rums 1487
utzen 1487
ð@@ 1487
Vermeidung 1486
aufeinander 1486
zahlreicher 1486
änderungs@@ 1486
Fahrzeug@@ 1485
aktivitäten 1485
centre 1485
defiz@@ 1485
unmittelbaren 1485
wozu 1485
ölle 1485
AR 1484
Gebiet@@ 1484
Mitwirkung 1484
bereitstellen 1484
bricht 1484
diesmal 1484
ermitteln 1484
genü@@ 1484
glücklich 1484
stabile 1484
Abfälle 1483
Auseinandersetzung 1483
Brutto@@ 1483
bedien@@ 1483
unvergess@@ 1483
verschieben 1483
Pir@@ 1482
Unternehmen@@ 1482
größtenteils 1482
lands@@ 1482
Gran 1481
Ner@@ 1481
Reak@@ 1481
Simbabwe 1481
Team@@ 1481
inieren 1481
junger 1481
natur@@ 1481
shaushalt 1481
tätigkeit 1481
verschlech@@ 1481
Baby@@ 1480
Ken@@ 1480
aterie 1480
biegen 1480
isse 1480
konto 1480
nö@@ 1480
Arbeitslosen@@ 1479
Cha@@ 1479
iere 1479
ausgedrückt 1478
bist 1478
regen 1478
Dampf@@ 1477
OM@@ 1477
Ursprungs@@ 1477
geklärt 1477
ün 1477
Installations@@ 1476
XP 1476
anne 1476
biger 1476
verknüpft 1476
EW@@ 1475
Playa 1475
TI@@ 1475
Umstrukturierung 1475
arm@@ 1475
ausgewogene 1475
drück@@ 1475
erbaut 1475
hinein 1475
kön@@ 1475
Benach@@ 1474
Montage 1474
Stahl 1474
deutsch@@ 1474
getrenn@@ 1474
jo 1474
parti@@ 1474
Aufrechterhaltung 1473
Blick@@ 1473
ktoren 1473
pf 1473
AIDS 1472
altern@@ 1472
leihen 1472
samer 1472
tausende 1472
SAP 1471
auseinander 1471
intensiven 1471
netze 1471
schneiden 1471
vorbe@@ 1471
Besuchern 1470
Dringlichkeit 1470
Nuklear@@ 1470
führender 1470
Feuer 1469
ca@@ 1469
live 1469
verbieten 1469
Gerä@@ 1468
Verkäufer 1468
gesunde 1468
klausel 1468
Data 1467
Dienstag 1467
Rü@@ 1467
erie 1467
inbegriffen 1467
korrigieren 1467
mengen 1467
Betre@@ 1466
Betrugs@@ 1466
Fur@@ 1466
Petitions@@ 1466
Sicherheitsrat 1466
idealen 1466
reiber 1466
seits 1466
speich@@ 1466
zungen 1466
Devisen@@ 1465
Euror@@ 1465
Mah@@ 1465
Seen 1465
Studium 1465
asiatischen 1465
ball 1465
plant 1465
Argentinien 1464
bot 1464
künstler@@ 1464
personal 1464
pfe 1464
üben 1464
Demokratien 1463
Frage@@ 1463
anger@@ 1463
ausger@@ 1463
museum 1463
Öko@@ 1463
62 1462
Fernseher 1462
Zusammen 1461
ausgearbeitet 1461
schrieb 1461
Erste 1460
SD@@ 1460
Sensibili@@ 1460
anzugehen 1460
lohnt 1460
ssigen 1460
Blan@@ 1459
Minderheiten@@ 1459
Nat@@ 1459
ema 1459
entran@@ 1459
kreu@@ 1459
loses 1459
ühr@@ 1459
Buchungs@@ 1458
Entstehung 1458
Wü@@ 1458
Zielsetzung 1458
blä@@ 1458
potenti@@ 1458
7,@@ 1457
Budapest 1457
Flüchtlingen 1457
Massa@@ 1457
Zulassung 1457
bereichs 1457
besseres 1457
problemati@@ 1457
rägern 1457
uliert 1457
umgekehrt 1457
zuverlässig 1457
Party 1456
bewe@@ 1456
Hit@@ 1455
Lon@@ 1455
Ufer 1455
ests 1455
jo@@ 1455
schöner 1455
wesens 1455
Linken 1454
Nachbarschaftspolitik 1454
TH@@ 1454
Wit@@ 1454
emandem 1454
sinn 1454
Atlan@@ 1453
Erreichen 1453
Inhaber 1453
Mini 1453
ade@@ 1453
ando 1453
gabe@@ 1453
78 1452
Kandi@@ 1452
PC@@ 1452
Reichtum 1452
Territorium 1452
bedeutend 1452
maßgeb@@ 1452
reduzi@@ 1452
tional 1452
verti@@ 1452
Aufruf 1451
Dach 1451
Entspannen 1451
Fir@@ 1451
Annäherung 1450
Brief 1450
messe 1450
nachvoll@@ 1450
umfassendes 1450
verleiht 1450
Ali@@ 1449
Behinderungen 1449
Infrastrukturen 1449
din@@ 1449
Kurse 1448
Mittel- 1448
zukunfts@@ 1448
Hoh@@ 1447
Meg@@ 1447
Ty@@ 1447
Zwecken 1447
abel@@ 1447
analysiert 1447
schnitte 1447
ttern 1447
zeitraum 1447
Genf 1446
Säule 1446
bekräftigen 1446
fundament@@ 1446
gegebenen 1446
institution@@ 1446
pass 1446
BMW 1445
Eig@@ 1445
Flüge 1445
bemerken 1445
deutlicher 1445
gebenden 1445
nachzudenken 1445
serv@@ 1445
sozusagen 1445
strategien 1445
ume 1445
ust 1445
GVO 1444
Geschle@@ 1444
Oli@@ 1444
Solange 1444
besagt 1444
energie 1444
fertigen 1444
herrliche 1444
heu@@ 1444
nennt 1444
verschoben 1444
wen 1444
Bedienung 1443
Hügel 1443
anstelle 1443
assungs@@ 1443
systematisch 1443
verbot 1443
Metern 1442
Tennis@@ 1442
Trennung 1442
enha@@ 1442
keit 1442
wahrnehmen 1442
Cra@@ 1441
Index 1441
ausgelegt 1441
fehlende 1441
ganz@@ 1441
schreit@@ 1441
öffnete 1441
Angel@@ 1440
dali@@ 1440
fertig@@ 1440
geltend 1440
schmerz@@ 1440
selbe 1440
strik@@ 1440
zukünftig 1440
zuverlässi@@ 1440
Glaub@@ 1439
Gleichheit 1439
Nacht@@ 1439
Stei@@ 1439
Versuch@@ 1439
Vir@@ 1439
hüb@@ 1439
mie@@ 1439
verstärkten 1439
App@@ 1438
Zentralbanken 1438
höh@@ 1438
versuche 1438
AC 1437
Ostsee 1437
banken 1437
skosten 1437
Solidaritäts@@ 1436
ille 1436
verbesser@@ 1436
Fast 1435
Indikatoren 1435
Nahrungsmittel 1435
Pr@@ 1435
Reich 1435
Tickets 1435
bevor@@ 1435
gefolgt 1435
Ausgang 1434
Interessen@@ 1434
Karten@@ 1434
Progno@@ 1434
Ambi@@ 1433
Argum@@ 1433
aci@@ 1433
indirekt 1433
mehrerer 1433
Begriffe 1432
Blut 1432
Durchschnitt 1432
Inflations@@ 1432
Reser@@ 1432
Saf@@ 1432
Sicherheits- 1432
bach 1432
info 1432
investitionen 1432
kompliziert 1432
vorangegangenen 1432
Dum@@ 1431
ET 1431
EVP 1431
Fristen 1431
Sper@@ 1431
eger 1431
hütung 1431
kulin@@ 1431
weisungen 1431
¶ 1431
Energies@@ 1430
Gew@@ 1430
Mom@@ 1430
exklusive 1430
analyse 1429
reibung 1429
Gefangenen 1428
Generalsekretär 1428
Taste 1428
kompletten 1428
sle@@ 1428
Box 1427
Einwände 1427
Informations- 1427
Ky@@ 1427
ferenzen 1427
ico 1427
komfortabel 1427
lüssen 1427
wis@@ 1427
Mauer 1426
Unserer 1426
Visa 1426
ash@@ 1426
belegt 1426
zö@@ 1426
о@@ 1426
Eigentümer 1425
Nichtregierungsorganisationen 1425
ami 1425
ania 1425
gekauft 1425
lags 1425
längere 1425
Trag@@ 1424
wick@@ 1424
Reihenfolge 1423
Skla@@ 1423
Statistik 1423
Tibet 1423
autom@@ 1423
entschei@@ 1423
fahrzeugen 1423
läge 1423
moralische 1423
tnis 1423
vernünftigen 1423
Ersatz 1422
betrug 1422
glück@@ 1422
irre@@ 1422
programmi@@ 1422
rachte 1422
refle@@ 1422
schiff 1422
unzureich@@ 1422
verwand@@ 1422
Aufenthal@@ 1421
Datenbanken 1421
Est@@ 1421
HIV 1421
Internetseite 1421
Point 1421
Statt 1421
agra@@ 1421
annte 1421
regelmäßigen 1421
stehe 1421
Frankreichs 1420
Fun@@ 1420
Komponente 1420
Ton 1420
Bli@@ 1419
Elementen 1419
bestä@@ 1419
bi 1419
orten 1419
ourc@@ 1419
vorrangig 1419
Statut 1418
dazu@@ 1418
primi@@ 1418
sendet 1418
shofs 1418
Ecke 1417
eingerichtete 1417
genauen 1417
AP 1416
Ausstellungen 1416
freiem 1416
reicher 1416
unteren 1416
verwirklicht 1416
Arzt 1415
Indonesien 1415
geänder@@ 1415
kommission 1415
personenbezogenen 1415
vermu@@ 1415
Haushaltsjahr 1414
Kompromisse 1414
Lobby 1414
Redebei@@ 1414
Wahr@@ 1414
begab 1414
einma@@ 1414
jähriger 1414
klassische 1414
stunde 1414
Flug 1413
Impulse 1413
allgem@@ 1413
bliche 1413
einheit 1413
energ@@ 1413
only 1413
prüfung 1413
wirkung 1413
Café 1412
Geldpolitik 1412
Intensi@@ 1412
Juden 1412
Wahrnehmung 1412
haus@@ 1412
rig@@ 1412
wus@@ 1412
Fli@@ 1411
Hard@@ 1411
SQL 1411
Wach@@ 1411
Zug@@ 1411
ean 1411
Fahrrad@@ 1410
Person@@ 1410
abgesch@@ 1410
befür@@ 1410
kapit@@ 1410
Kommentar 1409
Reden 1409
Stellenwert 1409
Tech 1409
Verhältnisse 1409
einzustellen 1409
illi@@ 1409
Fleisch@@ 1408
religiöse 1408
schönes 1408
stein@@ 1408
web@@ 1408
dauerhaften 1407
einbringen 1407
schwedische 1407
tatsächliche 1407
weitem 1407
wolle 1407
Anreiz 1406
Außengrenzen 1406
Az@@ 1406
DC 1406
Einheiten 1406
Ratspräsidenten 1406
Treiber 1406
Verantwortungs@@ 1406
Währungen 1406
stoppen 1406
strationen 1406
zulässig 1406
Deb@@ 1405
Gefäng@@ 1405
gesorgt 1405
koh@@ 1405
rahmens 1405
verbindlich 1405
zugän@@ 1405
Dafürhalten 1404
Hans 1404
anspruchs@@ 1404
cc@@ 1404
halts 1404
nah 1404
strasse 1404
stätte 1404
wäh@@ 1404
bedingt 1403
beeinträchtigen 1403
einheiten 1403
erlau@@ 1403
koordinieren 1403
partner 1403
prot@@ 1403
starker 1403
top 1403
versi@@ 1403
kanz@@ 1402
kommunistischen 1402
ünde 1402
Entschädigung 1401
Finanz- 1401
Passagi@@ 1401
Stütz@@ 1401
abgehalten 1401
lässigen 1401
verfüg@@ 1401
Event 1400
Freie 1400
Play@@ 1400
ause 1400
beantragt 1400
ce@@ 1400
dreht 1400
Empfän@@ 1399
Gö@@ 1399
Treibhausgas@@ 1399
Vista 1399
a.@@ 1399
beträ@@ 1399
dänischen 1399
firmen 1399
mangelnde 1399
maß 1399
Naturkatastrophen 1398
Vorbild 1398
beglei@@ 1398
giert 1398
strö@@ 1398
Aufwand 1397
Wiener 1397
geschätz@@ 1397
igkeiten 1397
tritts@@ 1397
Tel 1396
arte 1396
gratis 1396
initi@@ 1396
messer 1396
untereinander 1396
übersetzt 1396
Klar@@ 1395
atorium 1395
mittlung 1395
öhnung 1395
Diktatur 1394
Kreis 1394
Vielmehr 1394
profi@@ 1394
technologie 1394
63 1393
Board 1393
Chem@@ 1393
Völkern 1393
ersuchen 1393
neter 1393
new 1393
verglichen 1393
verschiedensten 1393
vertei@@ 1393
verwöhnen 1393
Put@@ 1392
anwend@@ 1392
chem@@ 1392
under 1392
ältesten 1392
Breakfast 1391
aktiver 1391
bürger@@ 1391
fair 1391
io 1391
ulierung 1391
verliert 1391
verschul@@ 1391
votes 1391
Autonomie 1390
Befehl 1390
Cu@@ 1390
Einwohnern 1390
Fähr@@ 1390
Reb@@ 1390
wissenschaften 1390
Feld@@ 1389
Inanspruchnahme 1389
Leidenschaft 1389
Mitgliedsstaaten 1389
Orts@@ 1389
chron@@ 1389
häusern 1389
korrekte 1389
Boo@@ 1388
berechtigung 1388
gelöscht 1388
ordnen 1388
xes 1388
zin@@ 1388
ès 1388
dol@@ 1387
glie@@ 1387
unvermei@@ 1387
91 1386
Bestand@@ 1386
Pack 1386
Steu@@ 1386
TA 1386
Zut@@ 1386
berühm@@ 1386
dä@@ 1386
zuräumen 1386
Anders 1385
Exek@@ 1385
Mühe 1385
gründlich 1385
spre@@ 1385
vorzuschlagen 1385
Automobilindustrie 1384
CE@@ 1384
Charak@@ 1384
Demokratisierung 1384
Geltungs@@ 1384
Hoheits@@ 1384
chts 1384
iPhone 1384
part 1384
schil@@ 1384
Hom@@ 1383
Lap@@ 1383
Service@@ 1383
Sozialpolitik 1383
Telekommunikations@@ 1383
dauerhaft 1383
erhol@@ 1383
fließen 1383
jähri@@ 1383
sig@@ 1383
tin@@ 1383
tü@@ 1383
ł@@ 1383
Geschäftsbedingungen 1382
Portu@@ 1382
Temperatur 1382
gemeinschaftliche 1382
geteilt 1382
industrielle 1382
mut 1382
schwäch@@ 1382
wiederhole 1382
Apple 1381
Spek@@ 1381
gestri@@ 1381
zeige 1381
Tschetschenien 1380
begeistert 1380
kapital 1380
nördlichen 1380
Vermarktung 1379
allmählich 1379
att 1379
erzi@@ 1379
haltenden 1379
materialien 1379
strukturel@@ 1379
Augenmerk 1378
Gemeinsam 1378
Mass@@ 1378
Zinssätze 1378
schreck@@ 1378
Dolmet@@ 1377
lager 1377
ventionen 1377
ventions@@ 1377
zeitlich 1377
Bit 1376
any 1376
deutscher 1376
ellem 1376
sun@@ 1376
Migranten 1375
Ok@@ 1375
anbietet 1375
ble@@ 1375
94 1374
Aufsicht 1374
Bür@@ 1374
Neu 1374
Stellungnahmen 1374
bauten 1374
bre 1374
müh@@ 1374
stechnologie 1374
uten 1374
Ameri@@ 1373
Rechtssicherheit 1373
Strasse 1373
beantragen 1373
beglückwünsche 1373
behindert 1373
dt 1373
over 1373
ville 1373
Allgemeine 1372
Bud@@ 1372
Einfluß 1372
Schiffen 1372
ausgeübt 1372
eingerichteten 1372
einmalige 1372
vielfältige 1372
zustand 1372
Hoff@@ 1371
Studien@@ 1371
breites 1371
geschätzt 1371
konstru@@ 1371
musik 1371
rem 1371
vorhandene 1371
Gesetzen 1370
anfangen 1370
pläne 1370
transatlantischen 1370
Erleb@@ 1369
Unterhaltungs@@ 1369
Wurzeln 1369
ausbildung 1369
ebung 1369
entstand@@ 1369
geordneten 1369
neo@@ 1369
veränder@@ 1369
Nachteil 1368
faktor 1368
fasst 1368
fortzusetzen 1368
män@@ 1368
vorhaben 1368
Kathedrale 1367
Manchmal 1367
Schwan@@ 1367
belegen 1367
billigen 1367
onie 1367
Kompromiss@@ 1366
Mode 1366
Profession@@ 1366
Sorgfalt 1366
digit@@ 1366
gebühr 1366
kämpft 1366
ml 1366
EX 1365
Erneuerung 1365
Gesamtheit 1365
Panorama 1365
chemischen 1365
endung 1365
vit@@ 1365
vorausgesetzt 1365
vorne 1365
Beobach@@ 1364
Tisch@@ 1364
horizon@@ 1364
tem@@ 1364
Eintrag 1363
Konver@@ 1363
Terror@@ 1363
anten@@ 1363
ester@@ 1363
max 1363
menü 1363
staats@@ 1363
start 1363
voranzutreiben 1363
Gesetzgebungs@@ 1362
Kie@@ 1362
Skand@@ 1362
Speicher 1362
einsetzt 1362
Kanal 1361
bezogenen 1361
raums 1361
verschwinden 1361
ées 1361
Anmerkung 1360
Folgendes 1360
Treib@@ 1360
jen@@ 1360
my@@ 1360
rungen 1360
tra 1360
Energiet@@ 1359
Material@@ 1359
Vorbehalte 1359
nice 1359
tors 1359
übrig 1359
Ansätze 1358
fache 1358
Univers@@ 1357
board 1357
engagieren 1357
verschi@@ 1357
wache 1357
Berechnung 1356
bereitschaft 1356
personenbezo@@ 1356
stan 1356
AK@@ 1355
Rio 1355
beein@@ 1355
bewirkt 1355
hinzuzufügen 1355
Gewährung 1354
Not 1354
On 1354
Operationen 1354
ST 1354
Signale 1354
allo 1354
fähiger 1354
kurz@@ 1354
quoten 1354
vil@@ 1354
Beton@@ 1353
Marketing@@ 1353
UND 1353
Unternehmer@@ 1353
beweist 1353
brut@@ 1353
shof 1353
sla@@ 1353
symboli@@ 1353
urg@@ 1353
veröffentlichten 1353
wende 1353
Aufträge 1352
Dienstes 1352
Wochen@@ 1352
besetz@@ 1352
gelang 1352
gleichzei@@ 1352
normal 1352
ori 1352
pflich@@ 1352
stieg@@ 1352
Königreichs 1351
Strafgericht@@ 1351
Wert@@ 1351
mol@@ 1351
sozial 1351
CHF 1350
Ga@@ 1350
Kopie 1350
abzulehnen 1350
ado@@ 1350
festhalten 1350
ital@@ 1350
lis 1350
neueste 1350
städtischen 1350
Bildschir@@ 1349
Schwimmbad 1349
Substanzen 1349
einzigartig 1349
lob@@ 1349
ommen 1349
zip 1349
Aro@@ 1348
Ausfahrt 1348
Bug@@ 1348
Entwicklungspolitik 1348
Zeichn@@ 1348
einzuleiten 1348
ice 1348
Abonn@@ 1347
Halbinsel 1347
Impf@@ 1347
Kernenergie 1347
Konstruk@@ 1347
Minder@@ 1347
annehmbar 1347
außergewöhnliche 1347
dahingehend 1347
dürften 1347
otten 1347
Formel 1346
begrenz@@ 1346
differenzi@@ 1346
frühere 1346
ity 1346
prochen 1346
revolution@@ 1346
than@@ 1346
treibt 1346
Hoffnungen 1345
Konvents 1345
befreien 1345
erschüt@@ 1345
fischen 1345
mache 1345
meistens 1345
verträge 1345
81 1344
Durchführungs@@ 1344
Ord@@ 1344
Touren 1344
besetzt 1344
mittel- 1344
verbreiten 1344
Features 1343
Industriepolitik 1343
Lad@@ 1343
site 1343
sprachigen 1343
unterstrichen 1343
IV@@ 1342
Partnerschafts@@ 1342
Schokol@@ 1342
Transa@@ 1342
bew@@ 1342
cli@@ 1342
ektionen 1342
multilateralen 1342
schar@@ 1342
tionelle 1342
utt@@ 1342
Dam@@ 1341
Gefan@@ 1341
Immunität 1341
fünfzehn 1341
73 1340
Enth@@ 1340
Leistungsfähigkeit 1340
Sie@@ 1340
erreichten 1340
gesenkt 1340
ziehung 1340
е@@ 1340
Ale@@ 1339
Hunger 1339
Master 1339
Ziels 1339
erschein@@ 1339
gä@@ 1339
veranstaltungen 1339
Apart@@ 1338
Norwegen 1338
Rechtsan@@ 1338
Städ@@ 1338
Urlau@@ 1338
Whirlpool 1338
artig 1338
erweiterte 1338
genügt 1338
idealer 1338
69 1337
großartige 1337
schaftliche 1337
ura 1337
Anpassungen 1336
Einbindung 1336
Forst@@ 1336
Gläu@@ 1336
Hierbei 1336
Redezeit 1336
ehrten 1336
meter 1336
Autorität 1335
iche 1335
vereinfacht 1335
61 1334
Foren 1334
PH@@ 1334
bedauer@@ 1334
ht@@ 1334
durchschnittlich 1333
grundlage 1333
Att@@ 1332
Onlin@@ 1332
Schmu@@ 1332
Zuerst 1332
agements 1332
benötigten 1332
endete 1332
gerer 1332
illegal 1332
liziert 1332
muslim@@ 1332
tre 1332
vorzubereiten 1332
zivilen 1332
Beitrittsverhandlungen 1331
Große 1331
MP3 1331
Nom@@ 1331
Verbrauch 1331
ises 1331
letztes 1331
mo 1331
sit@@ 1331
straßen 1331
überflü@@ 1331
Defizit 1330
Hongkong 1330
James 1330
Landwirten 1330
geseh@@ 1330
serie 1330
Altern@@ 1329
Sand 1329
Siehe 1329
Toleranz 1329
adet 1329
beliebten 1329
inf@@ 1329
isl@@ 1329
schätzung 1329
ssige 1329
zunehmen@@ 1329
Herberge 1328
Hierzu 1328
Meinungsäußerung 1328
erinnen 1328
hard 1328
mord@@ 1328
unken 1328
vermehr@@ 1328
Einladung 1327
Erfin@@ 1327
Mehrere 1327
Rh@@ 1327
Schlei@@ 1327
Spit@@ 1327
Streitkräfte 1327
Wechsel 1327
anlässlich 1327
lem 1327
präz@@ 1327
76 1326
ALE 1326
Bag@@ 1326
Instabilität 1326
bietern 1326
intern@@ 1326
orte 1326
schien 1326
Ärzte 1326
Grafiken 1325
Jugendher@@ 1325
Moderne 1325
Piazza 1325
angeführt 1325
kos 1325
rische 1325
sames 1325
Funktions@@ 1324
GR@@ 1324
ausmachen 1324
ence 1324
enor@@ 1324
friedi@@ 1324
unglaub@@ 1324
Wunder 1323
andau@@ 1323
bten 1323
verschärft 1323
vorbereiten 1323
Green 1322
immerhin 1322
inwieweit 1322
kennen@@ 1322
Benutzern 1321
Champ@@ 1321
Fire@@ 1321
Komple@@ 1321
Vergü@@ 1321
ame@@ 1321
finan@@ 1321
Etik@@ 1320
Voraus 1320
begrenzen 1320
harten 1320
zusammenzu@@ 1320
Befürwor@@ 1319
Rock 1319
audiovisu@@ 1319
gericht 1319
sachen 1319
ausgebaut 1318
bekämpft 1318
forderungen 1318
heik@@ 1318
optimalen 1318
sieb@@ 1318
stall@@ 1318
wirksam@@ 1318
Domain 1317
Gegenstände 1317
Golfplatz 1317
Griff 1317
OR 1317
Ol@@ 1317
Temperaturen 1317
anhalten@@ 1317
eken 1317
log 1317
porte 1317
sel 1317
stau@@ 1317
Award 1316
Pon@@ 1316
Spuren 1316
Zauber@@ 1316
geho@@ 1316
grundlegend 1316
Beachten 1315
Gesundheitswesen 1315
Gir@@ 1315
SI 1315
geschwindigkeit 1315
Artikels 1314
NO@@ 1314
angemessener 1314
entwickel@@ 1314
leichten 1314
packen 1314
star 1314
steigende 1314
Aktiv@@ 1313
Ari@@ 1313
Peri@@ 1313
Physi@@ 1313
Release 1313
Swiss 1313
enswer@@ 1313
ständiges 1313
unterhalb 1313
Anwendungsbereich 1312
Europäisches 1312
Insofern 1312
Nä@@ 1312
Tochter 1312
ac 1312
verbindliche 1312
Gefähr@@ 1311
New@@ 1311
Ungleichheiten 1311
häufiger 1311
peri@@ 1311
wandern 1311
Sozialisten 1310
UC@@ 1310
Verz@@ 1310
betreibt 1310
hon@@ 1310
liesslich 1310
lon@@ 1310
preises 1310
schaftlicher 1310
vern 1310
Architekten 1309
Zahlreiche 1309
Zeitungen 1309
erkenn@@ 1309
schicht 1309
Generaldire@@ 1308
Mahl@@ 1308
Orientierung 1308
benachrichtigt 1308
drehen 1308
ffe 1308
gements 1308
mehrmals 1308
unum@@ 1308
Rohstoff@@ 1307
relev@@ 1307
tels 1307
wirksamer 1307
Fußball 1306
Schließung 1306
abhängen 1306
bte 1306
och 1306
schaftlich 1306
stattfin@@ 1306
weitergegeben 1306
74 1305
Entschei@@ 1305
Schiffs@@ 1305
entworfen 1305
höchst@@ 1305
sigkeit 1305
stabilen 1305
Befug@@ 1304
Chaos 1304
Diplom@@ 1304
Innov@@ 1304
Logo 1304
Luxus@@ 1304
Saddam 1304
Swimmingpool 1304
UNESCO 1304
bedürfen 1304
besticht 1304
ci 1304
gesetzliche 1304
indire@@ 1304
lichung 1304
terten 1304
Konsumenten 1303
Zugangs@@ 1303
abzuschließen 1303
format 1303
hinterlassen 1303
inne 1303
tragenen 1303
Bürgerrechte 1302
diplomatischen 1302
engruppen 1302
stechn@@ 1302
ücke 1302
Control 1301
One 1301
Pum@@ 1301
fis@@ 1301
iranischen 1301
kenntnisse 1301
ssel@@ 1301
Abweich@@ 1300
Eintritt 1300
Fertig@@ 1300
Freien 1300
Gebrau@@ 1300
Zustellbetten 1300
akten 1300
damer 1300
kö@@ 1300
schätzt 1300
stattung 1300
these 1300
wickelt 1300
Fertigungs@@ 1299
Katastrophen@@ 1299
Thailand 1299
abgeschafft 1299
malerischen 1299
Anreise 1298
Dir 1298
Dutz@@ 1298
Konkurren@@ 1298
Nordkorea 1298
Schluß 1298
Stimmung 1298
gesetzlich 1298
getestet 1298
run@@ 1298
Dienststellen 1297
Real 1297
Strategi@@ 1297
Zentren 1297
ament 1297
deutsch 1297
inde@@ 1297
9,@@ 1296
Privi@@ 1296
Sul@@ 1296
enthal@@ 1296
fron@@ 1296
inen@@ 1296
schle@@ 1296
wachen 1296
Fokus 1295
GE 1295
Lobby@@ 1295
Moldau 1295
Sem@@ 1295
gebrau@@ 1295
kamera 1295
lichere 1295
Tee 1294
Teu@@ 1294
Variante 1294
ausführliche 1294
entfer@@ 1294
pot 1294
sensi@@ 1294
Ruh@@ 1293
ausreichen 1293
hi 1293
traditionell 1293
Beförderung 1292
Maßstab 1292
anschluss 1292
fel 1292
flüsse 1292
gratuliere 1292
zuverlässige 1292
Assozi@@ 1291
Feuer@@ 1291
Gay 1291
Szene 1291
amerikanischer 1291
amtierenden 1291
appen 1291
aufweist 1291
berger 1291
flotte 1291
lic@@ 1291
regu@@ 1291
stunden 1291
Küchen@@ 1290
Mensch@@ 1290
Verhinderung 1290
Weihnachts@@ 1290
arien 1290
diesbezüglichen 1290
kauf@@ 1290
mieten 1290
tner 1290
DO@@ 1289
Ganzen 1289
ING 1289
Möchten 1289
Selb@@ 1289
blü@@ 1289
timm@@ 1289
EA 1288
Peking 1288
Schottland 1288
Steh@@ 1288
ansä@@ 1288
ausgezeichn@@ 1288
bemerkt 1288
etzt 1288
Sämtliche 1287
atur 1287
datum 1287
holung 1287
kompetenz 1287
strateg@@ 1287
trock@@ 1287
vielfach 1287
Übereinkunft 1287
ßes 1287
Grupp@@ 1286
Schaf@@ 1286
Wohlbefinden 1286
ahr@@ 1286
amerika 1286
länen 1286
versetzen 1286
Auswahl@@ 1285
Zur@@ 1285
anzuerkennen 1285
beunruhi@@ 1285
europas 1285
niedrige 1285
sowje@@ 1285
tic@@ 1285
Beispielsweise 1284
HD 1284
Schwier@@ 1284
Verbündeten 1284
alien 1284
amtierende 1284
blockiert 1284
lassen@@ 1284
preisen 1284
verhandelt 1284
Architek@@ 1283
CDs 1283
Schlußfolgerungen 1283
Visum@@ 1283
abgestimm@@ 1283
abschließen 1283
abwechslungs@@ 1283
beam@@ 1283
dynamischen 1283
feier@@ 1283
ffer 1283
schlä@@ 1283
zufriedenstell@@ 1283
án 1283
fro@@ 1282
heil@@ 1282
luxuriöse 1282
massive 1282
meint 1282
Cast@@ 1281
Gegenwärtig 1281
Gelände 1281
Gemeinschaftsrecht 1281
Mailand 1281
Tot@@ 1281
Zivilisation 1281
aufhören 1281
gültigen 1281
herrschenden 1281
irgendeine 1281
schiedene 1281
verteilen 1281
zent 1281
Bedrohungen 1280
Folter 1280
Hostel 1280
Neuigkeiten 1280
Patri@@ 1280
ermor@@ 1280
glicher 1280
koordiniert 1280
Beibehaltung 1279
beruf@@ 1279
unternehmer@@ 1279
Basis@@ 1278
Fischereiabkommen 1278
Hung@@ 1278
Sz@@ 1278
aria 1278
bed 1278
ielle 1278
Fertigung 1277
Hindernis 1277
Koloni@@ 1277
Maxim@@ 1277
Prü@@ 1277
bekanntesten 1277
bestraft 1277
brachten 1277
eld 1277
inn 1277
tauschen 1277
träglich 1277
walt 1277
zur@@ 1277
Alexander 1276
Dich@@ 1276
Frühstücks@@ 1276
Gegebenheiten 1276
Gesetz@@ 1276
best 1276
schlimmsten 1276
Helsinki 1275
Komplexität 1275
Konvergenz 1275
Kup@@ 1275
eur 1275
ham 1275
regelungen 1275
Entscheidungsträger 1274
Flag@@ 1274
Gültigkeit 1274
Säu@@ 1274
Zäh@@ 1274
administrati@@ 1274
amb@@ 1274
anzen 1274
hem@@ 1274
kes@@ 1274
schulen 1273
serklärung 1273
Bab@@ 1272
Beträge 1272
Bour@@ 1272
Gitar@@ 1272
Hunderte 1272
SP 1272
Stabilisierung 1272
ansch@@ 1272
büros 1272
ford 1272
schieden 1272
wunderbare 1272
Bestrebungen 1271
DIE 1271
Endes 1271
ausgehend 1271
Überleben 1271
Übertrag@@ 1271
Verbindungs@@ 1270
berau@@ 1270
bewäl@@ 1270
dringen 1270
erstklassi@@ 1270
ligten 1270
Besteller 1269
Executive 1269
Gemüse 1269
effizienter@@ 1269
global 1269
regelmäßige 1269
tiefen 1269
vereinbarung 1269
Aufgaben@@ 1268
Gedanke 1268
Netzwerke 1268
alternativen 1268
arch@@ 1268
ausgeben 1268
drit@@ 1268
echter 1268
konkre@@ 1268
Bla@@ 1267
Business@@ 1267
Uhr@@ 1267
anmelden 1267
ausgewogen 1267
charman@@ 1267
runden 1267
д@@ 1267
CD@@ 1266
Erzeu@@ 1266
Kohäsion 1266
Tipps 1266
bedeutendsten 1266
bürgerschaft 1266
späten 1266
startet 1266
versprochen 1266
worauf 1266
IA@@ 1265
Män@@ 1265
eg 1265
fang@@ 1265
Kongo 1264
Kriterium 1264
Papier@@ 1264
Ski 1264
Vertriebs@@ 1264
about 1264
klarstellen 1264
mium 1264
reih@@ 1264
rumän@@ 1264
shi@@ 1264
Gam@@ 1263
Italien@@ 1263
Liquidi@@ 1263
Salzburg 1263
Vietnam 1263
arme 1263
effizi@@ 1263
ols 1263
schweigen 1263
siedelt 1263
Blu@@ 1262
Ern@@ 1262
Nachteile 1262
Van@@ 1262
Zeile 1262
bark@@ 1262
erkennbar 1262
frisch 1262
Alkohol 1261
Bün@@ 1261
Direktor 1261
Gleichwohl 1261
Hum@@ 1261
OECD 1261
Sierra 1261
Volkswirtschaft 1261
erfassen 1261
festgehalten 1261
Kapitalismus 1260
Mitgliedsländer 1260
explo@@ 1260
luft@@ 1260
mann@@ 1260
profitiert 1260
ränkten 1260
Copyright 1259
Deine 1259
LT 1259
Passagiere 1259
Stadtteil 1259
erschienen 1259
fehl 1259
flüge 1259
för@@ 1259
kommunik@@ 1259
than 1259
wenngleich 1259
Diejenigen 1258
Internation@@ 1258
bö@@ 1258
eingeben 1258
Brem@@ 1257
Pfei@@ 1257
orie 1257
tritts 1257
PD@@ 1256
Premium 1256
energie@@ 1256
nutzung 1256
u.@@ 1256
40@@ 1255
Finanzielle 1255
bekanntlich 1255
cker@@ 1255
einbeziehen 1255
frequ@@ 1255
situationen 1255
stahl 1255
Finanzminister 1254
Radio@@ 1254
Sortiment 1254
führend 1254
leiste 1254
pragmati@@ 1254
warmen 1254
2,5 1253
Afrikas 1253
Akzeptanz 1253
Konsolidierung 1253
archi@@ 1253
langes 1253
mes@@ 1253
rachten 1253
verband 1253
zweimal 1253
American 1252
Dich 1252
Inv@@ 1252
Kosme@@ 1252
Musli@@ 1252
OLAF 1252
Untern@@ 1252
bas@@ 1252
gezahlt 1252
latein@@ 1252
stufen 1252
verweist 1252
Bonus 1251
ED 1251
Eri@@ 1251
Max 1251
fungs@@ 1251
identifizieren 1251
kontin@@ 1251
kultur@@ 1251
medizin@@ 1251
teres 1251
wechselt 1251
westliche 1251
Beschäf@@ 1250
Charles 1250
aufre@@ 1250
ony@@ 1250
schreiten 1250
strom 1250
verordnung 1250
Formul@@ 1249
Früchte 1249
Ganze 1249
IM 1249
Schätzungen 1249
benutzer@@ 1249
en.@@ 1249
leidung 1249
rechnung 1249
volumen 1249
Kn@@ 1248
Listen 1248
auseln 1248
persönlicher 1248
Kindes 1247
SM@@ 1247
eds 1247
kunst 1247
modelle 1247
sämtlicher 1247
Edi@@ 1246
Km 1246
Num@@ 1246
schwarzen 1246
Aufklärung 1245
Konzert 1245
autor@@ 1245
beachtet 1245
laufende 1245
optimieren 1245
Entschließungsanträge 1244
located 1244
religi@@ 1244
setzten 1244
vernich@@ 1244
Amp@@ 1243
Infrastruktur@@ 1243
Nachbarschaft 1243
Projektes 1243
Zellen 1243
findung 1243
passenden 1243
stechnologien 1243
Gemeinschaft@@ 1242
Geschichten 1242
HU 1242
LU@@ 1242
Sevilla 1242
ald 1242
anien 1242
aufrechtzuerhalten 1242
ausgenommen 1242
authenti@@ 1242
eme 1242
etz 1242
gebrachten 1242
87 1241
Lun@@ 1241
Schwimm@@ 1241
bewegungen 1241
europa@@ 1241
Fäl@@ 1240
Griechenlands 1240
Immobili@@ 1240
besteh@@ 1240
element@@ 1240
extra 1240
fru@@ 1240
gerei@@ 1240
massiven 1240
Abwicklung 1239
Krimin@@ 1239
Parks 1239
arium 1239
shaush@@ 1239
vereinbaren 1239
Beobachtungs@@ 1238
Forscher 1238
Minimum 1238
gehand@@ 1238
rom 1238
Besetzung 1237
Eisen@@ 1237
Schlu@@ 1237
Sofern 1237
Sozialpartner 1237
Sto@@ 1237
abzugeben 1237
expliz@@ 1237
jenige 1237
langjährige 1237
Ausschüssen 1236
Autor@@ 1236
Cir@@ 1236
Dörfer 1236
Luftverkehrs@@ 1236
Persönlichkeiten 1236
Rechtsrahmen 1236
Siemens 1236
begriffen 1236
fikationen 1236
herbei@@ 1236
inierten 1236
oria 1236
schwach 1236
territorialen 1236
Joseph 1235
Lamp@@ 1235
Protok@@ 1235
annt 1235
ausgestatteten 1235
außer@@ 1235
behindern 1235
erwarte 1235
konz@@ 1235
spi@@ 1235
tiver 1235
tschechischen 1235
Aff@@ 1234
Funktionsweise 1234
Porto 1234
Rücken 1234
ath 1234
attra@@ 1234
automatischen 1234
drücke 1234
sn@@ 1234
sparteien 1234
zulegen 1234
Applikationen 1233
Begeisterung 1233
gründe 1233
hebung 1233
inien@@ 1233
perman@@ 1233
reiten 1233
Auflagen 1232
Beschaff@@ 1232
Darlehen 1232
Hub@@ 1232
Italiens 1232
Main 1232
Zent@@ 1232
auftritt 1232
funden 1232
gehörte 1232
restau@@ 1232
schaft@@ 1232
thal@@ 1232
wertvollen 1232
Sicherstellung 1231
Vorstand 1231
Wärme 1231
XML 1231
gerlich 1231
zurückkommen 1231
Entfer@@ 1230
Garan@@ 1230
Satelliten 1230
drittens 1230
gestrichen 1230
nähe 1230
verlängert 1230
900 1229
Begrenzung 1229
Persön@@ 1229
Zubehör 1229
clean 1229
sache 1229
verblei@@ 1229
vorgesehene 1229
vorzugehen 1229
EX@@ 1228
Herstellern 1228
Laser@@ 1228
Milch 1228
Wissens 1228
Wäscheservice 1228
ext 1228
ination 1228
port 1228
Asyl 1227
Guide 1227
Rap@@ 1227
Room 1227
Veranstaltungs@@ 1227
Vogel@@ 1227
Zukunfts@@ 1227
bo 1227
gewaltige 1227
leute 1227
solidar@@ 1227
vereinbar 1227
Ära 1227
Š@@ 1227
Arbeitszeit 1226
Erleben 1226
FA@@ 1226
Security 1226
Vorbe@@ 1226
gezielt 1226
schri@@ 1226
Super 1225
Thermal@@ 1225
Zeitalter 1225
potenziellen 1225
Erkrankungen 1224
Kari@@ 1224
Krä@@ 1224
SU@@ 1224
ehr 1224
faktoren 1224
mah@@ 1224
sidentin 1224
zierten 1224
Bay 1223
Commerce 1223
Fair@@ 1223
Schwach@@ 1223
Stuttgart 1223
Wetter@@ 1223
Zwischenzeit 1223
aufrufen 1223
außergewöhnlichen 1223
Überwindung 1223
Birma 1222
Bit@@ 1222
Estland 1222
Festung 1222
Schwerpunkte 1222
deli@@ 1222
multilater@@ 1222
widerspiegelt 1222
zuführen 1222
übertrag@@ 1222
Bier 1221
Echtzeit 1221
Künstlern 1221
Monats 1221
Snow@@ 1221
Stan@@ 1221
Störungen 1221
basierend 1221
fassten 1221
latt@@ 1221
lette 1221
nische 1221
optionen 1221
Übermittlung 1221
Erwerb 1220
Ministerpräsidenten 1220
Tagungs@@ 1220
karten@@ 1220
tender 1220
wurf 1220
Chinesen 1219
Flexi@@ 1219
Geburt 1219
Phasen 1219
andt 1219
hell 1219
niedrig@@ 1219
weitet 1219
wirtschaf@@ 1219
Elektriz@@ 1218
LAN 1218
Ticket 1218
kritisieren 1218
masch@@ 1218
Bedürf@@ 1217
Brow@@ 1217
Fitness 1217
Level 1217
ständigkeit 1217
ungsh@@ 1217
utionen 1217
Hist@@ 1216
Korea 1216
Patten 1216
Technologi@@ 1216
Versand 1216
erender 1216
geschenkt 1216
herausra@@ 1216
setzungs@@ 1216
83 1215
Buchstaben 1215
Egal 1215
Gremien 1215
SW@@ 1215
Suchen 1215
beihilfen 1215
bilaterale 1215
signifikan@@ 1215
unkt 1215
unmittelbare 1215
Airlines 1214
Cho@@ 1214
EE@@ 1214
Kanäle 1214
Literatur 1214
Schnei@@ 1214
Stim@@ 1214
Wachstum@@ 1214
grafischen 1214
morali@@ 1214
KDE 1213
Plugin 1213
Segel@@ 1213
belebung 1213
herrschaft 1213
hochrangi@@ 1213
installi@@ 1213
plä@@ 1213
vollkomm@@ 1213
Journ@@ 1212
Lot@@ 1212
Pakt 1212
Quartal 1212
appar@@ 1212
benö@@ 1212
bün@@ 1212
folgedessen 1212
hrt 1212
Explorer 1211
Interventionen 1211
Kommissars 1211
Krank@@ 1211
ank 1211
bezauber@@ 1211
dringlich 1211
dynamische 1211
israelische 1211
strukturellen 1211
zugreifen 1211
Adri@@ 1210
Deut@@ 1210
besitz@@ 1210
frisch@@ 1210
geeinigt 1210
geschlossene 1210
portugie@@ 1210
pum@@ 1210
schau 1210
zierte 1210
Erstellen 1209
Institute 1209
Kommand@@ 1209
acht@@ 1209
bereitgestellten 1209
damaligen 1209
erfor@@ 1209
fossi@@ 1209
genutz@@ 1209
herunter 1209
kriti@@ 1209
sand@@ 1209
verlust 1209
Fundament 1208
Sieb@@ 1208
Spi@@ 1208
Zusagen 1208
ekten 1208
höherer 1208
lische 1208
widerspiegeln 1208
Casa 1207
Ebenfalls 1207
Militär 1207
Olympischen 1207
Republi@@ 1207
Techni@@ 1207
bestanden 1207
bestellt 1207
die@@ 1207
ien@@ 1207
irgendwann 1207
urs@@ 1207
wuchs 1207
zuständige 1207
Kompromiß 1206
Resultat 1206
Umstellung 1206
aktionen 1206
beliebtesten 1206
henden 1206
überdenken 1206
Basel 1205
Gedäch@@ 1205
Kontinents 1205
Sozialdemokratischen 1205
cket 1205
legislativen 1205
mord 1205
unverbin@@ 1205
Ess@@ 1204
OSZE 1204
Pfeiler 1204
Vermögen 1204
iell 1204
kaner 1204
lasten 1204
übergreifende 1204
Bestände 1203
Central 1203
Folge@@ 1203
Michel 1203
Räumen 1203
ernannt 1203
fundi@@ 1203
Nichts 1202
geliefer@@ 1202
isiert 1202
ow 1202
südlich 1202
Chile 1201
Stockholm 1201
dio@@ 1201
ektor 1201
männ@@ 1201
partner@@ 1201
tagung 1201
ttaus@@ 1201
Bemühen 1200
GA 1200
V. 1200
Verein 1200
Zusammenfassung 1200
della 1200
wettbewer@@ 1200
Übersch@@ 1200
Einstimm@@ 1199
genetisch 1199
loh@@ 1199
radio@@ 1199
stam@@ 1199
unvergesslichen 1199
verbundene 1199
österreichische 1199
Fahrzeugen 1198
Rol@@ 1198
Wiederein@@ 1198
bedaure 1198
facto 1198
läufi@@ 1198
Autonom@@ 1197
Display 1197
Ly@@ 1197
Währungsfonds 1197
deb@@ 1197
diente 1197
gesendet 1197
mitglied 1197
а@@ 1197
Algerien 1196
Angebot@@ 1196
Beglei@@ 1196
Bügel@@ 1196
Recy@@ 1196
Saudi 1196
Semin@@ 1196
Zusammenhalts 1196
gels 1196
klim@@ 1196
oter 1196
Hypoth@@ 1195
Konservativen 1195
Minde@@ 1195
Phili@@ 1195
Stränden 1195
Terror 1195
acken 1195
blau@@ 1195
bürgerliche 1195
hotel@@ 1195
ländischen 1195
sendung 1195
tigungen 1195
tum@@ 1195
ín 1195
Blair 1194
Einsparungen 1194
Mart@@ 1194
Nordirland 1194
Pharma@@ 1194
SK 1194
benachbar@@ 1194
halben 1194
limm@@ 1194
maßgeschnei@@ 1194
partnern 1194
vernünf@@ 1194
Daraus 1193
Loch 1193
Sicht@@ 1193
abschluss 1193
höhe 1193
immer@@ 1193
kontra@@ 1193
lern@@ 1193
selts@@ 1193
territori@@ 1193
tierenden 1193
Möglich@@ 1192
back 1192
dorthin 1192
gerte 1192
ires 1192
seitdem 1192
Delegationen 1191
Past@@ 1191
Rohstoffe 1191
Spra@@ 1191
Sudan 1191
genz 1191
lief 1191
verlu@@ 1191
Appell 1190
Himm@@ 1190
Ideal 1190
Netto@@ 1190
Sou@@ 1190
Spei@@ 1190
Verpackung 1190
beobachtet 1190
dah@@ 1190
illeg@@ 1190
kultureller 1190
nuklear@@ 1190
schlim@@ 1190
Durchschnit@@ 1189
Gaz@@ 1189
Kommunikation@@ 1189
Löhne 1189
Publik@@ 1189
Register 1189
Terrorismus@@ 1189
abschließ@@ 1189
bon@@ 1189
fehler 1189
friendly 1189
gegrün@@ 1189
gster 1189
lagen@@ 1189
ource 1189
sts 1189
verursachten 1189
vorberei@@ 1189
Aufstockung 1188
Balkan@@ 1188
GUE 1188
Klaren 1188
Zucker 1188
aktivi@@ 1188
ckte 1188
freundlicher 1188
nen@@ 1188
scheinbar 1188
Bak@@ 1187
Verkehrsmittel 1187
dak@@ 1187
digkeit 1187
ergänz@@ 1187
hoff@@ 1187
schwä@@ 1187
zuhalten 1187
überwälti@@ 1187
Firefox 1186
Höhepunkt 1186
Isol@@ 1186
Voraus@@ 1186
debatte 1186
enswerten 1186
gangene 1186
heb@@ 1186
indischen 1186
produ@@ 1186
Gastfreundschaft 1185
Heim@@ 1185
Mitbürger 1185
Subsidiaritätsprinzip 1185
anzusehen 1185
exist@@ 1185
gter 1185
verdanken 1185
Dest@@ 1184
Ero@@ 1184
Klick 1184
alter@@ 1184
eingang 1184
jemanden 1184
olog@@ 1184
84 1183
Anleger 1183
Erkenntnis 1183
Gan@@ 1183
Konzern 1183
RSS 1183
Spielern 1183
durchschnittliche 1183
erzählt 1183
gal@@ 1183
gewichte 1183
low 1183
mächtigen 1183
nigen 1183
osteuropäischen 1183
rem@@ 1183
räder 1183
sson 1183
stisch 1183
veröffentlichte 1183
AF@@ 1182
Freilassung 1182
artigen 1182
beauftragte 1182
formulieren 1182
gewalt@@ 1182
themen 1182
town 1182
è 1182
Aller@@ 1181
LA 1181
annehm@@ 1181
diszipl@@ 1181
haupt@@ 1181
markiert 1181
mobilen 1181
ques 1181
ssel 1181
verantwortung 1181
02@@ 1180
Fot@@ 1180
Gemeinschaftsebene 1180
Gewerk@@ 1180
Kreatur 1180
Roman@@ 1180
ammern 1180
atz@@ 1180
ecke 1180
einrichten 1180
gebor@@ 1180
geld@@ 1180
intelligente 1180
schaff@@ 1180
sozio@@ 1180
wandeln 1180
zügen 1180
zügi@@ 1180
Alpen@@ 1179
Erfassung 1179
Fac@@ 1179
France 1179
Mehrwert@@ 1179
Verschlechterung 1179
dat 1179
diverse 1179
eta 1179
freiwillig 1179
geholt 1179
instru@@ 1179
thaf@@ 1179
verwandeln 1179
Bestimm@@ 1178
Gäste@@ 1178
Internetseiten 1178
Karl 1178
Politikern 1178
Zoll 1178
auto@@ 1178
ements 1178
grafische 1178
kopieren 1178
möglicher 1178
selek@@ 1178
sichten 1178
struk@@ 1178
zierung 1178
Lauf 1177
nahen 1177
schön@@ 1177
verteidigt 1177
Erhebung 1176
Freizei@@ 1176
Verhaltens@@ 1176
abo@@ 1176
ano@@ 1176
bücher 1176
gst 1176
hl 1176
moderni@@ 1176
uneingeschränkte 1176
Ausgleich@@ 1175
Fortsch@@ 1175
Kondi@@ 1175
Teilnehmern 1175
Viertens 1175
aran@@ 1175
beunruhigt 1175
erzielte 1175
genommenen 1175
getroffenen 1175
Einblick 1174
Kalender 1174
Norm 1174
Sol 1174
Subjek@@ 1174
anstal@@ 1174
einhalb 1174
erho@@ 1174
offensich@@ 1174
ott 1174
pap@@ 1174
pflegen 1174
stärke 1174
Account 1173
GPS 1173
Meer@@ 1173
Sehen 1173
Sili@@ 1173
abteilung 1173
entation 1173
ffern 1173
gerin 1173
gewöhnliche 1173
Aufstieg 1172
DR@@ 1172
Erdbeben 1172
Hauptziel 1172
Interface 1172
berühmt 1172
geneti@@ 1172
kapazität 1172
machung 1172
positives 1172
privater 1172
vorherseh@@ 1172
Rechtsprechung 1171
Schwächen 1171
Verbin@@ 1171
appelliere 1171
auft 1171
eß 1171
fahrt@@ 1171
gedenkt 1171
hinnehmen 1171
zonen 1171
Biokraft@@ 1170
Engineering 1170
Mitarbeiter@@ 1170
Verhaltenskodex 1170
andel 1170
doppel@@ 1170
flexiblen 1170
geschützten 1170
gewähr@@ 1170
problemen 1170
tlin@@ 1170
vierung 1170
zugang 1170
350 1169
AM 1169
Elite 1169
Exporte 1169
Grö@@ 1169
Jahrestag 1169
Kameras 1169
Obst 1169
Poker@@ 1169
Schulz 1169
Termine 1169
deckung 1169
ukra@@ 1169
ühle 1169
Landschaften 1168
bare@@ 1168
kunft@@ 1168
weren 1168
Befürchtungen 1167
But@@ 1167
Main@@ 1167
brin@@ 1167
fläch@@ 1167
förmi@@ 1167
obgleich 1167
Arbeiter@@ 1166
Hintergrund@@ 1166
Millenni@@ 1166
Schritten 1166
biologische 1166
erzeugung 1166
kör@@ 1166
skep@@ 1166
transparente 1166
verlängern 1166
án@@ 1166
Konferenz- 1165
Kühl@@ 1165
Spekul@@ 1165
Unregelmäßigkeiten 1165
erober@@ 1165
fizierten 1165
problematisch 1165
ruhe 1165
zenten 1165
79 1164
Games 1164
Il@@ 1164
Interpretation 1164
Lizenzen 1164
Square 1164
Territ@@ 1164
Umgeb@@ 1164
Warnung 1164
durchschnit@@ 1164
geschütz@@ 1164
rump@@ 1164
saison 1164
PP@@ 1163
SY@@ 1163
ehrgeizige 1163
elf 1163
erschien 1163
great 1163
lux@@ 1163
Free@@ 1162
GT@@ 1162
Gesichtspunkt 1162
Nutzern 1162
Pfle@@ 1162
Standorten 1162
Sun@@ 1162
beliebt 1162
gaben@@ 1162
listet 1162
oms 1162
univers@@ 1162
BI@@ 1161
Bundesrepublik 1161
Esp@@ 1161
Fax- 1161
Prof. 1161
Touristen@@ 1161
Warcraft 1161
direkter 1161
entziehen 1161
ermu@@ 1161
gewahrt 1161
Ansprechpartner 1160
Flach@@ 1160
Gegenden 1160
Logistik 1160
akzep@@ 1160
cel@@ 1160
chester 1160
kümmert 1160
luß@@ 1160
verschlüssel@@ 1160
äle 1160
Ashton 1159
Repar@@ 1159
Stil@@ 1159
aufgegriffen 1159
größ@@ 1159
kenne 1159
nisch 1159
Ermitt@@ 1158
Gesprä@@ 1158
Kurs@@ 1158
Offizi@@ 1158
Protektionismus 1158
betragen 1158
esi@@ 1158
linge 1158
ruf@@ 1158
streiten 1158
v. 1158
wahrgenommen 1158
Anreis@@ 1157
Einleitung 1157
Studios 1157
aufkommen 1157
demselben 1157
justi@@ 1157
kus 1157
lieferungen 1157
wertet 1157
Ama@@ 1156
Auslands@@ 1156
Beschränkung 1156
Doppelbett 1156
Eleganz 1156
Erwachsenen 1156
Fischer@@ 1156
berechti@@ 1156
hen@@ 1156
ison@@ 1156
polizei@@ 1156
sia 1156
Sän@@ 1155
gewann 1155
stellvertre@@ 1155
wiederherzustellen 1155
Datent@@ 1154
Gor@@ 1154
Jer@@ 1154
Lebensbedingungen 1154
Stabilitätspakt 1154
Workshops 1154
atte 1154
disku@@ 1154
einräumen 1154
tschaf@@ 1154
ASP 1153
Antrieb@@ 1153
Friendly 1153
Les 1153
Nigeria 1153
Run@@ 1153
TEN 1153
bige 1153
geber@@ 1153
kehrungen 1153
Kolumbien 1152
ausgeprä@@ 1152
belastet 1152
dierung 1152
spieler 1152
unkten 1152
zed@@ 1152
.- 1151
Allein 1151
Chin@@ 1151
EIB 1151
Glo@@ 1151
Mark 1151
Route 1151
beugen 1151
erbringen 1151
gelag@@ 1151
house 1151
onte 1151
rang 1151
rift 1151
schwarz 1151
5.000 1150
Flächen 1150
Richard 1150
aufgeben 1150
su 1150
ör 1150
Defin@@ 1149
Freizeit 1149
Tagungen 1149
ación 1149
ausgebil@@ 1149
besi@@ 1149
prote@@ 1149
schwachen 1149
öser 1149
Audi@@ 1148
Bed 1148
Gesetzgeber 1148
Regierung@@ 1148
Verstöße 1148
Zeug@@ 1148
abel 1148
hervorzuheben 1148
katastrop@@ 1148
möge 1148
touristischen 1148
Besichti@@ 1147
Kohäsionsfonds 1147
Korrektur 1147
Lettland 1147
Nero 1147
Stadium 1147
annten 1147
apel 1147
bil 1147
irgendwie 1147
solven@@ 1147
stellbar 1147
tseite 1147
ye@@ 1147
Blin@@ 1146
Davon 1146
Erzeugnissen 1146
Fülle 1146
Häufi@@ 1146
Jahrhunderte 1146
Verhältnis@@ 1146
Vertrau@@ 1146
anerkannten 1146
ardi@@ 1146
gemü@@ 1146
kommunizieren 1146
packt 1146
rassi@@ 1146
tigsten 1146
wol@@ 1146
Blue 1145
Glücks@@ 1145
Möbel 1145
einlad@@ 1145
eventuelle 1145
hinreich@@ 1145
latt 1145
offenkundig 1145
og@@ 1145
pfei@@ 1145
rieben 1145
wissens@@ 1145
ürz@@ 1145
Angehörigen 1144
BA 1144
BER@@ 1144
Erweiterungen 1144
Gemü@@ 1144
Masse 1144
Nationalpark 1144
Unterbrech@@ 1144
Werde 1144
besorgniserre@@ 1144
extremen 1144
fortsch@@ 1144
oc@@ 1144
ory 1144
ppt 1144
veranlassen 1144
wachstum 1144
zufriedenheit 1144
Ball@@ 1143
Einwander@@ 1143
Kali@@ 1143
Schlacht@@ 1143
vergabe 1143
ALDE 1142
Aufteilung 1142
Nikon 1142
Wohlergehen 1142
antiken 1142
aters 1142
bemü@@ 1142
denkbar 1142
gefahren 1142
op 1142
renovierte 1142
wünsch@@ 1142
Chemikalien 1141
Inzwischen 1141
Nokia 1141
erfahrenen 1141
ney 1141
transeuropäischen 1141
ultur 1141
xis@@ 1141
Adres@@ 1140
Erleichterung 1140
Herzegowina 1140
Mitentscheidung 1140
ager 1140
ateg@@ 1140
ausgewählte 1140
don 1140
ftung 1140
läufigen 1140
onisten 1140
vergleichbar 1140
webe 1140
Demokratischen 1139
Dienstleistungsrichtlinie 1139
Interview 1139
Job 1139
Kürzungen 1139
bik 1139
qm 1139
trächti@@ 1139
130 1138
Gutes 1138
Kriege 1138
Schre@@ 1138
Verwen@@ 1138
einschlägigen 1138
gemeint 1138
ov 1138
Aufstellung 1137
Privatisierung 1137
UT@@ 1137
Verurteilung 1137
dei 1137
demnächst 1137
ungsphase 1137
Begri@@ 1136
GO 1136
Sammel@@ 1136
Spon@@ 1136
attraktive 1136
bewahr@@ 1136
cas 1136
derartiger 1136
künften 1136
ppen@@ 1136
prozessen 1136
wissenschaftlich 1136
Artikeln 1135
Erziehung 1135
Haushaltsausschusses 1135
Kaiser 1135
Streben 1135
berechtigte 1135
bungs@@ 1135
gelände 1135
hinnehm@@ 1135
tei 1135
Akteuren 1134
Allgemein@@ 1134
Hir@@ 1134
Wechselkur@@ 1134
Wissenschaft@@ 1134
anscheinend 1134
aufhalten 1134
ept 1134
juristischen 1134
super 1134
usamment@@ 1134
äler 1134
Black@@ 1133
Kolle@@ 1133
Provin@@ 1133
autonom@@ 1133
male 1133
verkauf@@ 1133
versprechen 1133
Arbeitsplat@@ 1132
Geschlech@@ 1132
Renten 1132
Rep@@ 1132
Sat 1132
Solana 1132
ausgegangen 1132
erbe 1132
erzeugnisse 1132
oberste 1132
zeh@@ 1132
Arena 1131
Friedensprozess 1131
Gewässern 1131
Quadrat@@ 1131
Rollen 1131
Schal@@ 1131
Vorsicht 1131
etten@@ 1131
ihrerseits 1131
schwe@@ 1131
winkel 1131
Funk@@ 1130
Navig@@ 1130
Spanisch 1130
affen 1130
bearbeitung 1130
beheben 1130
eo 1130
fürchte 1130
kreative 1130
palette 1130
schriftlichen 1130
tigkeits@@ 1130
Austau@@ 1129
Meister 1129
URL 1129
befürchten 1129
forum 1129
os@@ 1129
vertrags 1129
Adap@@ 1128
Genfer 1128
Keram@@ 1128
Kleidung 1128
Maus@@ 1128
Wör@@ 1128
Zertifizierung 1128
ausgestellt 1128
christ@@ 1128
eigent@@ 1128
leuten 1128
merken 1128
order 1128
stable 1128
terie 1128
there 1128
Angeboten 1127
Richtigkeit 1127
Veranstaltungsräume 1127
gesetzgebung 1127
gewaltigen 1127
phase 1127
schlicht 1127
schrecklichen 1127
unternimmt 1127
Anzeigen 1126
FI 1126
Network 1126
Pfad 1126
Verheugen 1126
Verpackungs@@ 1126
ank@@ 1126
cal 1126
ehl 1126
gram@@ 1126
zin 1126
zte 1126
Anstatt 1125
Bek@@ 1125
Kamp@@ 1125
Music 1125
Preises 1125
Schriftliche 1125
Schuld@@ 1125
Zigare@@ 1125
Zyper@@ 1125
ancen 1125
dan 1125
elli 1125
konkreter 1125
relevant 1125
tari@@ 1125
view 1125
Kühlschrank 1124
Schie@@ 1124
Straß@@ 1124
Vertrauens@@ 1124
arbeitenden 1124
asien 1124
ausgeliefert 1124
comfortable 1124
diversen 1124
erbare 1124
hang 1124
sensiblen 1124
therapeu@@ 1124
Bruder 1123
Caf@@ 1123
Gestalt 1123
Zweifel@@ 1123
abstimmung 1123
ermutigt 1123
herbeizuführen 1123
icht@@ 1123
liberale 1123
lässigkeit 1123
täu@@ 1123
Armen@@ 1122
School 1122
Spann@@ 1122
abzustimmen 1122
ages 1122
befreit 1122
medien 1122
menden 1122
modernsten 1122
tivitäten 1122
8,@@ 1121
Ann@@ 1121
Erwäh@@ 1121
Evaluierung 1121
Maßstä@@ 1121
PK@@ 1121
ausschließ@@ 1121
beauftragt 1121
gefährlicher 1121
hinausgehen 1121
konvention 1121
korrigiert 1121
mutz@@ 1121
Alkohol@@ 1120
ehrgeizigen 1120
frische 1120
ologen 1120
pflanzen 1120
tigste 1120
vorgaben 1120
zel 1120
Hochschulen 1119
Kanz@@ 1119
Reichweite 1119
Wikicars 1119
cos 1119
ermittelt 1119
lierung 1119
riffe 1119
spon@@ 1119
usses 1119
voranzubringen 1119
Auftraggeber 1118
Benz@@ 1118
Côte 1118
DEN 1118
Mitgliedstaates 1118
OK 1118
Organ 1118
Strafe 1118
Stro@@ 1118
Therap@@ 1118
etwa@@ 1118
like 1118
unterschied@@ 1118
Bandbreite 1117
Horiz@@ 1117
INE 1117
Zentrums 1117
agenturen 1117
aster 1117
erhöhte 1117
ethnische 1117
manager 1117
ug@@ 1117
umen 1117
unger@@ 1117
Haftbe@@ 1116
Zutaten 1116
akadem@@ 1116
aufgeführten 1116
ernsten 1116
geschwindi@@ 1116
hielten 1116
ordnungen 1116
Klausel 1115
Rettungs@@ 1115
antwortet 1115
close 1115
ding 1115
erhebt 1115
sfer 1115
willigen 1115
zon@@ 1115
Genauigkeit 1114
Gerne 1114
Gletsch@@ 1114
Kais@@ 1114
Len@@ 1114
Louis 1114
Pazi@@ 1114
abhängt 1114
enttäu@@ 1114
ras 1114
substan@@ 1114
Genehm@@ 1113
Meilen 1113
Zahl@@ 1113
arisierung 1113
fig@@ 1113
fran@@ 1113
nachkommen 1113
rot 1113
strecke 1113
traf 1113
ystems 1113
100@@ 1112
Ausstellungs@@ 1112
Einmischung 1112
Franzosen 1112
Konzerte 1112
Residence 1112
Vier 1112
ables 1112
entscheidungen 1112
ernde 1112
sprüche 1112
ures 1112
verfassungs@@ 1112
180 1111
Aufbau@@ 1111
Berechn@@ 1111
Entschul@@ 1111
Tut@@ 1111
Verfas@@ 1111
Zuliefer@@ 1111
aufrecht 1111
einnahmen 1111
fizierte 1111
Ausbruch 1110
Broschür@@ 1110
Darauf 1110
Eck@@ 1110
RE 1110
Reparatur 1110
Verw@@ 1110
beeindruck@@ 1110
lität 1110
Belastungen 1109
GU@@ 1109
Nachfolger 1109
aut@@ 1109
bat@@ 1109
geräumigen 1109
geschul@@ 1109
use@@ 1109
virtuellen 1109
wissenschaft@@ 1109
Bedauern 1108
Botschaften 1108
Geschäftsführer 1108
Gesundheitsversorgung 1108
Jur@@ 1108
angen 1108
belastung 1108
beratung 1108
geschah 1108
gründet 1108
illa 1108
jet@@ 1108
optimiert 1108
versicherungs@@ 1108
Einerseits 1107
Fotokopiereinrichtungen 1107
Gehir@@ 1107
Milliarde 1107
Rä@@ 1107
Schuh@@ 1107
anspruchsvolle 1107
cre@@ 1107
hs 1107
nit@@ 1107
reiches 1107
verläss@@ 1107
Amster@@ 1106
Haushaltskontrolle 1106
Plattformen 1106
Tabellen 1106
Vorgang 1106
entsprechender 1106
familie 1106
gehalt 1106
privilegi@@ 1106
roten 1106
zeugt 1106
zurufen 1106
Fischler 1105
Gleiche 1105
ande 1105
artiges 1105
aten@@ 1105
definitiv 1105
gewöhnlichen 1105
gischen 1105
saubere 1105
ähnlicher 1105
Beantwortung 1104
Folgenab@@ 1104
SL 1104
Sports 1104
angehört 1104
dichte 1104
folgendes 1104
gesetze 1104
stenten 1104
110 1103
Behandlungen 1103
Pestizi@@ 1103
Spiels 1103
Vorsorge@@ 1103
Weltkrieg@@ 1103
architekton@@ 1103
fut@@ 1103
slowak@@ 1103
Erwägungen 1102
Galileo 1102
Heu@@ 1102
Theater@@ 1102
Time 1102
Ven@@ 1102
ansprüche 1102
christlichen 1102
historisch 1102
team 1102
zeile 1102
Behauptung 1101
Datens@@ 1101
Entdeckung 1101
Fall@@ 1101
Trä@@ 1101
anwendungen 1101
begeben 1101
berg@@ 1101
blicke 1101
dachten 1101
echt 1101
enten@@ 1101
höher@@ 1101
länge 1101
mittelständi@@ 1101
pflicht 1101
verweigert 1101
wunderbaren 1101
Dür@@ 1100
Erwärmung 1100
Informationsschalter 1100
Technology 1100
beschleunigt 1100
betreffende 1100
bom@@ 1100
bör@@ 1100
ferenz 1100
sprüch@@ 1100
versorgen 1100
60@@ 1099
Nachrichten@@ 1099
Potential 1099
ROM 1099
Sin@@ 1099
Werken 1099
abgedeckt 1099
apaz@@ 1099
lieferung 1099
seg@@ 1099
wissenschaftlicher 1099
Klärung 1098
Maus 1098
Medizin@@ 1098
Revol@@ 1098
Schienen@@ 1098
Wollen 1098
aming 1098
anmerken 1098
esenen 1098
nüt@@ 1098
other 1098
äter 1098
Ausgewogenheit 1097
Fest 1097
Stoffen 1097
adresse 1097
erung@@ 1097
foli@@ 1097
grenzt 1097
laufend 1097
unweit 1097
va@@ 1097
Ansehen 1096
Eigentums 1096
Gewer@@ 1096
NE@@ 1096
Shops 1096
Vergabe 1096
duktion 1096
gebir@@ 1096
king 1096
obliegt 1096
plung 1096
richtlinien 1096
ular@@ 1096
verknü@@ 1096
ön 1096
Berat@@ 1095
Klassen 1095
Klim@@ 1095
Kohle 1095
Meinungsfreiheit 1095
belast@@ 1095
gessen 1095
nachtei@@ 1095
unglück@@ 1095
Direkt 1094
Jan 1094
Phot@@ 1094
Symbole 1094
Wohl 1094
bewundern 1094
exakt 1094
fa 1094
standard@@ 1094
übertragung 1094
überwachung 1094
Bewegungs@@ 1093
FOR@@ 1093
Lande 1093
cas@@ 1093
Ira@@ 1092
eite 1092
iss@@ 1092
stungen 1092
wesent@@ 1092
CON@@ 1091
Chef 1091
Müller 1091
beschäftigung 1091
freundliches 1091
org@@ 1091
sever@@ 1091
unterstützten 1091
zusammenhän@@ 1091
Abend@@ 1090
Energiem@@ 1090
Hinzu 1090
ao 1090
asten 1090
nachfolgenden 1090
thaus 1090
veränderten 1090
Diversi@@ 1089
Hyper@@ 1089
NGL 1089
Prüfungen 1089
UK@@ 1089
abends 1089
chner 1089
d.@@ 1089
exper@@ 1089
getre@@ 1089
künstlerischen 1089
zusätzlicher 1089
Charakter@@ 1088
Publikationen 1088
exportieren 1088
nahmen@@ 1088
perfek@@ 1088
seinerzeit 1088
trum 1088
währung 1088
Periode 1087
stim@@ 1087
versu@@ 1087
Anlage@@ 1086
Ay@@ 1086
Bewirtschaftung 1086
Lat@@ 1086
gemachten 1086
gängig 1086
jahres 1086
nächstes 1086
terte 1086
versichert 1086
von@@ 1086
Cy@@ 1085
Null 1085
Teils 1085
Valencia 1085
Vernich@@ 1085
Verwir@@ 1085
Vot@@ 1085
lässig 1085
läßlich 1085
positiver 1085
teilnehmenden 1085
tener 1085
wall 1085
wunden 1085
Schwanger@@ 1084
ahn 1084
attraktiven 1084
ausgeht 1084
yp 1084
zügig 1084
Gescheh@@ 1083
Jahre@@ 1083
Texten 1083
Toi@@ 1083
erstre@@ 1083
nein 1083
robu@@ 1083
schwächen 1083
urop@@ 1083
Autovermietung 1082
Bestreben 1082
G20 1082
GF@@ 1082
Rezep@@ 1082
Taxi 1082
bestrebt 1082
existi@@ 1082
komplizierten 1082
kürzt 1082
qualit@@ 1082
wirtschaft@@ 1082
zir@@ 1082
Ferienhaus 1081
Handhabung 1081
Impul@@ 1081
Kompetenz@@ 1081
Wortlaut 1081
förderungs@@ 1081
span@@ 1081
steck@@ 1081
verbesserten 1081
verkörper@@ 1081
Auswirkung 1080
Kommunismus 1080
Konz@@ 1080
Paradies 1080
Parlamentarier 1080
definierten 1080
gendsten 1080
interven@@ 1080
umfassender 1080
л@@ 1080
Schwäche 1079
Space 1079
Therapie 1079
Verwand@@ 1079
bildungen 1079
bodsch@@ 1079
repräsentiert 1079
umen@@ 1079
Kunststoff@@ 1078
Sound@@ 1078
VIP 1078
anschauen 1078
erhielten 1078
gesu@@ 1078
strengere 1078
wälte 1078
Ergän@@ 1077
Füßen 1077
Instanz 1077
PE 1077
Strecken 1077
Ticket@@ 1077
atom@@ 1077
bedeutender 1077
behei@@ 1077
erneuerbarer 1077
imstande 1077
multinationalen 1077
palästinensische 1077
siedlung 1077
sätzlich 1077
Dokum@@ 1076
Einigkeit 1076
Lis@@ 1076
anony@@ 1076
begrüß@@ 1076
bilität 1076
zwecken 1076
Änderungsantrags 1076
80@@ 1075
Befreiung 1075
Berichterstattung 1075
Bevölkerungsgruppen 1075
Breite 1075
Diplomatie 1075
Ima@@ 1075
Kampfes 1075
Motoren 1075
Veget@@ 1075
agnen 1075
bedient 1075
englische 1075
gänzlich 1075
heruntergeladen 1075
leug@@ 1075
ränkungen 1075
shofes 1075
sky 1075
Bun@@ 1074
Dring@@ 1074
Schnit@@ 1074
Skri@@ 1074
Versicherung 1074
Viren 1074
geehrter 1074
geplante 1074
repräsent@@ 1074
stetig 1074
trinken 1074
verlang@@ 1074
к@@ 1074
Art@@ 1073
Spam 1073
initiativen 1073
stufe 1073
wünschte 1073
ückt 1073
Dur@@ 1072
Ideologie 1072
Koalition 1072
Kost@@ 1072
Profi@@ 1072
Sogar 1072
Themas 1072
Tier 1072
Trek 1072
Veröffentlich@@ 1072
eingebet@@ 1072
ernähr@@ 1072
esische 1072
holt 1072
.net 1071
Campingplatz 1071
Kampf@@ 1071
Lust 1071
Noten@@ 1071
Tampere 1071
Unrecht 1071
allgemeiner 1071
empfehle 1071
igte 1071
vorsehen 1071
wirst 1071
überschritten 1071
Formate 1070
Gy@@ 1070
Konsequenz 1070
Taliban 1070
Weiter 1070
dehnen 1070
elung 1070
hotels 1070
kostenfreien 1070
ond 1070
operieren 1070
spru@@ 1070
steigerung 1070
turel@@ 1070
Beitrittskandidaten 1069
Drittländer 1069
Muse@@ 1069
Religi@@ 1069
beginn 1069
borg 1069
forder@@ 1069
gemeldet 1069
solle 1069
unterzeichnen 1069
unverändert 1069
Anleitung 1068
Bibliotheken 1068
Intel@@ 1068
Set 1068
Spaniens 1068
Stabili@@ 1068
ehemali@@ 1068
entnehmen 1068
kub@@ 1068
lok@@ 1068
turm 1068
untersagt 1068
Gefühle 1067
Kommissionsmitglied 1067
Präsent@@ 1067
Zivilisten 1067
angesprochenen 1067
beeindruckende 1067
gelassen@@ 1067
lit@@ 1067
soren 1067
sweise 1067
ô@@ 1067
übereinstimmen 1067
Single 1066
behindertenfreundliche 1066
beloh@@ 1066
beträchtlichen 1066
beziehe 1066
buchs 1066
geheim@@ 1066
lindustrie 1066
sofor@@ 1066
vent@@ 1066
willen 1066
Asylbewer@@ 1065
Begleitung 1065
Fotografie 1065
Spy@@ 1065
bekam 1065
ho 1065
html 1065
sser 1065
Ansprüchen 1064
Motiv@@ 1064
Unfälle 1064
ome 1064
tent@@ 1064
unglaublich 1064
vermei@@ 1064
ć 1064
Akt 1063
Errungenschaften 1063
NE 1063
News@@ 1063
UM@@ 1063
bestehend 1063
betreut 1063
bran@@ 1063
steine 1063
zyklus 1063
Brüder 1062
Cer@@ 1062
Damals 1062
Punk@@ 1062
Standor@@ 1062
Verts 1062
Vorbeu@@ 1062
Wirtschaft@@ 1062
besichtigen 1062
chens 1062
felt 1062
ile 1062
seitigkeit 1062
weiterentwickelt 1062
Busse 1061
Etagen 1061
Hen@@ 1061
Konsum 1061
Quer@@ 1061
Schengener 1061
Unterricht 1061
adel@@ 1061
ausgerüstet 1061
elegant 1061
gau 1061
haltens 1061
herauszufinden 1061
schmer@@ 1061
tzei@@ 1061
tzen 1061
verlor@@ 1061
Ausnahme@@ 1060
Block 1060
Button 1060
Emis@@ 1060
Fan 1060
Fund@@ 1060
Vormittag 1060
gelan@@ 1060
istik@@ 1060
rahmen@@ 1060
räte 1060
stabil 1060
vertrieben 1060
wettbewerbsfähig 1060
Auftrag@@ 1059
Cur@@ 1059
Dunk@@ 1059
Tastat@@ 1059
Welle 1059
fehlenden 1059
tien 1059
.-@@ 1058
Beschluss@@ 1058
Beschäftigungspolitik 1058
Cab@@ 1058
Management@@ 1058
ago 1058
allgemein@@ 1058
beurteilt 1058
freiwillige 1058
gewäs@@ 1058
laggeb@@ 1058
reichs 1058
verbrauch 1058
Ökonomen 1058
Dör@@ 1057
Forschungs- 1057
Lev@@ 1057
erholen 1057
grundle@@ 1057
maßgeblich 1057
themati@@ 1057
vereinen 1057
Banan@@ 1056
Instrument@@ 1056
Labor@@ 1056
Milli@@ 1056
Schwi@@ 1056
Streitigkeiten 1056
Vern@@ 1056
Zuwanderung 1056
eras 1056
mitzuteilen 1056
par 1056
präsent 1056
sein@@ 1056
staates 1056
Behandlungs@@ 1055
HO@@ 1055
Heiz@@ 1055
Lieblings@@ 1055
aussieht 1055
bräu@@ 1055
moralischen 1055
streng@@ 1055
verschärfen 1055
verwandelt 1055
wägen 1055
Baden 1054
Chr@@ 1054
Eingabe 1054
Kürzung 1054
Strafen 1054
Streit 1054
area 1054
gelegentlich 1054
historischer 1054
müßten 1054
offizi@@ 1054
polnische 1054
prüft 1054
Aufpreis 1053
Auskunft 1053
Laufzeit 1053
Modellen 1053
Singapur 1053
dek@@ 1053
fachen 1053
lek@@ 1053
sst 1053
Fassa@@ 1052
Gil@@ 1052
Monte 1052
Plu@@ 1052
Prot@@ 1052
Qualifikationen 1052
Rohr@@ 1052
Sitzungsperiode 1052
Slideshows 1052
Songs 1052
deter 1052
rede 1052
ris 1052
stuft 1052
stuhl 1052
Drucker 1051
Experten@@ 1051
Gä@@ 1051
Haushaltsmittel 1051
Musiker 1051
Prote@@ 1051
Unfall 1051
Zeitschrift 1051
atum 1051
transparenter 1051
zögern 1051
ünden 1051
Alliance 1050
Co 1050
Fundament@@ 1050
Il 1050
Vie@@ 1050
Wandern 1050
diox@@ 1050
italien@@ 1050
katastrophal@@ 1050
t.@@ 1050
Gewis@@ 1049
Mehrheits@@ 1049
Photo@@ 1049
air 1049
beizubehalten 1049
funktions@@ 1049
kir@@ 1049
kunfts@@ 1049
leisch@@ 1049
orientieren 1049
spot@@ 1049
vernehmen 1049
zweit@@ 1049
Angestellten 1048
Plug 1048
eda 1048
gescho@@ 1048
höch@@ 1048
pfli@@ 1048
zusammengestellt 1048
1988 1047
Bay@@ 1047
Diskussions@@ 1047
Feri@@ 1047
Investitionsbank 1047
Nar@@ 1047
Patente 1047
Variablen 1047
Verstoß 1047
angestre@@ 1047
auer@@ 1047
befindlichen 1047
gig 1047
vi 1047
zwingend 1047
Bewerber@@ 1046
Emo@@ 1046
Leiden 1046
Ref 1046
Seh@@ 1046
Tragen 1046
Viel 1046
ated 1046
gelt 1046
graus@@ 1046
home 1046
ika 1046
ray 1046
Inhalts@@ 1045
Zufall 1045
fangs@@ 1045
inter 1045
japanische 1045
mark 1045
mittelalterlichen 1045
prinzipien 1045
römischen 1045
sebene 1045
veranstaltet 1045
Kodex 1044
Tiefe 1044
echtes 1044
einrichtung 1044
ession 1044
legend@@ 1044
lichten 1044
toler@@ 1044
widmet 1044
å@@ 1044
Ausdehnung 1043
Auseinandersetzungen 1043
Bestandteile 1043
Elektron@@ 1043
Enga@@ 1043
Konfigurations@@ 1043
Lor@@ 1043
Stern 1043
Umwelt- 1043
ace 1043
auszubauen 1043
passi@@ 1043
reihe 1043
scheu@@ 1043
smo@@ 1043
Enttäuschung 1042
Gerü@@ 1042
Grafik@@ 1042
Häusern 1042
Münzen 1042
Neg@@ 1042
WWU 1042
exzellente 1042
sahen 1042
Kloster 1041
Russen 1041
Straftaten 1041
ain 1041
blich 1041
boot 1041
chtest 1041
dienstes 1041
genten 1041
gran@@ 1041
handelte 1041
insel 1041
part@@ 1041
riften 1041
schecken 1041
tam@@ 1041
trug 1041
Überschwemmungen 1041
Beleu@@ 1040
Haiti 1040
Umweltpolitik 1040
umfangreich@@ 1040
versuchte 1040
zweier 1040
Anschließend 1039
Arten@@ 1039
Entscheidungsfindung 1039
Epo@@ 1039
Ros@@ 1039
Telekommunikation 1039
Unger@@ 1039
gestütz@@ 1039
lebens 1039
unterrichtet 1039
verse 1039
verurs@@ 1039
Betrieben 1038
Fut@@ 1038
Line 1038
Rücksicht 1038
Sab@@ 1038
Spiegel 1038
aufgezeigt 1038
business 1038
hilfs@@ 1038
ktiver 1038
mächtigungen 1038
nder 1038
samt 1038
sofortige 1038
vertiefen 1038
wächt 1038
zukommt 1038
Biom@@ 1037
Gestern 1037
Jerusalem 1037
Seel@@ 1037
Unser@@ 1037
geschnit@@ 1037
ji 1037
lenstoff@@ 1037
strategischer 1037
verlaufen 1037
zern 1037
IX 1036
Imperi@@ 1036
Konsultationen 1036
Monti 1036
Nationalismus 1036
Prak@@ 1036
beherbergt 1036
eindeutigen 1036
erweist 1036
erzählen 1036
ex 1036
fert 1036
geordnete 1036
ierter 1036
kunde 1036
tchen 1036
ys@@ 1036
Dimensionen 1035
KG 1035
Zusch@@ 1035
geräumige 1035
vertrauens@@ 1035
world 1035
Geg@@ 1034
Komplex 1034
bedingten 1034
entfernten 1034
ernsthaften 1034
folgte 1034
gleicht 1034
CA 1033
Downloads 1033
Düsseldorf 1033
Erlaubnis 1033
Erläu@@ 1033
First 1033
Gepäck 1033
Heraus@@ 1033
Vollendung 1033
anschließ@@ 1033
baute 1033
begehen 1033
dameri@@ 1033
mangelt 1033
traten 1033
vermieten 1033
Bezug@@ 1032
FC 1032
Klassen@@ 1032
Pakets 1032
Verwenden 1032
Zusage 1032
auferlegt 1032
dum 1032
ergie 1032
genz@@ 1032
ordnungsgemäße 1032
own 1032
sphase 1032
überschreiten 1032
Eingliederung 1031
Frau@@ 1031
Krebs 1031
Spen@@ 1031
europaweit 1031
hoben 1031
undes 1031
verläuft 1031
wärtigen 1031
Anleihen 1030
Betrü@@ 1030
Engli@@ 1030
Fed 1030
Genau@@ 1030
Montenegro 1030
Stärken 1030
Trock@@ 1030
Vertiefung 1030
glichkeiten 1030
irakischen 1030
revi@@ 1030
tic 1030
unden@@ 1030
Avi@@ 1029
Größen@@ 1029
appellieren 1029
aufrichtig 1029
dicht 1029
iPod 1029
informellen 1029
komb@@ 1029
setzungen 1029
Ergeb@@ 1028
ME 1028
Rüstungs@@ 1028
Verzeichn@@ 1028
Vieh@@ 1028
dlern 1028
esses 1028
ld@@ 1028
weitergehen 1028
29@@ 1027
Attra@@ 1027
EURO@@ 1027
Konsu@@ 1027
dringende 1027
einigt 1027
folgend 1027
lick 1027
ok 1027
potenzielle 1027
stellern 1027
unüber@@ 1027
übersehen 1027
Ostse@@ 1026
Quart@@ 1026
breiter 1026
teu@@ 1026
DS 1025
Gou@@ 1025
Ori@@ 1025
Temperatur@@ 1025
kirche 1025
night 1025
rieb@@ 1025
ual 1025
wählt 1025
überarbeitet 1025
ý 1025
anführen 1024
er- 1024
int@@ 1024
konzer@@ 1024
ographie 1024
perfekten 1024
test@@ 1024
ungere@@ 1024
unzählige 1024
verfasst 1024
Dresden 1023
Gru@@ 1023
Marco 1023
Schlussfolgerung 1023
TO 1023
diagno@@ 1023
formuli@@ 1023
fotogra@@ 1023
hindern 1023
lla 1023
niedrigeren 1023
nun@@ 1023
station@@ 1023
stürzen 1023
takt 1023
tür@@ 1023
Höhen@@ 1022
José 1022
Kalten 1022
Straßenverkehr 1022
Umstrukturi@@ 1022
Verknüpfung 1022
ägyp@@ 1022
Edinburgh 1021
Sichtweise 1021
absoluten 1021
def@@ 1021
fängt 1021
länger@@ 1021
sports 1021
Clinton 1020
Gegen 1020
Israelis 1020
Kä@@ 1020
M. 1020
Südkorea 1020
Terroran@@ 1020
ankommt 1020
bean@@ 1020
cer@@ 1020
fortgeschrit@@ 1020
gebern 1020
kapitali@@ 1020
lossene 1020
organisator@@ 1020
schich@@ 1020
ört 1020
Beamte 1019
Infos 1019
Kart@@ 1019
dit 1019
kum@@ 1019
ones 1019
sprechende 1019
äuft 1019
Diagno@@ 1018
Dolomiten 1018
Etiket@@ 1018
Geschwindi@@ 1018
Harmonie 1018
Lock@@ 1018
Meeres 1018
Nan@@ 1018
Portfolio 1018
Schulungen 1018
freiwilligen 1018
haushalts@@ 1018
Blä@@ 1017
Ersten 1017
Palast 1017
acc@@ 1017
eland 1017
erstklassige 1017
nachhaltiges 1017
Nahrung 1016
Suites 1016
Umstand 1016
dermann 1016
diesbezü@@ 1016
ganzes 1016
juristische 1016
malen 1016
rechtlicher 1016
Buffet 1015
Dav@@ 1015
Europäern 1015
Leser 1015
Lit@@ 1015
Mie@@ 1015
entlassen 1015
erkt 1015
rationen 1015
schrei@@ 1015
schränken 1015
strei@@ 1015
tter@@ 1015
zwecke 1015
zwingt 1015
übergreifenden 1015
Balance 1014
Chr. 1014
Cle@@ 1014
Designs 1014
Jahreszeit 1014
Kampagnen 1014
Persönlichkeit 1014
Ps 1014
Symb@@ 1014
Times 1014
auslän@@ 1014
bun@@ 1014
ende@@ 1014
exi@@ 1014
geprä@@ 1014
nischer 1014
reservieren 1014
tragene 1014
1980 1013
Auslieferung 1013
Mineral@@ 1013
Seminare 1013
Unterscheidung 1013
Zugestän@@ 1013
been 1013
chi 1013
dner 1013
mediterran@@ 1013
por 1013
ras@@ 1013
Anpassungs@@ 1012
Hall 1012
Rez@@ 1012
Räumlichkeiten 1012
Vulkan@@ 1012
beteiligung 1012
ef 1012
imperi@@ 1012
pot@@ 1012
skand@@ 1012
steil@@ 1012
verarbeiten 1012
web 1012
zucht 1012
Messen 1011
Terminal 1011
Wäre 1011
geschaff@@ 1011
helpful 1011
legungs@@ 1011
ungarische 1011
ziehungs@@ 1011
Beschleunigung 1010
acher 1010
ators 1010
erschwert 1010
experim@@ 1010
gelder 1010
herkömmlichen 1010
manip@@ 1010
reinen 1010
strikt 1010
theti@@ 1010
Place 1009
Zuständi@@ 1009
besuchte 1009
einfaches 1009
indert 1009
ington 1009
versorgt 1009
2014 1008
Machen 1008
Multimedia 1008
Vertrauens 1008
ethischen 1008
igungs@@ 1008
jeglichen 1008
ny 1008
pakete 1008
tab@@ 1008
tas 1008
wohlhab@@ 1008
A. 1007
Haltestelle 1007
Misch@@ 1007
Mittagessen 1007
Verhaf@@ 1007
augen@@ 1007
unterstützte 1007
vollsten 1007
Christian 1006
Elektronik 1006
Jac@@ 1006
Linke 1006
Posten 1006
alog 1006
aufgegeben 1006
behar@@ 1006
ganzhei@@ 1006
halbe 1006
jenseits 1006
langt 1006
massiv 1006
operativen 1006
platt@@ 1006
rez 1006
services 1006
voraussichtlich 1006
Arabien 1005
Brok 1005
Flo@@ 1005
Fuss 1005
Mitglied@@ 1005
Ve@@ 1005
Vollständigkeit 1005
ati 1005
aufnahmen 1005
dent@@ 1005
drän@@ 1005
extreme 1005
ffekt 1005
field 1005
kontinuierliche 1005
realistische 1005
Blei@@ 1004
Handels- 1004
antrags 1004
beliebige 1004
day 1004
raft 1004
risiko 1004
schätze 1004
verwendete 1004
Chat 1003
Glückwunsch 1003
Lieferungen 1003
Lul@@ 1003
aufw@@ 1003
echnik 1003
erwarteten 1003
fragte 1003
geschäfte 1003
inierte 1003
nig 1003
Felsen 1002
Flücht@@ 1002
Gebäudes 1002
Reinig@@ 1002
Schulung 1002
afgh@@ 1002
andin@@ 1002
auswahl 1002
dic@@ 1002
schnellstmöglich 1002
zweites 1002
überwunden 1002
DR 1001
Momente 1001
SMS 1001
ards 1001
glücklicherweise 1001
häufigsten 1001
sha@@ 1001
Aussehen 1000
CH 1000
Haut@@ 1000
Hygi@@ 1000
Lagerung 1000
Leb@@ 1000
Reisenden 1000
Simul@@ 1000
liebt 1000
sinken 1000
stitu@@ 1000
Entdeck@@ 999
Spannung 999
Speicherk@@ 999
assen@@ 999
offener 999
sident 999
skri@@ 999
tolle 999
Association 998
Etage 998
Prophe@@ 998
bevorzugen 998
häufi@@ 998
ministers 998
Fili@@ 997
KW 997
Prim@@ 997
alu@@ 997
anbieter 997
iel 997
unterschiedlichsten 997
virtuelle 997
Wanderungen 996
file 996
mutzung 996
ple@@ 996
unabhängiger 996
var 996
wäsche 996
Diagnose 995
Fi 995
Labour 995
Leipzig 995
Marktan@@ 995
Vorsitz@@ 995
günstiger 995
merkt 995
mitgliedern 995
portal 995
Gewähr 994
Rücktritt 994
SL@@ 994
ap 994
drastisch 994
flexibler 994
ischerweise 994
modus 994
stay 994
tilien 994
Anbau 993
Dauer@@ 993
Eis 993
Hotelzimmer 993
Mitgliedsta@@ 993
afft 993
alisierungen 993
bet 993
entschuldigen 993
großzügig 993
rückt 993
veranlasst 993
FT@@ 992
Kamer@@ 992
Prozessen 992
Skript 992
Spr@@ 992
Technologie@@ 992
dü@@ 992
erem 992
erledigen 992
flucht 992
ministeri@@ 992
oll 992
ummer 992
überleben 992
AND 991
Mir@@ 991
Präsident@@ 991
Quar@@ 991
Rindfleisch 991
gewöh@@ 991
kontinuier@@ 991
1990er 990
Development 990
PAR@@ 990
Ursprün@@ 990
einheimischen 990
ereien 990
gos 990
IR 989
Inneren 989
Kontak@@ 989
Typen 989
einzeln 989
exo@@ 989
fac@@ 989
gesteuert 989
thiop@@ 989
usi@@ 989
verzeichnis 989
äumt 989
Ath@@ 988
Aufnahme@@ 988
Erforschung 988
Fahrrad 988
Fotografi@@ 988
Nationalen 988
Zehn@@ 988
dimension@@ 988
glän@@ 988
grö@@ 988
kündigen 988
läufig 988
mende 988
schiff@@ 988
soll@@ 988
verhaftet 988
überraschend 988
Biotechnologie 987
Jacques 987
bestätigung 987
ewi@@ 987
kanern 987
rent@@ 987
tschech@@ 987
untergebracht 987
verfü@@ 987
wirtschaftliches 987
01.@@ 986
Fen@@ 986
Weitergabe 986
auszuführen 986
frau 986
haltungs@@ 986
jenem 986
pension 986
speisen 986
Bonus@@ 985
Fachleute 985
Schlacht 985
Tanz@@ 985
beanspru@@ 985
chel@@ 985
ellen@@ 985
finnischen 985
galt 985
heimischen 985
olo 985
they 985
Übersetz@@ 985
ř@@ 985
LCD 984
Quad@@ 984
Rub@@ 984
Somm@@ 984
dafri@@ 984
esta 984
gekrön@@ 984
keln 984
mau@@ 984
spie@@ 984
ux 984
Dien@@ 983
Durchbruch 983
Verpack@@ 983
Wartungs@@ 983
einstellungen 983
elektrischen 983
gefertigt 983
gegensei@@ 983
intensiver 983
marken 983
sitzt 983
vez 983
Allah 982
Fische 982
Palma 982
air@@ 982
erledigt 982
isieren 982
komponenten 982
schlug 982
stattfand 982
Akte@@ 981
Aufschwung 981
Blau@@ 981
Blumen 981
ECO@@ 981
Ernst 981
Expan@@ 981
Standorte 981
Tempel 981
Umwand@@ 981
aufgeteilt 981
befin@@ 981
cl@@ 981
güter 981
nnen 981
tsprü@@ 981
voranzu@@ 981
wehr@@ 981
zauber@@ 981
Beobachtung 980
Dienstleister 980
Meilenst@@ 980
.ch 979
Beein@@ 979
Handlung 979
His@@ 979
Kraftstoff@@ 979
Nob@@ 979
Radi@@ 979
diesjährigen 979
rechnet 979
starb 979
Ökonomie 979
Host@@ 978
Schnee 978
langfris@@ 978
magne@@ 978
schär@@ 978
unterladen 978
verweigern 978
vorwiegend 978
übergreif@@ 978
1986 977
Aluminium 977
Asy@@ 977
Familienzimmer 977
Grie@@ 977
ICH@@ 977
agen@@ 977
dez 977
sozialistischen 977
zweck 977
ø@@ 977
Kontinuität 976
Radik@@ 976
Vorteilen 976
Woo@@ 976
You 976
behilflich 976
een 976
einwand@@ 976
entdeckte 976
entierte 976
gebot@@ 976
jah@@ 976
rent 976
tiz@@ 976
verletzen 976
ängen 976
ästheti@@ 976
Herstell@@ 975
Jon@@ 975
Mountain@@ 975
Nachweis 975
chni@@ 975
klagt 975
lauten 975
sorgungs@@ 975
unzäh@@ 975
verbot@@ 975
verfolgung 975
westen 975
Diskrimin@@ 974
Verschiebung 974
angezogen 974
beschä@@ 974
bles 974
katho@@ 974
rot@@ 974
Akademie 973
Auftreten 973
Kron@@ 973
Monta@@ 973
Olymp@@ 973
Set@@ 973
Ten@@ 973
Tie@@ 973
Vide@@ 973
bewusstsein 973
bisher@@ 973
bürgerlichen 973
dreißig 973
einziger 973
eria 973
ffenen 973
ida 973
iran@@ 973
stationen 973
Jazz 972
Med@@ 972
Research 972
Später 972
ankommen 972
ball@@ 972
salon 972
sole 972
sse@@ 972
tier 972
Herzlich 971
Japans 971
Konzeption 971
No 971
Tennis 971
door 971
eintritt 971
eistungen 971
faden 971
lot 971
ring@@ 971
thos 971
umgewandelt 971
unde@@ 971
win 971
ält 971
Berechti@@ 970
Partition 970
Santer 970
Wäldern 970
anges@@ 970
bedau@@ 970
gross@@ 970
ky 970
list 970
Behinderung 969
Prestige 969
Wand 969
begannen 969
dago@@ 969
krie@@ 969
mietung 969
phy@@ 969
rats@@ 969
Atlantik 968
Fehlern 968
Filter@@ 968
Ih@@ 968
amerikan@@ 968
artikel 968
demnach 968
fik 968
gebil@@ 968
großartigen 968
isse@@ 968
BM@@ 967
Kamin 967
Strei@@ 967
Toten 967
Vorstands@@ 967
alar@@ 967
fenen 967
geschlossen@@ 967
woll@@ 967
zugewiesen 967
Bestes 966
Cafés 966
[...]
